11101111111000010011110011001001
11110110110100100111001111000010
00010100011111001001000111100010
11111001000011011110011000100010
00000110010110100110001010010010
11011101010011010011101011001010
00000111001101110100010111001011
11011110110101011111000001000110
11010100000101101101000000100011
11011111110010011101011000110001
11011011000000110111010010011111
11111101000100000100010010111001
11110000101111110101101110011101
00001001001010111011110110001110
11011111111110010000000101100011
11101100000111101001001110011110
00010011101001010000001101010111
11100000100011011001000010100011
00010110001101101110100101001011
00010111110100000011111011100000
