00010010111110001010001011101101
11010000011001111100011101010101
00011110001000000011001001001110
11001111011010101010111000010000
00000111010111010010110101100010
11111110011011110101100110101111
11101110000110111110101001100000
11111101111001011100011000010100
11101111100001001011000110111111
00100100011000100100011100111100
11110001110110101010101100111111
00010100110011101100101101100111
11011000111110001010010011010001
00001010000000000110010111101001
11111111001110111110010011101110
00001101100100100100011000001111
00000100111000111101011110011000
00000001001111111110110011100100
11110101011110101001101011100110
11110110011111001000111110110001
