11010111111001110101010011000110
11011100100010011010010100111100
11110001001100011000100100110100
11011111110111111100001110000100
11111011111111001100111101011111
11011011100110010011101010111011
11000001011000001110010011010001
11100111010101101101001111111001
11100011010111111101100101001111
11011000001110000000000110010001
11011101000010001001100111011000
11110011011111101001011000100011
11111100001101111001010100000000
00111000110010010001001010101110
11110000001100000110101001000010
11110011001100000101101111010111
00001110100110110111000110010000
00000000011010111100001100010111
00001001111011010100100010111111
11011011110111011100011100110001
