11111001011011111010001000011110
11101111001010010111010111100101
10101111011000111110000111100100
11011001101111111100111101110100
11100111111001101101100110001101
11101111010101001101001001101110
10110010001001010101100110011010
11110100010110100101110011010100
11100011001011001111100110010110
00001010010111110110101101011111
00011010100000111111110110110001
11100001001111000010001001111011
11100111011111100100010110101101
00011000001011000110001110100010
00100000101011101000100110110011
11011101110010011000111010001111
11100011000000111111011001110001
00000011010110011011010110010000
11100101110000111011100111111110
11100110011111010110000001001100
