11111111010001011011100000110011
11111010100101111100110110011010
00000101110011011011101101001001
11111111001010010001010101000001
11111010011010010100100110110111
11111010111101000111011001010111
00000100010011111000100010111101
11111110111010110011000111101100
00001000000010110100111101100010
11111001011101011101111110101010
00000110010110111100001111111011
00000001110010001011110100001111
11111101011010011011010000001111
11111111000101110000011100000011
11111010000000111101010011010001
00000001110110111111010010001111
11111111110110101100000000100101
11111100001000101010101101110000
00000000110011101110011010001101
00000100111101010010110010101000
00000110001111001000011101101010
11111100110101110101100001000110
00000100001011110101100111100100
11111101100010010110000101010101
00000000010011111100111000010000
00000110000111101111000000110000
11111110101011001111110000010011
11111011111110110110101110001110
00000010111110111110101100101010
00000100110000101011110110100100
00000011001110000001110111000100
00001010100000111001101001001111
11111011000011001110001010100000
00000000000111001000110100100001
11111111000001011111011001001110
11111001100101000101011011001010
11110101101111001111000110111101
11110111111011100100010010101100
11111110101111100001001110011001
11111110100101101101110000010001
00000100100111110111010001011100
00000001011011010010000010110010
11111100111010110101110011110111
11111100101111001110101111011000
11111010011000011110010010001100
00000010101111100110111110001110
00000000111110001010100000000011
00000111111100111111010101111010
11111011011011001010011001010010
11111001001100010011100110110101
00000111001110011011011101011100
00000101100110110000000010000111
11111010001011110011110001001011
00000100101000010110101110110010
11111111000010111110011101110111
11111110000101010000010100111001
00000111010101010111111111011110
00000010010110100010101011100001
11111010110010111111110100100000
00000010010011101000001110001001
11111110101001001110001111000111
00000000111001000001111010000011
00000000010110001010010101011111
11111100010101110000110000010000
00000001010111100001100010110101
00000000101111101110001110010110
00000010110110110100011110001001
00000111000111010000010010001100
11111011011000010010111110000000
00000010101010111000010000111001
00000111111001100101011010000000
00000011011010110101011111101011
11111110001101111000001110101111
11111111100101001001000000010100
11111110000101110010010000100110
11111010011000011001011100010010
00000011101101001010101110111110
11111100111100111010101100011101
00000000010101100110111010001101
00001000100110111100100110000010
00001001111001011111111110000100
11111010110110111010001100001110
00000000111001100100111001100010
00000010001110101111100101000110
11111110110010100101110011011011
00000010010110011110011101010111
00000110010100101010001010011100
00000001010001101011010010111100
11111011110010100110111110111110
00000111110101001100001010000111
11110110111001010110111111001111
11111010101000101101110010111010
00000101100011001011000001011001
00000110010100111001001010111011
00000010100101001111100110110101
11111101101100111111101110111010
11111000100110100101001111101001
00000000101101111100110110011000
00000101100010000010010000110001
11111110110101001001110010101011
11111000100000110100010000010110
11111111000111001110111101110100
00000000001111100011001111000010
00000100101010110000111111101110
00000011111011001001100101111010
00000001111110100001110100111111
00000100101001110011000010110011
00000100001101010001000000100000
11111110101001000001100110101010
11111110101001011100000111000001
00000001011101000000111011000100
00000001101101010101111011010010
00000011001101001100100101100100
00000011000010110010000101101011
11111000011111100110000110101110
00000100100100101110100101000000
00000101000010101001111111100010
00001000111011001101100110101101
00000101011100001110110110101111
00000000001001100000011000011000
11111111010010100011110111101101
00000010111000111001110101100001
11111000011110110010110011011010
11111100100111111010001011110110
00000000101111011100100001001111
00000001000010111011000011010110
00000111101000000100001011000000
11111000000110001000110100111101
11111010111110010001111010011101
11111010101011011010000010111010
11111011111011011001101111111101
11111010001000101001111101110011
11111101001011100100110000100111
11111111110111000100101110100000
11111010001001110101001010100011
00000011011011111011011100100001
00000110001001111110100001111101
00000111011100110101011100101010
11111100111010001000001111011110
00000011001010111101101100011111
11110110011100001001110011100101
11111100101000100110010110100101
00000010000101001001010101000010
00000111010000001010100111110101
00000000001000101101010111110100
11111100101001000011101100100000
11111001100001001010101011000100
00000101010011100010000110010011
11111010000100111011001101100001
00001001011001100110011111000000
11111101100011100100110110000111
11111110110010001011001001001111
11111111000110010110010011000010
11111111000011111000010101110000
11111010011000010100000001111101
11110110111100111111001001101111
00000011110000001011011000100000
11111001111100100111111100100101
11111101110001100011011110100110
00000010100100001011101100111101
00000000111010101111001001100110
00000100111111001100010010001110
00000001101110010101001111110001
00000001111010100000101000100010
00000001100010110001100011110010
00000010010110000010110101100001
00001000001011110011111000010111
00000100110000011110000111010011
11111011100100010111101101111110
11111110101001010010000000001111
00000011110001010000101011111010
11110110101010111010100011011000
11111000010011010111101110010110
00000001110101011001110000011110
00000010011000001110010001111011
00000110010100011111001000000110
11111100100110110011100101100001
11111010111100010010111010111011
11111110110111100111110111000100
11111110111111001110001110001000
00000000000010000011100010111110
00000000101000010101001000101100
11111110100101111101110001111011
00000000110110010011010101001000
11111111000100000010101100011010
00000001001000101001000000101001
11111010100100111101010110110111
11111011011111100101100101010001
11111110111110101010010000101111
11111100011110000011010011110001
00000010001001000010110101111101
11111100101101110001111100010001
11111010100110110100010000111000
00000111111000010101111000010001
00000000110011001101110110110000
00000000110110101011111001100100
00001100001110001110000101010010
00000001011010000110010001111100
11111010010111101110100001011010
11111011011111000100000101101111
11111111101010111111001111111110
11111100101110110110110011111010
00000001000011011010110000101011
11111010001010001011010100011011
00000111101010010001101001011111
11111111111000111011011000000011
11111110000011001101001000011100
00000010111011101000101100110010
11111111010001010111110001001110
00000001110101011000100010110111
00000011100010010101110110100000
11111000110101110110010110111101
11110111000101011011000110101100
00000001111001110001110101101110
00000010010000011101100010110010
11111010001011000001000110110000
11111101110110110010100101011011
00000001111100110111101010010011
11111110100111101001111010110111
00000000100010010110101100111100
11111011110110110000001100000100
11111101100111001110101111001111
00000011111100101010010001011101
11110111001011110111101000011101
11111100001111010001001001110111
11111110101011010010011011001000
00000010110000011011111001001100
00000011000110001101010010000010
00000001101011010000100001101100
11111100101000100101101111000010
11111011111000101101110001111011
11111001101011111011000110000011
11111101100011010111101101100110
00000101001110111011100110011111
00000101010100001110100010011011
00000001110011100000111111010101
11111111000000010111111100111100
00000100010010100110111001110011
11111110010011111110101101100100
11111001101000000110000111111101
11111101000000101110111001110101
11111111101111101111010111001101
11111001100111101011011110010001
00000110101100111100011011101111
00001000001111010100110111011010
00000011000001011000110011001011
00000000101111011000000110010100
00000101000110101101101111011110
11111101010111000000000001001101
00000011110000101100001111110110
00000100111100001000101011100101
11111101001011100010000110110110
00000010001011011011100110101011
11111101011000001111111101000010
11111010001010100000001010101000
00001000001110111100111100010001
00000100100100011001011001000000
11111110011001000101011010111001
11111101101000000110000100001111
11110100111111101101011101011011
00000010011011101001111010100011
00000001010010011000110110101011
00000010111010111100010011101111
00000010111111101101011100011010
00000000001110111110100010010011
00000011000110000111101101110101
00000000111010010011111110101010
00000010111110110011000000100010
00000000010111101101001100010001
11110110111000101010000000100010
00000100100001000100010010110101
11111011100000000100111000100010
00000000101001110100000011100101
00000010000010011001111010001010
11111101001011110010011000100111
00001011110010001011001011110110
00000100010010110001001010110000
11111110100110001001100011111101
11111111101011100001100110110100
00000100000010010101101001110001
00000011011011101110110101000110
11111110001110001001000101100001
00000111001001110111111101111110
00000111000110000001111000000100
11111011100111011010110001101001
00000001110110111110101111110000
00000011000000101010110000000000
00000100011000000110011010001111
00000101111111011100100110011101
00000111001010101001001111110101
00000011100000101100001111111011
11111011000011101111010000001111
11111110010001100011011101110000
11111111000001111101001001110100
00001001000111010100010000001001
00000011011101010111001000011010
11111110111101001101001000110010
00000111001101010011000111001000
11111100101111111101011011001011
11111111101000000110001010111000
11111100011110110001001101001110
11111111001001100011000011100001
00000010000101001110111110000101
11111101111111110110011111001101
00000001010110010000000000001111
11111011110001110000011111100001
00000001000110111110111110010111
11111100001010100101011101010100
00001000010010001001110100101111
00000010001001001110100111100001
11111100100101011110010110001010
00000010001110001010000001110100
00000010100010110000001001110000
00000111010011010111101110101111
00000110011101101011010000001011
11111111010001101100010000000100
00000011000111001111101110001110
11111101100110010011011101111110
11111011101101000100011000111100
11110011101010101101011111011101
00000010101110011011100101111000
00000101011101110100000111111100
00000110010101011011111100011010
00000001111001110101001100110101
11111110010111111000000110101001
11111101101010001000101111011101
00000000110011010000100110011101
11111100111101010001011111100010
11111101110111011010111101111001
00000001011111011001101100010011
00000001100100001101010001100101
11111111001010000110111001110111
00001000101011001111110100000110
11111110011011000101100110011011
11111100000100110100111101110011
00000000101011100000110000010000
11111010110110111101001111101000
11111100101111011101000100011111
00000111000111100111011000001000
11111001001001001111010100100100
00000110110111001111101000111111
11111111011101010010111000010001
00000110000010011001011101101001
00000100001101000101000011100101
11111101001100101111001011110001
00000010110101110100000010001111
11111010000101100011000101010110
00000100101100000100010011011110
11111011010011101001011101100111
11111011110101011111010011110111
00000010111110101101000010010000
11111101101111001101000011011000
00000101001010101010000000000010
11110100011111010000110010111101
11111010110011011010100101110101
00000101100100010001010001101000
00000011000000101111100001110110
00000110100100001010111110101101
00000001110010011000100111011111
11111100110101110101011000001111
11111100110011110111110010011001
11111000000011110000010011101110
11111110100111110111101111100000
11111010100000110000111110100000
00001000000001110100001001111111
00000001010010101111010000000101
00000000010010010010100001011010
00000111001010101110110110001110
00000111011110001101101011111101
11111010001111001000111001001000
11111110111110011111111100110000
00000010010110001110110011110010
00000001011011011111010111001101
00000011011111100000100011111101
11111101110101110100000111001100
11111110100110010101011010100011
00000001001011110000111111101100
11111110110111011110100100001000
00000001011100101001000100101111
00000011100110011000110111100111
00000000000100001010101100100101
00000111111001011111110101001000
00000001000111000110011000101110
11111101000011111111110011010011
11111001110001010001101101011011
00000110111001110110000110000010
11111000111111111110111111111100
11111110111001010001100110111110
00000100001101000001000010001101
11111010001000101001001000101000
11111001011110111101001000000011
11111110110000110110111111100110
00000011010011101000010100000110
11111110100110001001001100110011
00000000001010010111110111001101
11111011110110001010000010100001
11111110111101101111100010101111
11111100011000101101001111101000
00000000110110011101110101010001
00000001110111111011000101101011
00000101110101100100010110111010
00000011111010010010000111101100
11111111110101110101011000011001
00000001110010101101100001011011
00000010011111110000100010110111
00000010000110010101100000011110
00000001101110100001000101001101
00000001111101101000110101110101
00001000010110010111001001011011
11111100101101001110101010010100
11111101000101111011111100001000
11111100010001010010100000001010
00000010010001110000111000110101
11111101101010110010010001001010
11111100110010000100001000111111
11111111010001110100111110001001
11111101011101110010000001101100
11111111000000100010101010100010
11111101011100001110101100001100
00000001010011000111010111101010
11111111011101011101111011001010
11111111010010101000101111011110
00000000010100111000101000010001
11111001100010011101101000100011
11111100111010011100110001110001
00000101101011000011010001000001
11111110100101000100111011111100
11111110001011100111101001111110
11110111100000111011111110101011
11111100111100011101111001111010
00000010110111100110110011100011
11111100110100111101011010000100
00000100010001001011100010110111
11111110010111011100010111100001
00000110011011001101101011001111
00000101111000110110001110111011
00000000011100001010011011101111
00000110010100001011001010001000
00000101000010111100101111110111
11111110010011011011111110101101
11111011110101111101100001100100
00000010111101100001111101110110
11111110000101101100010111100110
11111101111110000001101011000010
00001001111011001100100010110011
00000100001100011101100101000001
11111100100011010100111101111100
11110011111111110000001110101101
00000011010110010011011000111010
00000000110001011000010011100111
11111110001101101100010100111111
11111100011010101010011000111011
11111110010000110011001010101101
11111011010001010110011000101101
00000101000100011010111011010010
00001011001001010110000100000011
00000101111011010101100010101000
00000011011011101010001001101111
11110111100010110110110101011011
11111000101101110111111011000100
11111100100000111001001111110011
11111100100010001001011010010011
11111100100011100011100001111111
11110110111111100000100100111010
11111101000011011100111101010101
00000000010010011101101010011010
00000011011111100110001101001100
11111111101000000100111010101000
00000001011000111101001000100010
00001000100001110111000110110010
11111000110111010011111101010001
00000010000010110010101110100110
11111000011010000111110111011100
11111111100011111111010010001111
00000100000100101011011100011000
11111100010111000100111100011100
11111100110010001010011001101010
11111101011010001100010101111110
11111100101000001111101100010110
00000011101001110000110111100110
00000001100010001010101110000010
11111010011110001010111011001110
00000100000111101011000111000100
00000001100100110110110000111111
00000001011000100000110011101100
00000001010111000110101111000110
11111011000010010111111100001001
00000010010110101000111010110011
11111011001101010011010101010001
11111111111101010000101000010100
00000000110101111111011110100110
00000001010001111100111000111100
00001010011100001010111111001111
11110100100011000000101100111000
00000011111110111011111010100001
00000101000101111100110000111110
00000101001110000001101111010011
11111100100010100011011110100111
11111101100010001000100100000001
00000010001000001010111100010011
11111010011100001000000111010111
11111010110101011100000100101111
00000001101000011110111000010110
00000000100111001101011101011011
00000011010000111110010100011001
00000010100010111001000010111101
00001000101111011111010000111011
11111101111100010011101011110001
11111111001111110000111110011011
00000000000100111110111010111010
11110010001111010100011111111010
00001001000001000011001100110111
11111110011001011111001111100011
11111100000101111101110010100010
00000001001101101001100000011001
00000100011101101111000100011001
00000111011010111111001101101110
00000001011001110011100101101110
00010000000111010001111011000110
11111011001101110001100011111011
00000101101011000001001011111100
00000010110000100101011111000110
11111110111110100110111110001011
11111000101111000000110010010010
11111000000011010101100010011101
00000010001001010111101000001100
00000011000011011110000110110110
00000101101000001110110101011000
00000010101001001101000110001011
11111100000010100001010111010110
00000100011111110011110100100101
11111010001000000000001100010100
00000010111100110111000001101011
11111110010100110110100100011100
00000010100101010111010101100111
11111100100110111101011110111011
11111100000010101011110010110001
11111101111111110011111101100001
11111101010010011111010111011000
11111110110001011000000101011110
11111001010010011110100000101010
00000100000101001111110011101001
00000011100100100110101110010000
11111101110010101110001010101110
11111100000111100001101001001001
00000001110100101110101110010110
00000101001101010011000000101010
00000001010000101100000010110011
11111110101110001100001011101111
11111111111111010110011111110100
11111111001001110101110110010100
00000011101110100000010111111101
11111110000001101011111010100110
00000001001100110000100010101000
11110110000011100101001110010101
00000000010011111011011100100010
11111100011000001111000111111100
11111001001100111011011001111010
11111011010000111000011011101010
11111110000100010000010010001100
00000011000100000001001000101100
11111110110111100011101011100111
00000010000111011000110010100110
11111100001101010110110011011000
11111101110010010110001001101000
00000010111010101010011011010111
00000001000011011110000100110101
00000011101010101100110111110000
00000001111101101110111010001110
11111001110110101110001001111100
00000010010011101111110110011010
00000100101011000101001100010101
11111100100110010100000010110100
11111001111000101111100011100111
11110101000010010101010100011010
11111111101011011100011010001110
11111101010101000100011101011011
11111111001101110001101100111111
00000010000101000011000001011010
00001010110001010011100111100001
00000101010010011110101010010101
00001100111011001110101111101010
00000011110000111110110010000101
00000101001100001110011001110110
11111010100000101110000100010001
11110111001110100100100000100000
00000110000111110000111101111100
11111000010100011111001011100010
11110111010101000100000111010101
00000011100110001110111111111110
11110111100111111001101000010101
11111011001100011001011001100001
11111101111000010000001111011011
11111100011010000101101000001010
00000011001000001101100011111011
11111101001001010011011111111011
00000001111001011001001110110111
00000100101001101110010000000110
11111101101010100101100110110000
00001001010000111010001110100100
00000001101010111101101001101110
00000011001101110101000010010001
00000011001011001001101011111011
00000010001001010000001010011001
00000000101001110101100111111000
00000011110000101100000101111001
00000000000001100001000000001001
11111111010000011010001000011101
00000011001100111000011101010101
00000101011011110011011011100110
11111010011000000010010001101110
00000011101001100011100101100010
11111110110100111110100011000111
11111001101010101100101100010101
00000010001010110110100101010101
00000001010100111010001001010010
11111010100101101010111000100100
00000010000110001001010010001010
11111101011100000100000100010010
11110111101110001111111011101000
00000010011101101000000001101101
11111010110001110101101000011111
11111101101001010011111110111111
00000011110111011100101111101110
00000001001110100010000010011111
11111110110000110001011111111001
11111011011001111100110011010101
11111100100000000010100010001111
11111101000100001101101000001010
00000000101110110101011101000111
00000011100011110010111000100001
11110111110010101011111100110100
00000000110011010101001111001101
11111010000111110101000101001100
11111111001100000001000100100000
00000001100100101110010110101111
11111111010000000010100001010001
11111001101110110010011000010011
00000100010111101110110000011100
11111010110100110111000011111000
11111111101111110000010011001110
00000000000010000101111110100000
11111111101101111100110101100101
00000111011000011110001111001000
00000010011101111011110100101110
00000011000110011101000100010111
00001000001101011101000100111100
11111001100110000001111110010000
00000000110010011010100101110001
00000000101111111100110100110000
00000100011000011110010010000001
11111010001001001100101010110111
11111010111000010001101101101011
11111011010011011010000111001110
11111110111110001100111100111110
00000000010110101101000111011111
11111110111110001100001111100111
00000000011011000010010110000000
11111110110111110110101010001111
00000011001100111110000001100000
11111100010000011110011110100111
11110111111110000100111111111000
11111011000000010010010001010001
11111110000111001110110001100000
11110101101011111110001111001011
00000100001011101101001001100100
00000011100001010101111011110100
11110110110101101111100101110111
11111010100100100001100110111011
11111110111111111001101010111101
00000101010111110110001001011100
11111011000010111010100100111111
00000011000000111110100011010101
11111100000011111110101101001001
11111010010000111111000111001000
00000000111000111010010000010111
00000000111001101100011110100101
11111110001010100101111110000000
11111000111101001111100010110001
11111101111010011011110110110000
00001000001101010110011000001111
00000010000101111100011010100010
00000000000011101111100110010110
11110100001110010011100101000101
11111111010101101001100100100011
11111010100111111111110101000101
00001001001101011001110111111110
11111111101101000101001000001101
00000001110101000000010010011110
00000110000111001010111001100111
00000110000010111100000111001100
11111001110010001101001100001000
11111110110101001111101001011011
11111111110100100100000101001011
00000100000010101101001111000000
11111000111101101001010000010101
00000100110111001110010100001010
11111101111000011010010000100011
11111101010101011000011011001000
11111111010110010110001101001011
00000001001110001001010110000101
00000000111000101111000101111001
11111001111110101101000010101110
11111011111001001101010110100001
00000100100011000100010101111011
11111011010011010010111111100101
00000001010110100001000011000000
00000101111101001110111010110100
00000001101011000001011110010000
00000100101110111111101101000001
00000111101010000001101010101011
00000110001001111110101010100010
00001001000101010100000111001001
00000010100001011010010111111101
11111000000000001011110001011000
11111110000100100001000101110111
00000000011110100101001100011110
00000001101001000011110100001001
00000000111111100011001010111000
11111011000010111101110111101111
00001010111101000000000000101110
00000001100110000001111111101110
00001000011010001001111111111110
00000010010001001111100101110011
11111101010110000100010011101011
00000001000110100000001100100101
11111111110000011111100010001011
11111111011101010110100000110101
00000001111111001011100111011101
11111011011100010111110110001010
11111110101110010001100011000100
11111011000000110100001000011011
00000111000010101000010111100100
11111110111011110011001100011100
00001011110111011101111011010100
11111101100000101110111100010000
11111110011011111110101100011001
11111100000100011111001010000001
11111111001111010111010010110101
11111011111100111110100010010000
11111001111111101101111110000110
11111100110001110010110100000000
11111011110101110110111100100110
00000010001010110010111110000001
00001001111000010010101011111000
11111111110000110010100111110011
11111010100101110100111110101011
00000001010000101001100101101010
00000100000010011000010111011111
11111011101001110100100111111010
00000000111111000110000011011100
11111110110101000010011000111110
00000111001110000010101011000011
11111011010110110111110010000110
11110111000110001101110111010111
11111010101111011001001001101000
11111111000100101001111101000100
11111011011011111010110010100100
11111111111111110101101010111011
00000100011000010110111111100000
00000011010111011101011101101011
11111011010001111110011011100010
00000010011111111100011111010110
00000000101010001000000100101011
11110110100011110001001000101110
00000100010000000000110110001000
00000000011111111000110110000010
11111001011101100000011110101010
00000101100010101001001101100110
11111111100110101001011100000110
11111100000000100000011100111010
00000000010101001101101100101010
00000010101010111000011011110110
11111111010101001111111101110100
00000101100011100011001001001011
00000000001100101001001111110110
00000000100100100111000011101000
00000100000111101010000010110100
00000111001000011011001100100101
00001001110101110100110000001110
11111011101010011000001111011111
11111010110111111001101001010000
00001000011111101011101100001110
00000010011001010000011010001001
