11111111110100000111000001010001
11111101100001101110011001001101
00000011101111010110100110110011
00000000110001000011111010001111
11111111111011111101100100101111
11111101110101110111010100110100
11110110101100000011010001010100
11110110111111000001001010001100
00000110100000000111111100110001
00000000001111100001000000111000
00000100001111101110110011100101
00000100000110101001111110100100
11111110101011111001110010010111
00000010100011110001101000011111
11111110100010001011111000001011
11111011011011110100000110011110
11111111011011100001001100111010
00000101011000011101001000010111
00001010101011001110010111111110
11111111101011000011101000010110
11110111011101011110111110010111
00000001011100110111100101101011
00000001011101010001110010000110
11111101001110001011100100000100
11111100101001101011101111010000
11111110110000110100110001101010
00000011010101010111000011011001
00000001000000000110101111100011
11111011111100011001101000010100
00000001101110111100000010101000
00000101001101011011101010101001
11111010101100101110100010000010
00000010101011110100100100010011
11111001011100100010011101101110
11110110001010001001010111100110
11111010111111001101010010011111
11111110100101110011011100011010
00000000100100000000110101011111
11111000011111101111101101010011
00000110011100100010000011010101
00000110000111010101001010010100
00000010001110111000110011111101
11111111101001111110110101011111
11111111110000110100000100110010
00000110100110100100101001110010
11111011110111010100100001011101
00000100111010101111100001001000
00000011110101010000101110100010
00000000110101000011010101001101
00000010111010010011100100000011
11111001010100001010111000001111
11111001001000011010011111010000
11111111101110011011010000010111
11111110001100111001010011101101
11111111010000001110001000111100
00000011010000111110010010011001
11110110100111000000111100001001
11110011000100010000101100101111
00000100101001111111100001111110
11111110111101011100101101001111
11111100000010001111110111000100
11111111000111100000001011001111
00000101000010010101100011000000
00000101011101001011000101100010
11111101111001111111111001001010
11111111000001110100000011000101
00000010001011101011110111001010
00000100111000101001000111100000
11111000111111011100010000110101
00000000111010101000010110111111
00000010110101101011111100101000
00000000110101101010101000110111
00000000110110010011101011110011
11110011000010001100110011101111
00001000011000100010101101110111
00000011010010110110010101110000
11111011110001011101000110001101
00000000010011110100100110101111
00001000001101010010100011100101
00000100001111101001101010101001
11111101011011110000000000001101
11111000000101010110001111110110
11111010010011101111101010010000
11111110100100110110010000011110
11111111010100100101000110001000
00000111100001100010101011001010
11111101011110111101110100010011
11111110010010101101001111000101
00000101001100110111110010011001
00000010000001111100110000110101
00000011111100010000000011111110
00000100110000100010010101111010
00001010111000101001110011001010
00000010010000100000011111011001
11110110110011101000111100101100
00000000101010110101001001110001
11111100110000100100011010011101
11111110101001100100101000010011
11111111010000101101101100110110
11111000000011010101011001011101
11111100011000100000001011101011
11111111011101100000101011100111
11111000000000110010001101000100
00000010000001100111000011000100
11111110100001011011111000111110
00000100111110101110011111111000
11111000000001011110001000100111
11111000011000101101001111011100
11111101110111001110011110011011
11111101101100011110011100000001
11111101000101100101111100100111
00000110001010001101110010110110
00000001011010001000111100111111
00000000111111111001111011001110
00000001011010100000101111000101
11111010100011100101110101111001
11111110000101001011010001000111
11111111110001111000101000111101
00000000011111011001110010000000
11111001110000101001000000000111
11111001100000100011001010001101
00000000110001101011000111100010
11111111010001011100001100001111
11110101100000111000100000101101
11111111101101011111011000100001
11111110000101010110101001101011
00000010111110111101100110001101
11111101000111011000010010000001
11111100110001001000100100011111
11111011011011010111110101011011
00000000111110101110010001011100
00000000011000110010001111111011
00000000111111010000110111011001
00000011011000010101101111100110
00000000001110101100000111110010
11111011101010011001011110110110
00000000001011001100001001100101
11111011010101111111110101110101
00001001011111100000001111101001
11111101100101011101101000011111
00000001110110011010100110101101
11111110011011100111001101011111
00000101010011101010010000001000
11111100000100101101011000110111
00000110001011111000100000100000
00000011100101110100001101001011
00000100110000101010111010100101
11111101001011001000100011101000
00000000111110110000000011111111
11111001000011110101011000010100
00000110110111100010011111011110
00000011001100010111101011011001
11111111100011001011011100010000
00000111010100000110000011000101
00000101010000000010110100100010
00000000110010111000101000001100
11111111011010101010010010100111
11110101100100000101101110000000
00000011110010011100011011100000
11111000010111101100000011010001
00000000100011111100111111100010
00000001111100101010011110110000
00000110011111001010000010110000
00000100111011100000100110000111
11111100010110100010110101011000
11111010101101110101011011110000
11111110101111110101011010110100
00000000111010101001000000111001
00000010011000001110101000111111
00000010000110100111001001000001
00000000101101000000000000100111
11111110001101001111101011000011
00000011011010001100011001010101
11111011011101100100000111110000
11111100011011101001000101100000
11111110100011010010011011010010
00000000000110011001011001101000
11111110100000000010110101001010
00000100110110010101111101100000
11111110011101010011110101101001
00000000100001111101100010110010
11110111110111000111001010111010
11111100001011100000110111100101
11111010111000001111100010001100
11111111111010100101101011111111
00001011110110111001110110111010
11111110110001101001001111011001
11111010010000111011111010000000
11111001010010000111000011100001
00000111110000111010110011101001
00000001111010011111000100011101
11111111000000111000101011100110
00000000000111110001000110111100
11111011001100010010101010001001
00000011101001111001110001010011
11111100100101011000100100100111
11111111000101001100111000110100
00000000100110110111010000011001
11111110010000011010000101111101
11111111100001011110011001100001
00000010001101101000010100010101
00000101100011011001000001100110
11111100110101101000100011000111
00000000011001011001110001111010
11111010001001101111000111111101
11111101111010100001000100010011
11111010010100000010011010010110
11111100111010110001011101101110
00000000011111101111000111011101
11111111100101110011111100111111
11111010100110010000010011001110
11111110001100111100001001000101
11111111011001010110101001110011
00000011010110100110000010100111
00000000011001111111011011100011
00000100110010001011101111101010
00000001110110111000100110001111
00000000101011011001101010110000
00000101110111000100111100000011
00000011100110101111000011011001
00000001000100011110000111001111
11111110111001011011001101011011
00000010010011100000000110001110
00000001101000010111000100110101
00000011110101100110101111101111
00000100100111101001000110100101
00000010011100011111101111110101
11111101100000001110100001011101
00000000011111011011111000110101
11111100101010010110010100001001
11111101000000010110100000010001
00000010010001010100001110001101
00000001111110101000001000000101
00000101110111100010111001001101
11111110110010001101101110000001
11111011100011100110010100000011
00000000011111111001000101011001
00000100000101011100011000110010
11111110001110110110010111000010
00000010101000111100111010100111
00000101000110100110001101000100
11110100000111111111010000000010
00000000111001011111110110001011
00000101001111110000010110101010
00001001100100101100011011111010
11111101101111001010000101010101
11111110110111010100001111011000
11111111010010111000011010001111
11111101110110110111000000000010
00000001100000001001010001101011
11111000101000011001000111110000
00000010100011101001011010101110
11111110110011110111111101010101
11110110111001000010000011100000
00000110111110111011000000111100
00000010001101011111111001000110
00000010001111110101111010010001
11111011001011011111001000100100
00000010110100011011000111000111
00000100110101010000110101010110
11111100000011001110111000000001
11111011011111111001010101101111
00000001001001110101101101101111
00000001000000001100111000111010
11111010100000010111100000001110
00000101101011100011011101000110
11111101000111010000001011010101
00000001101000110100100101110011
00000100110100110010100001000011
00001000010000000000000100101101
11111111000111010111110010010100
00000001010001110100111000111010
00000100010001111101011111101110
11111111111101000011011111001000
00000010011110101000000101101010
00000101110101011101101111100100
11111111000010001010010001110010
11111111110100010000100010000101
11111110000101001111111101010001
00000010001110111011011111010101
00000100000010001101111010011001
00000101111110100101001110101110
00000100000110001111010100001010
11111111001100000111111011001011
11111001111111111000001100100010
11111111010111100010110100010001
00000110000100111111001111100010
11110111011100111100011000100001
11111101011011000001110011111001
11111100011011010001101110001011
00000111111011010100001111110000
00000100000010111010011101001001
00000000100000101111110011111000
00000001100110100100111100111011
00000000001100010100111101011011
00000000010101101111111011101010
00000010011010100101011110101110
00000011001100111000100100110111
11111110001101011101001010101001
11111101011011111000010100100011
11111100101100011010010101001101
11111100100001000100101010010111
00000000011100101100111011101010
11111111111110101111010011111010
11111010110110100110101011100001
11111101100100101010110111001001
11111010000110111010111011101011
11111101101000100011011100100111
11111010111000110000010111101011
11111111100111110110000101101011
00000001001001000010101000110000
11111111111111100110101110001111
11110111111011111110011010111110
00000000001101101100001111110001
11111000000000001111011111111111
00000010010100011010100101101001
11111010000100000110010001101000
11111110101000000111101111101011
11111101001101011011101100111000
11110111100010101101110011100101
00000010010111010101110011011100
11111101010101111010101010101111
00000011000011110101011101011011
00000101000101011010011000110110
00000011110011010000000011111010
11110011011110001110110110101111
11111101100010010010101010101011
00000111101101110011010000001010
00000010100100010000111111000111
00000010111000010111101101110010
00000011011010001110011101110010
11111110010101101110111010001101
00000000100100011110010110011110
00000010110010100011111101111110
11111011101110001111000100001011
00000001111011101100011001001100
00000000110010010001000111101111
11111100101111011000100011110100
00000010111000111110110110001111
00000110000111111001111100010000
00000101110010111000101110100111
11111110010010110000100001010110
00000011100010001110101001101100
00000000010101111101101111100111
11111101101001101100010110001100
11111111000111100010100011101100
11111100000111000000001011001110
11110111001101010110011000101000
00000010110000000111011010100001
11111010101001100100111100111010
00000010011001101100111000111110
00000110101001010101110100110101
00000100101001000000010100101111
11111001100101001111011100001010
00000010010001110111000101101010
11111110011101000001110001110111
11110011000001100100010010100111
11111101110101110011010001011000
00000001101111101000010011010000
11111001001101000111000000110011
11111111101001011101000101101111
00000010000111110101100001000110
00001000101011011010001100110100
00000101011000101101101101000110
00000011001011101010010110011010
00000010001100111110110111110001
11111100011011000101011010111011
00001001100011001110101011010101
00000000001000001111011000001000
00001000111101100000100000110011
11111101000011101110101011110101
11111101000010111000010001100101
11111110101100001001111010001001
11111010100001010101111110100110
11111110101010001011110111111111
11111111111101100001011110000101
00000010101010001000001111011101
11111011011101001001110001010011
00000111001101101100011010001010
00000100011111001000111001100100
11110110001110100101001110111111
00000101110000001010001010001110
11111011110011111111111101101110
00000100000101000001000011011110
00000110001010110100010101001001
11111011100000110110000011100111
11111011001101011011011101100011
00000001101010010100010100001100
11111111110001010011010011100111
00000011100100000010110111000100
11111000000101000110100000101011
00000011010110101110001100011110
11111100011110101111010101101101
11111111110100001101010010101010
00000100100100110100011001100010
00000001011000111110111011010100
00000010001111100111010000011000
11111100100000001000001001110101
00000101101101010110010100010011
00000000010101011011110110110101
11111011111011100101110000000101
00001001101101100001011011111011
00000000000001101100110111010000
11111101000111000101011011111010
00000010101110000100101000011010
11111100010110010110011010000001
11111010111100000011110010110011
00000000000011101110100111010100
11111100011101000001011111000000
11111100000011100101000001111010
11111011101100100110100101100100
11111111111000110111001100000100
00000001011100000011110101011000
11110101111100010010010101001001
11111101011101011001011010110101
00000001011101111000110101100001
00000001100010011101010011000101
00000011101001101010000001001010
11111100110100011110110110111111
00000100101001011111011001000011
00000000101110011101101110011000
11111100001101011101101000000010
00000011101100101010110111010001
00000000001111111001101001110000
11111101000100101101101110001100
00000110110100011001000110011111
11111001101111110100111100001010
11111111000100110100011001111110
00000001101001100010110000011010
00000001100111100010110110011100
11111100111101010100111100010011
00000001100011111001110000000010
11111011000101111011000100010000
11111111110101110110001111000111
11111111001101010100110111010011
00000011100001010111011010101010
00000101000011101000110100001100
00000000000001111100010111101101
00000000101001100000111101010100
00000001110111100111011100111010
00000011100111011110011000110100
00000010110011001010011100110010
11110111101100111010000110010111
11111001011010001001010011011111
11111101111011011111110101110001
11111011111001100110101111111110
00000010011101001011100011011010
11111100011110110010110111101110
11111000000010101110001010110011
00000001101101001101100011001101
11111101101001110101110000010011
11111101110000000100010100111101
11111111100010010010000100101111
00000000110101101100100100010000
00000011111110111001001111101110
00000000011111000001010111000010
11111011100101100111100101101010
11111101111001010000010010000000
00000011110100111000100100011111
11111011011010011101001111111010
11111001001101100001110100111101
00000001000101010010011000010100
00001000100111101011001111011111
00000100110000011000110010001001
00000011101100100100000010001101
00000011001011101100110011000000
00000010110110001101001011110001
00000001011010110001110000111011
00000001101101001100010000110011
00000000100100111011111010010100
00000110011111110100101100101001
00000000011101111100001101011011
00000101101110110100111001011100
11111010110100001110001000101001
11111101011000011111000000011011
11111110101111111011111010000101
11111100100000010010001100110101
11111100000010001010111001000111
00000110011111111101001110100011
11111000010110110100011000010011
00000011100011100111000001101001
11111100100010001100101001110000
00000010100011010010011100010100
11111111000001100110011000110100
11111110110100111111011011110000
11111011111101111111110010101011
00000001011000111101100100100010
00000000010010110010010010100111
00000001110010110111001101000001
00000001100100110111001000110110
00000100010001100110010111010101
11111000000000101011100011101100
11111010111000110111000000001100
11110110011101010101101111011010
00000100100010000011100010011010
11111100000111011010001011101100
00000101001101100101000000111111
00000001010100001011110001100110
11111001100010011001011100101100
11111101011110001001010111001010
00000001001101001011110010011000
00000111000001111001111001010101
00000000100100111110101111011101
00000000100010001110010110010100
11111110110111001001001000110101
11111101001010000011001010110011
00000010111101011011011111101001
11111011010101110111010001111111
00000100111100100110010100100000
00000001000011001101011000111000
00000100010000100011011010000111
00000010011100110100001010110011
11111011111010011111111101000001
11111101001110000101000001110010
11111011111100011100101100010001
00000100000110010000011001011000
00000110101010101011001110101011
00001000010100100110110111011101
11111111001100001010110101101101
00000010100010111100101001010000
00000001011000000011110001000010
00000001111010101101011110011001
00000010110101111111001011001000
00000010011111100101001101100110
11111100000011001101011000111011
00000010101100101011101010010010
11111100010000101000001010011001
00000001010010001111001001000100
11111000001110010010000100100000
00000011110000001000100011111000
11111111100001010010110000001000
00000110010001011100001100101100
11111111110111000100000011011110
00000000001000000011001000111111
11111100100110011000111100101110
00000001000010001100010100001011
11111101011110111000011000101101
11111111000110110111100100001110
00000000101001011000100111010100
11111111110111011010100101100101
00000111110010111011110001101111
00000001001110011010001010100010
11111100010100001101110001001100
00000000010101011101111010010111
11111011011110110110101111010010
11111101001001001010000010100101
00000001001111111110011010011111
00000000100111101100000100100110
11111111010001110111101101101011
11111111111001001001111001011001
00000000010011111001000111011111
11111000000010111001111000010001
00000010101101011110100111001001
11111111111100110011100001000000
11111010100101100010000101010011
00000101100110111111001010111100
00000101011110000111001110111000
00000011011101110111111011000101
11111101101111000011011000010101
11111101101111000110010100011110
00000010101101100100110100110110
11111101100011000011000101100111
00000010110101010101100010111000
11111100011100010011101111001100
11111100111011110010011110000100
11111101100110101110001001000100
00000000001110001010001011100100
11111101110010111000100010111011
11111111110101110010010010011110
00000011100000011111110111101001
11111101111011101111110110000101
11111011111010000111110111110110
11111111100011111010111111000111
11110110100001010101011011000000
00000000100101110101000011011000
00000010101111011111111100100010
00000011101100001111101111111110
00000011010100111010101111011000
11111100111001000010111010100000
00000101011001000100000010101101
11111011011001100011100111100000
11111011111101010000100011010011
00000010101100011111011000011000
00000011001010010110101100011101
11111001001001010100011010000011
11111010001011010101111010100110
11111100110011001111100111101110
11111100101000110100110101100001
11111010111010000101000001111000
00000011100001011011110110100110
00000100101000001111000000101110
00000011110101110011000110001111
11111000011111010101001100001111
11111001110100010111101010011101
11111101100100101100011111010101
00000000001101001101011101000010
11110111000110000101101001110110
11111001100101101000110011001010
11111111010011101011001010010101
00000110110000111011100110110101
11111111010011100110101100110110
11111010011010001100100010001001
00000100001110101111000010110111
11111010101110111111000101100111
00000000111101111000001010111000
00000011100000100111011010110111
00000001111000000011100110101111
00001000110111001010110100100001
11111001101010010110001100101110
11111101110101111001010010011011
11111100101011001011000011101010
11111011111010001001010010010010
00000000000011001110000000010111
11111111100000000110001110010011
11111110101100111001110000011010
00000000001000111110011101101001
11111000011110111100110101000110
11111110010101111111100101100000
00000000011101110110110101100110
00000011110011101101001001110100
00001000001011011010000110111110
00000111010111001001111101010011
11111111101001110011011010111100
00000110110010111111111011001011
11111110010000011001101011110101
11111111000110001011111010111101
11111010101011100011100101010000
00000001010100000000100101011001
11111110010101001010011111001001
11111010101110011100010010101101
00000001001011000010101001110010
11111110111101000101110111100010
11111110001101011010110010101010
11111000101011100000110010011110
11111101101011011000110010101100
00000101101011101100000110100000
11111100101110111010010101011011
11111010110010100001010001100101
11111101000000010110111000110001
00000001010010001010101000111101
11111111111010010100000011110110
00000000010001110010001111010001
00000001001001001000001010001011
11111110011001101110101110100100
11111110000111001001000010011111
11111101001100000001011101011011
11111101011001100111001000000101
00000010011001111001100001111110
00000001111000010101101011001000
11111110001011110101000000011010
00000011110001111001100101100011
00000110001111001110101111010111
00000010010010100001010101110010
00000011001011010101000000011101
11111001001101111100001000011001
11111111011110101110100101000011
11111101010100100111000010101101
00000111101010000111001110110110
11111010011111101000010011001011
00000000100101111000111010001110
00000000111111000100100101110000
00000010010010010111000001111100
00001001000011101111110111100111
00000010011011110001011001001100
11111011101100000000010100000111
00000010011010001101000111101101
00000010110011011111100100011100
11111111111101001000001000110001
00000010000110111110001011011001
11111101011011111000011101011011
00000010101011101000101010010011
00000010111110000011110100000001
00000101000101011101010001010110
00000011000000100100110111101111
11110111100011110011010110000101
00000000110010111100000001010111
11111100001110000011011111110100
00000011010010100001000100110101
11111100111001101001110000000110
00000111010111110011110111000011
00000001110010001111110110010001
11111100001011101101001001001001
11111100111111100000011000100100
11110111101001000011000100111000
00000010001111100101001001000001
00000010101010011011000111101011
00000010110001001011111001110110
00000011100010000101110111101011
11111110010111010101101110101010
00000100000111111000001101100111
11111101001100000000101110111000
11111111011100101001111001011101
00001010010000000101110010010100
00000111000010101101011010000111
11111100111011110110110010001110
00000000111100010011010110001111
11111001100101000010101010000111
00000011001101110001001000011101
11111010111011001010110101011100
11111011101111111000101110110100
11111101001001110111001010001111
11111010100000001010100110011010
11111111100010000101101100010100
11111100000011011000001011011111
00000000000001101101101001101011
11110011101010100001101011000011
11110111101001000101001110011001
00000000001100000110011110110000
00000100011011001100101110101100
11111101100101100011010010111111
00000100001110011011001111011110
11111011111010000110010000111000
00000001110111001001111111110110
11110111100011000001011000001011
00000010010001111000111011001110
11111011000100000000101000001010
00000000101010101011011110010110
11111100011000010110110100011010
11111111010100101100010101010000
11111101010001001001011111001001
00000101111101001111000001101011
11111000110111010001010110101101
11111010110111111001001001111110
11111110000001010100100101010111
00000001110101000100001101010100
00000100101010011111011000001011
11111100010110010000011101100101
11111011010111010101001101101001
00000011110100111011101110010100
00000000000101110010111011001010
00000010001110000100101101011101
11111011011011000110110001001100
00000001101101000011110110010000
11111010011100101000111010110111
11111010111110100001111101000010
11111110000000000010010111000111
11111010111000010100001010011100
11111110010111100100101011100011
00000011110100011111111000000000
00000101001000111011110000100001
00000100001001011101010011101001
11111011000010011011010101001101
11111011000000001101011100011111
00000000110110011101010110010001
11110001000010101100011111000101
00000000100000010011101010110101
11111111011001001100110000100110
11111110101001011001100101010011
00000010101100110110010000001111
11111100001111101011010101100110
11111110100110111111001110110001
00000010000101111011001110010000
11111100101101111010011110101101
00000101010001111000011110110111
11111111110100100010110101011000
11111110001011101001010001011010
11111000111011111110011111100001
11111011101001101010100011001100
00000001010010111000011100101010
11111110100111110100101011010001
00001000111111111110101110011010
00000111110000000000001000010101
00000000010100101010001100100011
11111100000000011100000100000111
00000001001100010111000010011000
00000010010101111111100110111111
11111111011001101010001010100001
11110111010110110101011001000110
11111010000100011110001000101100
11111101001001011011111111111010
00000110100001100111011101111101
11111010110000110100111010010001
11110111101110001010110111110011
00000101000101110111001101101001
00000011111110101000010101001101
11111111000010110001000001000000
11110101111110001101011110100010
00000100111010000000010011110000
11111101010101010111101100110000
00000011011001000101101111110101
00000011011010101100101101010011
11111111011000000011110110100011
00000010100110000110011001101110
00000010000000001011001100110001
