11111000110100011001001011011110
11111100000100111000000011010001
11111111111001001000110111001011
00000010011001101101100000010101
11111001101110111111010010010111
00000110111000000011000110001110
11111010100011100000011111000100
11111100001001010011010011000011
11111110111001100100110101100111
11111101010111000010111001000000
11111001010100000010000110010100
00001010100010000010100100001111
11110111100011000100011000000100
00000100000100100111010100100101
00000000011010101001110101000001
11111110100100000110100111111000
11111011001100101100010110101001
11111000011001110011111110110101
11111001110010010110100111001110
00000010110111000010011001101011
00000011110001110010110111010111
00000001010111110001000110110111
00000010010010110101010010110101
00001010000010100111010011110111
11110111111001001100111101001101
00001010100101000010100111100001
00000000111101100110111011101101
11111100110100000111011001001100
11111101001000110111000001110111
11111110101000111010111010010001
11111111101010111110110000101101
00000101111000101000111110100101
11110010111011101011100100010100
00000001010100110001111010101000
00000010011100110100001100001011
11111011011110110101110111101110
11111101011001010010001010010111
00000101010010101110011111110001
11111011100001000000110110000000
00000000001100010100011111100110
11111101110011101010111101011100
00000010011011100001000000011101
00000000101000101101000100001101
11110110111011011001101110001010
00000110011010001010110001101101
11111001101100100100011111100111
11111110010011010111011010000100
11111111111000111011010011010001
00000100010001001100011101010101
11110110101110101100001101001101
11111001111100010101110111110000
11111001111000110100111101111111
00001000011011010010001001000111
00000000101010100001010000100100
00000100000011110001011110101101
00001011101111010101010100011011
00000111100010010100110111011001
11111110010000110111101010100001
00000000011111000011110010111001
11110111011100101011001010100111
00000101101010101001110010100100
00000100100010010000000101110111
11111000001010011111010001110000
11111110011001001100111100010101
11111111001001111101110100010000
11111111010110101111001111001110
11111011111001100001110011101001
00000101100110111101000100000100
11111101001000110101000110101011
00000011011010101111101000000101
00000000000011001011001000101001
11110100010010111101110000101010
11110111110111111111110011111000
11111011001111101011101001000000
11110101010000100101000001100010
11111000011010110101111000000101
00001100100101011000111001110011
11111000001110100101001010101110
11111100100000011100010011000100
11111100011110011000001011100010
11111100001111110011100100001011
00000110111010110001001111110110
11111001000001000010101000111001
11111100110001001101001000011111
00000100000000010100011100111111
11111011100010100010101111111011
11111100011000000010010011110001
00000100100011110011000010001011
00000011100000101001011000011011
00000000110000011100001001011111
00000111110011011111110001011111
11111001010111110110011011000110
00000110111010001011111010111100
11111000001110011010000100010001
11111011010000011000001010111011
00000010000101000111100101101100
11111000010010000001111111010101
00000010011001111000111111011010
11111010001100110010011000001111
00000000101111000110011111010000
00000011100001100110011101100111
00000101000110111100011101111111
00000110000100101001001011100011
11111001111011000010000001000110
00000001111011011000110010001111
00000001000110000100110100000010
11111101100111101111000100000111
11111110100110010011101111001100
11110110011110001101001111101111
00000001110110010000000011110010
00000011001001101111101101010111
00000011011010001011011011010011
00000001111001100101010010011101
11111010010101000111100111111000
11111101111011110100000011101000
11111100010010111011011110010001
11111101110010101001100001101011
00000000000001110001000101010010
00000000111110110011000100111101
00000000001101111100010111010110
11111010101101010111111011100101
11111100000100111101101110110100
00000001000001001010001100111011
11111110110110000100000010110001
11111101111000110001010110010000
11111001000101101101100111111001
00001001001001001101011111101101
00000101110011000111110110010010
11111110001110001001010001001001
11111111101001011110110101010000
00000100001111010101011001001101
11111011001011010010110001011001
00000001011111000010011111001000
11110111110101101001110111011101
00000101001010101110110010010010
00000000110000010011101110110000
00000010101100110100110111001100
11111101110001010111101111001011
00000011001001101110110010001110
11111100111100111010101010100010
00000100101100110100100100001010
11111111001100101110001101110010
11111011101101000111011010000110
11111101110011001000001010000100
11111111110001111101010010010111
11111110001100101101010001100010
00000010001110001000110110101001
11111101000110110111001111100000
11111010001111011110101000000010
11111110001001111100100011100000
11111011011100011111110111011100
00000110101110100101010001010001
00001010001001000100001100010000
11111111101100110001010000110100
00000100011011101011100001111101
11111000010010111100100001010001
11111001110001101000101110011011
11111110110000011010100000010100
11111101001101010101110001111101
11111100011100101011011110110101
00000001110101011100010111011110
00000010011011000101000000101110
00000110010010100011100010010100
11111001010011111000010100110011
00000001100111011101111101100011
00000000101011001111110011011000
00000111010000010011111100000111
11111010010101010010001000111001
11111011110111110001100011010011
11111010100110111111100110111011
11111110001100011000001101101100
00000101111001100000111010101011
11111110101010000101111000000011
00000000100100010011011001111010
11111010110001111110000000101100
00000010110001111100111111001011
00000010111101101011011101011001
00000000010001011000000000100010
11111101010101001101111100000010
00000010011101011011110101000011
11111010000110100110001100111110
11111101110100000101000101110010
00000011101111100000010000100000
11111011000111111001000011011000
00000100111011000110101101001111
00000101111010110010100110101110
11111101000110110111010001010101
11111110111010010101001010100000
11111100100010000111110011010010
11111010111101111100110110101101
11111010110000110101101110000001
11111100010001010110111100111100
11111011010010101110101011000001
11111001111000111001001000010001
11111001110110111111101001001110
11111101001001010011000000011101
11110111000110100000010111110100
00000001100010101001110000111000
00000001101101111010000100011000
00000001111011111011000110111101
11111000011001100011111010010110
00000110011001001001111101101001
00001001000101101111101010110000
00000101000010100101001111011110
00000100000110000000000010010011
00000100100101010110101010001100
11111111111110111110011110111001
00000000011011001111111010110100
00000011110001110101010110011001
00000010010100110100010001110100
11111100100111101010101100010011
00000000110010101000010000011010
11111111111011011110100000110111
00000000000001101010111110110001
11111100110000001001110000010000
00000001001000111000001110001100
11111111000010001001011100010100
00000111100000010001011100101001
11111011100100011101001011000110
11111111111100111001111001001010
00000010100000001011111111000111
00001000000010100101011001000101
11111111011110100000010110000001
11111101011001000101110001000111
11111100111110011010001011011110
00000000100100001011011001101011
11111011011011000000010111010101
11111100001110011111010111101010
00000001010000110100100100011011
00000010001010110011111111111110
00000001101000110001001111011010
11111011110010101010010101001111
11111011000001000101000110010011
00000000000110011111110001111100
00000010011000100000010010011001
11111111011000000101100101100110
00000111101110001001100000001101
00000001011011011000101111111110
00000000011000100001011100110111
11111010000011011010110011100011
11111111000001110110000010100000
11110110010101000000001011000111
00000100010101010010000010111000
00000000011110001111010011010110
00000100001010101000111010000011
00000001101000011001100111011011
00000011011011011111100101101111
00000011001001010001110011101011
11110101001010100100000000101000
11111100110101001100100001111001
00000000001110011101110000010100
11111110000011001011111001110000
00000101011011000001111100111001
00000110010110000010001010111010
00000100000110000011000011010111
11110101101111111010110011001001
00000000111011011111100001101010
11111111010001111101101000110001
00000011100011011011000011000010
11111100000100110111011001011101
11110111011111100100000111110001
11111000010110110100011101100010
11111111010010000101011010011101
11111010100011001111111001100101
11110111001101011111101001000011
11111111111000110011100111111110
11111111000110000111000011101001
11111110101000101101111011010010
00000001110011100011111000000000
11111100110111000010010001011101
11111111000100001001100001001101
00000011000100010010111111011110
11111110110001011101110111101010
11111001101001011000001100101101
00000001100111111001101011010011
11111101001100010010001000011111
00000001001110001101001100111001
11111110100100100010010001000111
11111001100110000000001001111010
11111110100000110001011001111000
11111011001000001000111001000010
11111101000110001011011011010010
11111100011000000111010101010111
00001011101101000111011001110111
00000101101000111001111101110010
11111010010101000011111111100000
11111110101101001111110011100011
11111100010100001101010010110111
00000000011101100000111100101101
00000010100001001111110001111001
00000010001001110000101100101101
00000001011010000000011011100101
00000000111000011011100001000111
00000011000111011001000101010001
00000110010101101010011101011101
11111101111101111100110001011100
11111110011011111001000110010011
00000100101011000111000111110111
11111001001111000011001010100000
11110100010110110111100100111100
11111110000101010101111000110110
00000001010100000011100110001110
11111100000010011100011111111010
11111110100101111010101110000101
11111111101110011101100011000011
00000000010010111001001110011100
11110111110000101100010011110011
00000000010000010000001011100010
00000111011000000011111000001000
00000010010010011000100011011100
11111110111100100010101100010110
00000000111011001001111000010110
00000000000111110010101100010100
11111100011010101011101000000011
00000010010101010011010100110000
11111110110000110111001010101011
11110100010010101010000101100010
00001000000110101100001100110001
11111100110101000110010101011000
11111101001001000101001000011110
00000000011110111101000111011011
00001001011010010011101101111101
00000000000011001101001011100110
00000001000111010010011111010110
00000101101111000010100111010111
00000010001010110111101110010100
00000000001111100111100010100010
11111110110001010001100110001000
11111111010110011101110110111010
00000110111100110101010111000000
11111001000000110100000000111101
11111010111000111101100100010011
11111011010001001101000100111100
11111101001110100101101000000000
11111110011001011111010010110000
00000000010000100000101101101101
11111101000110000000010111000001
11111111100101110111011100000011
00000010000110110001001101010001
11111101000100001110000100110011
00001000110011011011000101101011
00000101111100101000111001011000
11110100101101110011010100110000
00000011001100001111011011100011
11111101010100111101011010001010
11111100110000111010000100011111
11111111010001000111001100101011
00000110011001000101100100011110
00000100010000011100100110001001
00000010001111111010111101100100
11111100011111011101000101100000
00000000100100000000001100101111
11111010001110000011001000010111
11111011110101000101001110011110
00000110110110010111111011010001
00000111100101101001000000111000
00001000100001101011000110101100
00000110111100111010000100011000
00000101001010100100100010110100
11111110110101000101110101010100
11111110001000011010010101110010
00000101001001111000000110100001
11110111111001000010001111110011
11111000000110011010101111111010
00000000001000001001001110010001
00001000111110011000100010001111
00000000101110101011000110001110
11111011001000001111111101010100
00000010111111100000101111000011
00000000001010110000010011100001
00000010100100101010011100011001
11111101001001110100110000110010
00000000010010110011011010111000
11111100011111000110001010101110
11111010110000111001001011100101
11111011111010011011101101100000
00000100111101011111101000010111
11111100010111010101111110111001
00000100010111010010100110010010
00000000011001110010001000100111
00000010000001110001010110100110
00001000110000010001101001001111
00001001100001100111101000110110
11111101110011000101010100001001
11111101000111110111010100001101
11111010010111111100110111101010
00000100100011100010110000100110
00001001011000011011100010111010
00000011010010101000011111101001
00000010000000110111011100010001
11111001110011100000000111000011
00001000101000011100101100100100
00000111011100101101011100110010
00000001111100000100000010000000
00000000010111111110101011111011
11111000010111110111100111000111
11111101100111111000111000001100
00000011011110101101011110100101
11111100101111000001110011100001
11111100011101101100110100101001
00000010000000001101010110111101
00000100011110110001011000100111
00000101010101010100001101011101
11111111011000000110000100111000
11111101001001011100000100011101
00000001011111001000010100011100
00000101101000100000111110100111
00000100011110111011011000011100
11111000101110101011101111010000
11111110110101001111111110000000
11111111101100010000000110000011
11111001101001110111000101110011
00000001000010110101111000001100
11111011101100100011010100101111
11111101000110010110110010110111
11111110110000100110000110010110
11111011110101010011101011000001
00000000100010100000011011101011
00000011100001011111000110111010
00001000100001100111100111110000
00000001110100111011010111110111
00000100000010111000000001101000
00000111101001101001110110111110
11111100111111101111101111100000
11111100010001100000001001000101
11111111100100111110111100010101
11111000111110110001101011101111
00000001101101100110010101001111
00000001011101111001110001001001
11111110101101010101111001001111
00000000110001011100000010000111
00000100011100010001001000101010
00000001101100101111010011000010
00000100110001111011000110101010
11111011111100101010111111100100
11111101101010100001010110101010
11111101110100101100100100101001
00000101110110000010001011011010
00000010100101111000101000101000
00000001110011001111101011001100
11111101100100001110111001011010
00000010111111100011001111010001
00000010101010101011101100100101
00000100010111011010110001000001
00000000001101110111110011000001
00000011011100000000111110101000
11111110000110110100010001000101
11111110011001001110110110011011
00000000010110110111010100001011
11111011000110001110010010000110
00000010111111101100100101111011
11111111010010010011001110101101
00000101000001110010001100100001
11110101010001010100000100001101
11111000101010111100000001010011
00000101001110110111001010011001
00000100010001101000011011101100
11111100010100111100000100110101
11110111101111110100011110000001
00000011100111000010111010111111
00000001001100111000010100011001
11111101011000101000101010110010
11111100110100001101010010101011
11110110101010011110111111011111
11110110000011010001101100001110
11111111001111000101111000000101
11111101000101000001110100011000
11111000101111010100100011101101
11111100001100110111000001111101
11111101001111000100101001100110
00000110111111100001000001101101
11111100100100010000100101010011
00000111010010100100010101001001
11111101111101110110111111000010
11111101111100011011000011111101
11101111111101110000001000001000
11111100101010100110110011111100
11111110011101111010001001111010
11111101110110101000100001110001
00000011111010010110101001101101
00000000100110110110011010000111
00000100100011100101011100000011
11111110000000101100111111101011
00000100001100001111011100100000
00000001001010001001101101010101
11111101101101111100100001000111
11111011000100100111110000100011
00000100110000010111101111101110
00000011110101001110010100000011
11111110101101100110101110001010
00000110001110010101101000010000
11111110100011011000001111001111
11111010110111001110110000001100
11111110001111000011001011000010
00000100000101101010111110000010
00000111001011101010010100010100
00000001010000001011101001100110
11111011110101101011100011010110
11111001011111001111000101001010
00000010111111110011001010010100
00000010001000011011010011001110
11110100101101111111100001011010
00001011110011001001110000101001
11111110001000010101100101101001
00000001110111011011100111001111
11111001111010010111101100111000
11111101100001110001111111001000
11111100110111100111100011001111
00000000000001110001011101101100
00000010100101000010011100111000
11111010001100111110110100001011
11111110101100111111110011100001
11111000101010101000100001010111
11111101011000110100101001100110
11111101111011100100000100001100
00000011111010111010001010011111
11111100100100111110111101100000
11111111011001110110111011001001
11111111111101000111110000101101
00001001010111101010001010110000
00000000011011111111010000010111
11111101001111111001101100001110
11111110111111100111101100111110
00001001000111001010110001101010
11111100110011001001001000000010
00000001011111000111011100010010
00001000010110101000110101101010
00000101101110111101110010001110
00000000100110000100100101100100
11111101100101010111100001001011
00000011100011111100010001100011
11111111100000110010011000101101
11111111011111100010000111110010
11111100111001011110011000111101
11111111000001010011101001100100
11111100001101011100011010100100
11111110011110110101011011000100
11111011000000111101011000000110
11111110101001101101111011101111
00000000010100110101110011000001
00000110000101010011000100100001
11111110000010010000010000011101
11111101110010100010111000110111
11111110100010110100010100010001
11111110111011001010111000010111
00000001011011000101101011000001
11111110110010001011101000010110
00000100001010111000111001010111
11111111010001001111001111010100
00000110101001101010000000111001
00000010100000111010101011001010
00000011000100111111001011101010
00000011100001101101101001011110
11111110001110010010110110110000
11111100011100100101011000101011
00000011101000111000110101001111
11111010111100101000101110110100
00001000101001101011110110110100
11111100100100100110011111101011
00000111111100100000010111101111
11111100110100110100010100110110
11111101111111100101111011010011
00001000010101100110100100011101
00000010011000100111011111110111
11111100110000011000101101010011
11111011110110001101110010001010
00000000010010001100001011111101
00000010011111011010001011111101
00000001111100100101011101110101
00000001111001111100000110110011
11111101000001010011111011000110
11111111101001011110110011100010
11111111010001010101001001101111
11111101111011011011010011110011
11111111010111111010011100100011
11111101110111110000010011101101
11111101101110011011101001101100
00000101010011000100010100101010
11111100100101001101101010001101
00000001010100100001100111100000
00000000011101010111000010011100
11111110111000001101011100011110
11111010000110111110100000100111
00000100000000111100110000000110
00000011110111111111001010111001
11111111000001010000001111111110
11111000010000000111010000101001
11111001100111011000101110110011
00001010101100100001001010110011
11111100001101100011101000110110
11111110100011001001110001110000
00000000101110011001011111110100
00001000111100011000001111001001
11111110110011001000001111010100
11111001111110111001111110100100
00000011111110000101010110011001
00000011001011100010111111010010
00000101011110010100111111101101
00000010101100010001000001100100
00000010010101110001000101111001
00000110000100111110011011110101
11111001010100011111001110110100
00000110101110110100100100001111
11111110101001101000011001001111
11111011011011110111001100100100
11111111000010000001111010110100
00000000000111001101101111011110
00001011110101010101101010011000
00000000000011110111011101101010
00000000110111101111000101010000
11111111000111111101010001010000
11111100110000100001111101110001
11111011110010001010011001011001
00000000011010011000010100110110
00000100101101010101100000100010
11111111100001000111110101011001
00000000111000001011010000000110
11111110101000010100000011011110
00000000000101100110011010111000
00000011010011010111001110011000
00000000100010000101001000011011
00000001001100111010110101100000
11111101010101100000010011110110
11111111000001001000110011101000
11111110111110101111100010011011
00000000001011010001011101101101
11111010110101111100101000011011
11111010111010010001101001101111
11111110100011100101101101101000
11111011111010011100011000100111
00000011110111101111011110111101
11110100010000000100010110111111
11111101110001101000011001011000
00000111000010011101100101001011
11111110011000011000101000110010
00000001001011101011001000001101
00000011110011101000011101001011
11111011101100101110111100111101
11111100011110000001101101000010
11111110010001001110011101100110
11111111100010111100100010111101
00000010011110101111010111011110
00000000011001001011100111111101
11111101011010010010011000110110
00000010110011101011010101100001
00000000110100000100110101100000
00000100011111111010011000001010
11110111100101101011011011001000
00000001001110100001000010110000
00000001100111010110001010010110
00000000101001111000110011101111
00001000001011001101011111110000
11110111011001011101100010011001
00000010001111011101010110101111
00000010101010111100000001001110
11111110001110000000101100011001
11111110011000111000010100110011
11111000101110110010000001100001
11111011011101100010011110010100
00000110011011111110101001001010
00000001001100111101000110101111
11111110101111000111010101011000
00000100110101000011001100110101
11111101111101000100100001101001
11111111110011101010111110111100
00000101011111010101101111101011
00000001111111000101111101100010
00000000010101100010000111011100
11111110110001001010000101011111
11111111100001010111011101100101
00000001001010101010011110101001
11111010111100000011000101011110
00000101010011101010010111011000
11111100011010010100000010100001
11111100010101001101000000111111
00000000100011010010100001110101
11111110110111000000011101011001
00000000110011110100100110110000
11111110101110011111100100101110
00000001110010110010011100001001
00000000001010101011101000111011
11111001100001110110100011001111
00000100111111001000101110100001
11111001000010000001011110111110
00000000000100010111001001000011
00000010111100011101101111000101
11110111111001100010111001000001
11111110000101010100101111110001
00000010111110011110011000111101
00000110010011000110101111000111
11111011110001111100111110101000
11110101100000110011001001010111
00000111101100100001110100011111
00000010110011111000101011110101
11111101011000010000110010111111
11111001011010111001110000111000
00000001110001101101100001110100
11111011111001101000111111000100
11111011000100011010011000000011
11111100000111111110110110101110
00000110100100011001111011110001
00000010110011111010101001110111
11111101001101111100111100101101
00000001111101100101001100110001
00000110010110000100000000111100
11111011011010100010011111000100
00000000011110110010000100111100
11111011110111100101010101101101
11111111110101010100011011001100
11111010010111000011000100110000
00001011000110110000100001001110
11111010110100111100011100010010
00000011100100111101110100011010
11111100000011111001101010110011
11111010000100000110101100010101
11111100111100101000110001101001
11110101110100001000001100101011
00000001001100010100010001111000
11111101100110011101000010001011
00000011111010001010111010011001
00000001010000010001000001101101
00000001011001100100011110111001
11111100100010100110110011101010
00000110100101001111110000001010
11111101011000111001101000111001
11111110001001110110001001000001
11111010101010001101010011100011
00001010101100100100000010010010
11111110110000011110010001101101
11111101000011010101011101011101
00000010010110001110110011000010
11111110111100100110001001111101
00000110000001010100000111010011
11111110110001100101101010000000
11111001001000000000100111111100
11111101001000110011100100101000
00000011001101011101101000111000
11111111110010100010101001010100
00001001010111000101110111111000
00000000101000110100101110110000
11111101010010101100010110000101
00000101010000010010001011110011
00000101111011011000111000100101
11111111000100011011011011010000
00000100100100001101100110100000
11111001100100011011000110000110
00000000010000101011000011011011
00000000000010000100011110110011
11111011111000111010110101100111
11111111101110011101110111101101
00000100001001101010101111100010
11111111101101110100011100100011
11111110010111001011111101100011
00000100100111111101101011001100
00000001000001001010001110010010
00000011001011110000011000001101
00000010001000111011001110000001
00000001001011001110100011000110
11111001111101011000001100100001
00000111110110111010100111010010
00000101001100000011011010011100
00000010101011000110001011001110
11111000001111100011000011001010
11111101001011101011001110111011
00000011011111101011010010000000
00000000101100010011010110011101
00000011011100010010000101100111
11111100100011011101010000100110
11110101110000001100111010010000
00000010000110100000010111101111
11111111010001001101001110011100
11111110111111010100001001101111
11111111010010110110111010010000
11111100111011100100001100101011
00000000010000110111010011101101
00000011010101001010001101001101
00000000110101111100100111110010
11111110010001010000011000011111
00000010101111010000101001011010
00000110101111011011010111111011
00000011001001110010001010000011
11111010010001001110000010100111
11111101111101101110101000010110
00000011010111000011111010101101
