00001001111010001100010001111011
11111111010101111010001110100101
00000011011000111100000000101101
00000010011110001001000000110111
11011100001001110000011100000000
11110001010011010000100110101111
00001011110000100111000101101011
00000010000101000111011101000110
11110101011111011111100111111101
00011101101011011000001000110001
00010110110100100010100100000101
00001000100010011100010111000111
11111101010100100011111110111011
00010001111111110010100101111011
11110000101001110011101011100000
11110011110000001111001011010101
11111010011010100110011000011101
11111110001001101100001101000100
00011001101100010111100111010111
00001100000010100110010011101010
00011111000100000111111101110101
00001000011111100010001100000100
11101110010000010110010010000101
00001111111001100001101101000000
00010101001000100001101110100101
00001001100101111001010010001011
00000100110100100010100010010111
11111001101110100000011100101101
11110110011100100001001011010001
00010111101011010011111111001101
00010010001110110010111111011110
11111110101110011100111101001101
11111101100100110101100101100011
00000110001000001100111100101100
11110011110000001111111001001110
11111010110100110101001010010110
11110100101110100100000000101110
11011100101000110100100111110110
00000010010001101011101111001101
00000101010011100010000110110110
11110001010100000000010000011110
11100100101000011001101100110110
11111111101001100101110011011011
00010101111010000010001110010001
11101011111000000111010001001111
11110011110100010000110100010100
11110101110011101111110111000111
00001011000010001000110001001001
00001101000100010011011110100101
00001101010011000100000010111001
