11100000000011110111111001110111
00100110111010010010100111110100
00011111010001010001000111011101
00010000110001001010000111011111
11101100101101111000110000100111
11110000001111010010101011101100
11110010100001000011101111111101
11100011010111101001010011110001
11110110011000000000011100001000
11101111001101011010011111101011
00000001001101110111100010101000
00010110111010011100110011110001
11111111011000000100111111111100
11111100110111101010010110101111
11111000101100010000110001011010
00100100000111101110000001010110
11111100101010100110100100000000
11111100101110101000010101101000
00001111000010100010110110100101
00001000101111001001010010101111
11101100000100001010000000001110
11111000111101101110001111000010
11111100111110011000101110011000
00000011010001001100110110011010
00010100010110111011101101111110
11100010111110011110001100110111
11100100111000010101101000010101
00001111000011010110010111110100
11110100110111010110111100000011
11111100100111000000001001001000
00000110010100001110001110000111
11110111101110000001101101001010
11101011100110110010000111110011
00000010111000011010100111110110
11100011101110000010111010001000
11111101011110111100000000111011
11011110110001001111100010001111
11101000011101011111010111010100
11110111111010011011001011101110
00001101101011110010100000110011
00001010100111111101010101010110
11111111111011000010111000101111
00001100100000011110000111100100
11101111001110011111010100110101
00000000110111001101111110011111
00001000111111101001100100000010
11111101011111000101000011101111
11101011011010110001100110011110
00001101110100110100001011011101
00000001111111011000110100110110
