00110101000001001110111011101010
11110100000000010010010110011000
00010011010000001110001001101100
11111011101011100010101001100110
11111010010100011001101100000101
00000101001000111100010010001010
00000011110011111011101101001000
00000010011101111010010011000001
11111011011100100100010010111000
11111110100000101001111111000111
00001100100110010101010110011010
00001100111110001100000001110001
11111010010100010111000001011110
11101000111100100011110001000000
11011110001111011110011010001011
11101010111000010001011101111001
00011100110101011010011111010100
00000100110010111010000111011001
00100110010111010100111010111000
11011011101000101001101100110101
11111001111011110001010011101001
11110011110110110100110001001110
11111001010110010111111100101111
00001100001001111011010110000101
00001101110001101101011110111010
00000101001110010111101011101101
11111111111001000111000001001100
11111110100001011011000100010001
00001010100011101001101000011000
00000001011010110110110001001000
00000011010110001111101000011100
11101100100001111101011000101000
00000101011110101011000100011100
11111101000001010111111111000000
11111101111000111010000001100010
00001000011011011011111101000000
00010000101000000001110100010100
11110000000110111011100001111111
00011101100001000111100001010110
00011100011011011010011101111110
11111100000011011111101010101111
00010100010101100111100101010000
00000111001110111010010101010100
00000011001110001111001111111001
11101100000111000011001011111101
11101010101010011100010001110100
11110011111110010000111111000010
00010100011011101101010100101111
00101101101001111010000001100010
00010010010011010101010100101100
