00010001010011110111110011101101
00000111000000101001111110000010
00000110100001111101011011111100
11100101011110010100101000001010
00101000001100100011110100000011
00001111011010010001111111011011
11110101010111000101110111100011
00000101110001100110111010011000
00001001101010100110011101011110
11100101011100000110101111100111
11111100011010011001000111101000
00010111111011000111100110001100
00001001000101101000100100111100
00000010001100001001011110011111
11111011111001100101111001100101
00000110000110101101011000000000
00000111010101110110010100101101
00000000100100100111011001011000
11101101010001011001000111000111
00000001010011011010100110101100
11110001000100010110001111101010
11111010011000110001011100111101
11110110100100110110010010100100
11111000100111101000010000000001
11101111000000010011111101111101
11101001011000000100111001010011
11110100001110010100001110000100
11101010001111101010111111010101
00010100101110001000110110010101
11101011100110000101001101110100
00010011101100110010010011001100
00000110100000111100100110000110
11111011111101111101111011101001
00011001101100001010110100000110
00001101011111111111100111000100
00000000110111100001001010101110
00000111011100000111001010110011
00010101100000010100011110010101
11111101101101110000011011010011
11100011010010001011100011101101
00000011011011011110001000110110
11100111010101010010011011100011
00010001010011010100010110010000
00001111010110001101111001101111
11111100110111000011001010001101
00010110010111101010110011001011
00000110011100111010101101011100
00000011101001000010000100001110
11110111000110100011101011111110
00010000101111001000010110010110
