00000000011010101001001111001011
11101111111011110011100110010010
11111111011010011110110100100101
11101111111110110100000011101100
00001011000110011101011011001010
11101100010101011010000010001101
11011101000011110111010001100011
00001001100001110011011010110001
00001110000001110111100000001100
00011100110110100111000100001001
00000010011110101100000101000010
11111001010111010101010100100101
11110011000000101001010100101001
11101110110011000110011011011111
00001010000000100101000010010011
11111011001110111001010100010100
11110110101010000000000000011110
00100000000101100111111010001110
00010000101100011000101000000001
11111010101000110111010101111001
00101000110010101001100110110001
00010110010000001100110000110111
00010100010001001001111001000100
00100001000011110101010010101111
11111000000010000101000011100010
00011111110100000101100001001011
11100110011010011001101000011000
00010110111101000011111101101111
11110111100001110101011011011010
00000100101011000110011001110001
00000111101100000101101101111100
00011001011111001010100101110101
11111100010001011001111001001111
00001110000000110010101011011001
11100001011110100010001000111010
11110110011110010101110001100010
00000000000100000110100110101000
11111110011100100000010010111110
11110011001111011000101011001110
11111110100001000110011010100101
11101010010000100001101110010011
11110101001001100010110101110010
11101111101100101011011000101000
00001010010011011111001001010000
11101111011101000010011111000110
11100101010011011000010100110101
00000000010100110101110010111010
11111010111101100100000110110110
00001010110011010110110100011111
00010111000110011111110110110111
