00001010011011011000010011110101
00000010101011011001110011001011
00001000101100001000010101011000
11110101110101001011011100110011
00000001100001010100100111110011
00001001011010011011100111101000
00001011000110011000001110100100
00000101111100111000111001001110
00001011100010101111110011100000
11110100100100011011111000110001
11111111101110010110011100000000
11110010101110111100101011001010
00001001110110111100001011111100
11101111101110001110100101111111
11110110000111101000001000000110
11110100011011001010000111110000
11111111100011010100110010011111
11101011011100111000010110101110
00000110001101001110101110011001
11111100100001100010110000011001
11011110000001100100111001000100
00001001001110111111000010010011
11000110111111110101010100010010
00010000011101100010001011001100
00001101101011101110011001101001
11101100011011111000101100000011
00001010111111010101101100111100
11101011001000100001000111010100
00001100001110000011000011110111
11111111000011001011111000110110
11101110011100101000010110110011
11110110110100000110010101010110
00010001001001110101100110111001
00010100011111101000110111101101
11101010100101110010110000110001
11110110110001000111110101110100
11110101110101011111001100001010
00000010101000011010011001000010
11100110101100000110111110100111
11001011000101111011100110011011
11110010100010111110011001011000
00000011000100001011111000001101
00000101011011100011110110011101
11111100110010000011110010101110
00010000110110010011101001100000
11110001110010001011111110111100
11101111011110011001011110111101
00000011011001100010101010101011
00000110011111000000110000101000
00011011110001001001011000110110
