11110100111101111101000000110000
11111001000001111111000000110000
11110001110010101110100010111010
11111000101100000111110010110000
11110001001011001110010010000010
00000111110011001101010101011000
00001110100110001000100101110100
00000110111101100100100110111110
11100101100101101111010001000100
00001011111000100011001001100001
11111100000001110100010010001111
00010001000011001001011010001011
00001001000100111011011110011100
00010010100100011101111010110100
00000111010011010101100011100000
11110101100101000100110010101100
00010101110001010000011110100101
11101010010011101110011000011001
00010111000011011101110011001000
11101100101100010011000101010100
00010000000111001010111111110010
00000101110111101011111001001110
11110001000100010100111010110110
00011011101101000011011001101011
11011000001000111000010110111010
11111001110010110000101101001100
11101111110010110001001000000001
11110011110011000011111111110011
00000100100001011011101011110110
00000010000100101010010001100000
00010101110011001100001110001100
11101011111000001100111100111101
11100111110010011111111100001101
00010110011001001011100010110010
00010010111111010011010100111010
00011110101101000000000101110110
00000010110011110011100011010101
11011101101010011100110111011110
11100101111101111000101000110001
11111010011000110110110000110010
00010000001010001000110001101001
00001110101010100001110000101001
11111101111110010000101000100110
00010010010000010010110001100010
00000101111100000000001110101110
00101100100011110111001101000011
00010111111011010000000100010010
00001001101000001001000001001110
11110001111110000101011010100111
00000000111100001110010011101010
