11111100101111110010101000100000
11100000001000100111101010001001
11110001100101011111011000100010
11111110010010000100001111110100
11110011111011100110111011101000
00000101110110111011100000111111
00000001000010001000110111011100
11010100001000101001101100101001
00001111111000010000011110010001
00100000001001000110010010011000
00000110100111101101000111101110
11111111100100111100100010101011
11100001110000010111101111010111
11101001010101010100101011100011
11110111110001000101001010111110
11111111110010010111101100101101
11011010010000111001000010001100
11011010011100001000010110001010
11110010100000110000001101011111
00001010111011110001011111010010
11111011110001101101001100110011
00101011100010100110011000100001
11111100100010001111101111000000
11110000110111010110110110011001
11111100100000000001111010100100
00000100111111010100101100010000
00010011101001001110101010010110
00010010001011101001001111011001
11101101010001101010011011100011
00100011100001001100000010100001
11111011001111101001011010101110
11101001100001111110111110111000
11110101111110000101100001010110
11101010001011000110001110110011
00010010111101011011111010001111
11100100011100010010001110011101
00000111001001011110011111100010
11111110001000000011100001011100
00010100111101101110101000000001
11010111101010000111000101010000
