11001101010101001110100111000001
00010001100111010011000001010111
11111110101001001111001010000011
00001001100100111110101010111010
11110011000100011110010011101100
11100100100100111101101011000011
00001001110100111000111110000001
00000011100000100011101100011000
11101101101001010110010101010110
00001000010010001110111101000110
00011100110001101000010000110101
11111011010100110001101101111101
00001010110111010000110110111110
11110101110100000010010111111110
11110000001001110010000010001111
00000111000101100011111010101001
00001100000100110110001101110101
00011011001101111111100000101110
11111000111100001111100000110110
00000010101011000100100100010010
11100110010101100101000010101110
00000010001101001110000000011101
00001110100001101111111100010110
00000111010000000001001010000100
11111101000110100000001010000111
11101111111011000010110101101101
00000001001000011110110000011011
11101110110110011010101010110110
00010001000001110001001101100101
00001101111011111011000001111001
11111110000000101100101000100101
11100100101010011000001111101001
11111111000110100100000001010010
00000111110111001110100010000011
11101010000101111001111100110001
11010011101101111001110000011101
00001001111110101000100010000111
11110000001010000111000100010010
00000011111101001001101010011101
11111111010000010110101100000011
