11101101101110000111010010101100
11101011000010010111110010011011
00010010000100000111000010100000
11111100101011111010110001001000
00000101100101010011001101100010
00010101111000001000000101110000
00111011000011000111110011111000
11111100100010010000101001011000
00010111000000111001011011011011
11010100111010000110111000100100
00001101111111100111010110110101
11101101111111110010101111010011
11110110100100010100100001110111
11100000001010111110001100100011
00001011101000001010011001101011
11110110100010011101111111011001
11100110111101101000101100001101
11111111100110010101001011111000
00100100000111011111101110001111
11110100011000000001010001010011
11101110101011010001111111000001
11111011101110110010000111101011
11101110110010001010001100111101
11111101001000011111001100000110
00011110101010111101111010000010
00011000111101001000110000100100
00001011011000011010000011100100
11101100111011100001110001001101
11101001111000011101001011110010
11110001110011111000010110100000
00010010000001110011110100011010
00000100011110010011110100011011
00010100011010101001111011100011
00000010011001100110110101101011
00011101111100011000000000101000
00000010111101101010100100010011
11110111101100111100110100110011
00010011000111001100111000101010
00001010111101010110011110101001
11111101001000111111001110001010
