11110100010101000110100010100010
00011100100010110100110100110010
11100001011010010011111111100000
11101000010010000000011110010100
11111011100101010001101010011111
00010000010001010000100001100010
11110010100011100010111100011001
00001101111000000110101110011110
00001111010001010110011101111010
11101100001101000001111111011000
11110000010011000010111101010011
11111100101001011011010010011101
00000110011011010001100110111010
11010001000110101000101110011101
11001100000100011011100011000100
00001101100111011100010101101001
11111111010000011011110001101110
11110110110111011101001010010011
00010011011101111100000100111111
00000100101111100011010101010101
11111101110011001100000101101000
11111011100101111101101011111000
11101001111110001000000110011011
11101000011010100100110110000111
00011111111111110100000011111110
11010101000110110011100010011111
00000000011000111111001101101101
00001011000101110001010011011011
00001000011110111000110001110101
11111011101100010101110111100100
11011100011010100000011000101010
00000010010000100111001101011010
11101100011110000001100001100001
00010011001010001011111111111111
11010111101001011010011110001011
11110100011011011001010011111110
11101000110100010010010010001001
00100110010001010000110000100111
11100100111000100111000101110110
00001010111010110111101100100001
