11011000101100010000010011000100
11111000010011110001111000111000
00101111110010101010110101010101
00100011011001011010011010010100
11111000000011101000100101111100
11111011111001010010110100011111
00011101011100000110010111011100
00100000000110101101001100011000
11111110000010001110101111110101
11110011100101001110011101001011
00100000010010110001101101100100
00000110001011101011110011010111
11110001000111011010110011110100
00000001011100000001100100010110
11111011010000011010010011000101
11101011000100001101010010100111
11111100111110100100111110101111
00010011000011010111010110100001
00001101000011011111101011111101
00000111111100111010101111010110
00100000001101000101011100110111
11111100001000011101011101001011
00010001011000000010101111001010
00011001110011111010001111111100
00010000000100111100100010100001
11100111001101010010001101011110
00000011011100001110101111101100
11110000000011101011101010010101
11101001101100110111000101100111
11111100001010100111111011100010
00011100000011111110000101000010
11111001101001111110111011111010
00000010010001000101110110101000
11111010000001010110000010100110
00000001111000110111011100001110
00001001101011001101000100001101
00001110010101001001001100001110
00000001011001100001011100011100
00000010011101110110100011101010
11110111101000111101101101100101
