00000000101101110111101011001111
00101111010111000101110000100101
00000011100001001011011110101100
00111101010101100000100101000111
11110110011101100101001100011100
00000101101101001011101110000011
11011101011101011101110110111100
11111111000000110111011000011011
11101011111001100100000010000001
11101010100101100001111110111110
11111001010011001010110000111101
00001010011100110000010101010010
00000010000100100000111101001011
11110100000010110110101001000010
00000000101101000001000111000111
11100011001101000000010101101101
11110101110110101110111010100011
11101011000001000111100011010011
11100110101000110010100010000100
11100001011111010100101011101010
00000101100100001001101011000101
11111111101001100101110001111101
11010010011100001100001100000000
00000110111110001010010001110000
00001110000111110010000010110000
00010000101011011010110101111110
00010100101110101111101010010111
11111101101111100101000000101010
00001101111001101100111111010000
11101010011000010110100011010100
