00001010100010111100001010001110
00001011111100110011101110000001
11110111101101111100011000100101
00100010100000001100001110110110
11100010000100000011011000110101
00001010110100101111100101110110
11110011011100001100110110010110
00100110000010010010010110001011
11101010101101110110000100101010
11011011000000111111011110000110
11101111101111110110101001100001
00100001000111100010001110011110
11110101011000110011001100100010
00000001011100010110000010010010
11111111011110100000110110001100
00011010101001100000100010110111
00010101000011011101100111001110
00010010111101101100001011001101
00010110000101101000100111110011
00001001101110100101101101100110
00101100011100100010101011110111
11110000000100001010010100100110
00011011101001000000000111101111
11101010010010001010001110111000
11011100111100001011111100010010
11110110000001101101101101101111
11110110110101110110001010011110
00011101010100100110011111111110
11111011011111100001010011001000
00000001100100101110101001000010
