00100110011101111111001010111111
11111101000101101010111101000001
00001000100010011000100110111000
00011010000010011001100111111101
11111110110100111000000011110101
00101000001011011110110111010010
11110111111111110011111111000000
00100010001111110101010110100101
11111111100001000001010111010101
00001101101010111010010101001000
11111110100110011010111011000111
00000100011011001011110111001111
11111100001011001110111111110110
00000010011010010111010100111011
00101000100100110100001101011100
11110000011111011001000100101010
00011110101101001100011011101001
00011000101010011010001001111000
11111110001010011010011000000001
11111110011000100110110111101000
11101001010001010010101111011100
00001010001011111100100010101101
11111110101100100000110111000100
00001011110100011011111000011011
11111111011100000001010100001001
11101001110001001000101001111111
00100001111111100011011100011101
00001110010001110011001111000111
00101010000101011011110010101100
11111100000101101011001000110010
