11101000000011101001100101010110
11111101100101001000000101110101
11100110110000011001001101101010
11111111110110001000010111001000
00000001011111111010011110010110
00000011000110110000001111011111
11101001010010000011100010110100
00000101110011111101101110101011
00000010010010111111010010101100
00011100111011100101110100000001
11111110110010110101001111101001
11110011101001000000111100000111
11100110100011110100111101100100
00000010000010001011101000111110
00000001000010001011110110001001
11010011101000010000110110010001
11111100000000000011101000001100
00011100011100011111110000000001
00001111010011011001110001000001
11111000101110011100111000010101
00100101001100001110001101101101
00011111110111110001010010100111
00001000110010110010011111100000
00000010110001100111001011000110
00100011000100000010011001111110
00100011100100101010100000111011
00000000011011101110011000001100
00000010011011101010010111010011
00000110111111000001100101011010
00000000100100100010101101110011
