11101011101100000101110011100100
00000010100010100101110000011101
11111111100100110000111101111101
00000101000000011000011100000011
11110001011001001100100111101101
01000010100100110111011010111110
11101000101000101011011101000001
11110010010111111111110110011001
00001101011111000011111000100110
11100111011101100101000010010000
01000000011000011010011010001001
11111011101110111001100010000010
11100001111111010101001011101110
00010001010101111100100011001011
11100101110010101100110001010011
11101110110111000111101110100011
00100010110010000010000000100100
00010010010111010110100100100101
00010000111000110100111011011000
00010000001010110100000000101001
11110100101111011000001000010001
00000100110101011110111010000111
11111100010010001101011010001000
11001011110111111100101010000110
11100010011111111100101010001101
11111001001111010110100111111111
00001110000110010110010110001100
00100010100001110111111010111111
00011000010111111001001111111111
00100000111101101110000001001010
