00001010100101111000001011110000
11111000110111000010000011000110
11100001110101111101010001001000
00010000011011101011111101101011
00101011100101000110000001000010
11110001111111110001110101101101
00000110001000000011110011010111
01000000100010101011011010110001
00100000000010001101001111001111
00001001111100011100101101010010
11111111100111100010101110110001
11110111111110110100101110001011
00001000001010000001001000000111
11110001001001010010001011111000
11101111011011111001111011101101
11101101010101100111011100100010
11110001110110010010010100111011
11111011000100101110011100011010
11111101011001101100100011100101
11101110001100011111111001000110
11101011100000111101001110100000
11111010010111110000111110001101
00001100001001110101110001110111
00000000011110000100111100011101
00100100101001110001101101110110
11100101100101000010000100000101
11101000011101101001110010110000
11111101111011110011010011010001
11101101011100011101001110110111
00010111111100101000110101101011
