11100100011000000110101111100001
00000010001110010101100110101000
00001010010011001101101110011011
00101010111111101100101011001000
00000111011010100011100011011010
00000001001100001100100011011111
11111111110100010010110001101000
00000001101011110110011011110001
11101101100011000111001010001000
00001001000000010100001000110111
00010111010000100101100000100100
00001101100111011001111100001011
11110000100110000011101000111100
00101010011110011100100001011001
11101101000101110011101010100011
11110001001101011011101011100110
00000101100111100110001110111100
00110011101111110010101100011111
11111011000111100111100101101110
00011010010101001101010010110001
00000111010101000100100011111110
11101000101100110010111111101110
11010001110001010010111111001100
11100101111000000011010110100111
11111111101011011111011001010111
11100011011001000000101111110011
11110101100001100000100100000101
00001001001000000101010100111001
00100110101110100000100000001000
11101100100010100100011100100101
