11111001111111111000001101010001
00001000001100111111110111000011
11110011000000100001010000101111
00011111010000111010001101111010
11001010011111101111011000110111
11011110101000100110111110110100
11111011101000000001110001001011
11101111000101010011011011101011
11100001001100111010110010001101
11110001001100110000000110001110
00010100101001010000011010011000
00001010000111100010011001101111
00011011101011100101001001001100
00110111000001001110011100000001
11111100110010011010110011100011
11010001111010010101100001110011
00100000001001010111111110100010
00011000011111110101001101101100
00011100011010111110100010100011
00000011100111111000110010010001
11101001000000010100110000100100
11101011000000110100010000100110
00010010110110110000111110000000
00010000111010111001111001000110
11111110010111101100000001001001
11010101010010011011100010101001
11101110011000111001111101010111
11111101010011100110101100111011
00001101100101111111010110100011
00010101101010001101101110100101
