00001101011101000110100011011111
00001000101111110110010010000010
11111111011111010110110110110101
00010010001000100000111000100101
00000000010000000111000101100001
11111100000010111100111110001111
11110110101010001100010000011000
11111011111011010110110001001110
00000000010011000110001111100001
11010101101011000101011010001000
11111100111000000001100111011110
11110100111101110101101001011000
00000111011000010111111110100110
11110111110011001111100100101010
11111011011101000000011000000111
00001001110111010110001100000010
00001011111111110000110100101100
00101000000001011100001110000000
11101000001011000100101011111100
11111001001000111101111000001000
00000001100110010011001101101000
00001000011001100010110010001100
11100111010110000010100011001000
00011101010001011011101101111010
00001011000010100001011101000010
11110001111111011101100010110111
11110001010000100001001001110111
11111011110101011010110111101100
00010111110010111100000111011001
00000011000001110100111111000001
