00001100010110100100011011101000
11110101010000011011101111111001
00011000110111110100011100110110
11100111010011010011001111111010
11111110000011001111010000011011
00010111111110010100100001101000
11110000110101111011001101101010
11100010110101001001101100101010
00000110010001110100010001111011
10111101000011110110100011010000
11011101100011101001100010111101
00100011110000001101100111111100
11111011110111010100011110010011
11111010111110010101110110001100
11111100111111111010111011010100
00100010011110011111001000111101
11111100010001110000000101111000
10101101111110110101101000010000
11110000110110011001101101010111
11110010111011111111100010110001
11100110000011010101010011000101
11100001100101101100010110101001
11110101011000110101010010100010
11111100001000111100100100100110
00001010010111011000010101011100
11101111001111001101110111100101
00010101101000111101000110000111
11111101111010111010110000111001
00010000110100001011010111111110
11101111010100011011100011100101
