11110011100111011010100100010111
00011001101100110100110101011111
11110111010111010101011001111011
01001011010111011000001001000100
00001101101001010010111000111010
00000111111111011010110001100010
11101010100010101100001010101011
00100010101111001100010110000000
11110001001000111100111001110001
11111011001000001000110010110101
11111010100011101101001101100011
00011011010100011100001100111001
00000001110110010001010000011010
11110101001010001111101100101110
00000000011101100001110001010111
11111001011101011010100101100000
11110101111000010000010001100101
00000010100011011101011111101101
00000101011110111000110110101110
00001011011011001101111010110111
11101101011011101111000100110010
00010010010111001111000111111000
00010001010111100110001001011010
11110101010110000110001110001001
11101011001010100011100110101000
11100000011101010010000110000110
00001001011011101001011110111001
11111100001010000010001111001110
00001000101011011100110110110101
11101010001101111010011010110111
