11110001000110011110101110010011
11110110010000100101101110110000
11101001101010110001000001101000
00000010100010001001011000110010
11110001001010110011000101110010
00100001100011001000010001111001
11111101011001010101000101101011
00000011100000111111011111111110
00000100011011101111111011001010
00010100111111000100000000000101
11110101101110111000101011000110
00000101000110110110011100010000
11111100111000011110010001000110
00000100110110101111000100010000
00000010000010011011100101110001
00010011011001001101000000110110
00000111110011010001000100101100
11110111011100100011000101011010
11110000101100000111110110000100
00001101000001011101011000000101
00011010000011000010101101101010
11100101100100100111101010100010
00011110100100000010011100110111
00000110101110001001010111010011
11100111100001111000110100110001
00010000111111001111000001111010
11111101011011110001000000110010
00000100000101001111011000011000
11101111110000100000101111011111
00001110101011111010101101011110
