11101100111010010000110010101101
00010101101101001011111110001011
00010100100010101001101111000100
00010011101111111111111110011110
00000000100111011000101111110110
11111111111110010100010010010011
11010110010101101010100101110111
00000010111000010110001001111001
11101000110110101010011100100101
11100100000110010110010100111010
00100010111010101010010101110111
00000110101111001101110000011101
11110011100110101110110111100001
00100001101011101011011001010111
00011010010010001000010101100111
11110010010110100101100010011101
11100100011010001101011001010001
11101110111110001100100011011110
11111111011110101000011100110000
11110000100111001010101010011010
00000000111001100111100111010111
00110100111111001011001011000001
11010010010010101101101011011000
11100011100010101010000100100110
00001110101111101010101100101101
11110001101001000110110000011000
00011100010100101000111001000101
11111100010100001000001110000001
11111101111001111111001100100001
00001101010101100011101011011001
