11111110011111000101011000000010
00001001001001110110001110101101
11111011101101110001001010010100
11111110000101101111110011000010
00001011010000001111111010101110
11111100011011111000100001101111
00000001101111100001001101100101
11111001000100110110111110001000
11111011111111000111110010001101
00010010011011100010101011101001
11101101001100011110111101111111
11111001011110011001010110001101
00000110111011110001100100110100
00000110111111111110001110000011
11110011100011000000111100101000
11111101000000111100010001001000
00011110001010011010111000100000
00010011010100110111101111110101
11111000011101110111101011101001
00000010111000000110011110000101
11100101010101010010100010101101
11100000010000011001110011001011
11111010100110000010010001000010
00000000011100111001000100110001
11100010101111100010010101101100
00001100001011001001110011011100
11100111100100000110100011011001
00001101100100001001110100010000
11100101101010000010001101001101
00101100110010010100001100101111
