11100101101011101110001101001100
11111110111110000010001111110001
00000010010101110000001111000110
11011110110100100101101111100111
00010010111010101111010001100101
00010011001001101011110110101000
00000110101010111011001100001111
00100001110011011101001011111000
11110000110100011011101000100010
00101011111001011001001010000100
11011100001000001001000001011010
11111010111001011000001001101101
00010011100001011110001001011111
11101011111111001111010001001011
11110101110111101100001100001001
00010010011111101010101101011110
11011110010111000000000110111010
00010101111001111100110110001011
00010000001111011101100111110011
00101101011100110011011011110100
11110011001011000011100011000010
00010001010111000111000011000000
00100100111010100000100101100000
00001010010101010110110011111000
00000000000100110111101110011100
00011100101101010100111011000111
00101001110100011111000010111001
00000001110001101011111101101100
11111011100010110011010100011011
00010110111001100111011111001001
