00011101100000001100000001000100
00011101011110001010100001011110
00001011110010111011011101110111
11110101100100000110111111111011
00001101110000000110000101110100
00100101100101111000011001001010
11110001110101100111111110100100
11000011001010011011110111111010
00000001111010111101010110000011
11001111001110011100101000011101
11111111001110101101011011110100
11100110111111001100111010100010
00000001100111110000001110110111
00001101110011110101111101000100
00100001110011000011011100110010
00100110101101110011111001011001
11111011000011110110010101001111
00001100001111111011101110100110
00001011101000010000101101110000
00110011001100011101110001010110
