00101000000100100001110001110101
00101101011000110100000010110101
00011010110000011110110011111100
00001010011000100111101101111001
00001001011110100000010011000110
00000011011101001110001010101101
00001001001001001111111010011101
11110111010010110100011011110010
11100011100000100110101011101100
11101001001001111101000000001110
00100100001110100000111010100011
11100010100001111000011110011100
11010110000000110111011001110100
00101010101010111001111111011111
11101011001000110011101011101010
11100001111100111010111000100001
11011010001011001000011100101110
11111111110000011100100010101101
11101101101010000110010011010010
11001001110000101100100111100011
