00111011101110001000010110010100
00000010010100101111010110011011
11111001010010001010101101000010
11001111101001101000110010000110
00000101000010011010101000000011
00001000001000010010001110111010
00100000110110001000010111010001
00000111101011111010100110100101
00011101101000101100001011011111
11111101100011100001010000001100
11111101010000101010011001100000
11011010110111100010100101100100
11111010110000111010010011101010
00001011011100111111011110100010
11111010101001111111011111111010
11101110000100111101110000110001
11110111110110010011001100001000
11111111111000000001011010010100
11110100011101110110111001101101
00010010110000001111010110011100
