00011001011010110110010100110101
11110000011101001010110101101011
00101010000011010100000011101001
00010001100100001000110011011010
00011010011000001111001110010010
00011111001011011101010010100011
11101011101010110110000001000001
11101101010011000100111100000010
11110110100011100101011011101000
00000101110011010000110100001101
00000011001001100010010011011010
10110111011100010010011011000011
11001000001011111000001010011110
00010000010111101110010011110100
11111110010001011101100011001000
00000100011010101100100000111011
11101111010101100111011101111001
00000010101110010000001100100000
11110011100001010011101000010100
11110011010011101010110110000000
