11111011101100110011111100010011
11111011000011111001000111010001
00011001110110100101011100111011
00001001010110111111111000000010
00010001101111101100100110000000
11111100111111100011100010011000
11101010000100101101110100000100
00101001110101110001000000100100
00010110000010000000110010010001
11011000010000000011100010001100
11011110000111100111000001001011
00001111000011001100001101111110
00100000001110111011100011011100
00101111110010101010100010011011
00000000101101011110111000110011
00010001111100011011111111011001
00001110110110110001100000111010
00000010100110100010110001100011
00101110111100111101111011011011
11111101101111100101100101100101
