11111111100110111111001010011110
11111101100111110100010011010110
11111110101101100001100000001110
11111110100011011001010110000001
00000001110011110100010100110001
11111101100011101100110010111111
11111111111001010100111001000110
11111111111101011101111000011110
00000000001101011101011001001100
00000000111001001000000101100011
11111111011011110001001001001110
11111111000100000110010011110000
00000000011001111001101100001110
00000001000111101101010101111100
11111111101111011010111010100011
11111110111000010111001100010010
11111110111101001011100110000001
00000000101100001110011000100010
11111110101000001000101010001001
00000000110000011000100001101111
11111111101111011111011001111011
11111110100100000101010011110101
11111111110110100000110011111001
00000000100110000011110010111000
00000001110001001110011110100111
00000000010111101100111000110001
00000000110010010000010011110010
00000011100101110111110101111011
00000000111110101111001000001101
11111111011001110100111001001010
00000001011111111100111010010111
11111101111001011111101101011110
00000000001000100000000101100111
11111111000100000111011001001111
11111110101100111010001111010101
00000001111100000101101001001011
11111111111110000011000101010111
11111111100111111111001000100011
00000000100110011001011101000001
11111111100010101011010111000110
00000000101101000011100101101101
00000001010011100010110101000011
11111110011100111111111101100011
00000001000011011011000001001010
00000000000010001111111001000100
00000000110101100011100100011111
11111111111100001000100111101000
00000000111100010000110011110101
11111111010011100000010110101010
00000000000011110110101100011001
00000000010001011011100011011110
11111111110010001001001000101111
00000000100100010010000010110011
11111111010011111111101001101101
11111111100001111000010001100110
00000001001110110100001100001110
11111111110010100001110010100000
00000000110100010100000011100100
00000001001101100100000010110110
00000000111111101010111101000110
00000000011111111001110011000110
11111111101011101111111111110000
11111111000010010111011101001101
11111110100111110000110000000001
00000001010001010101011101111011
11111110110111010000110001101011
11111110011100001011101111001000
11111111110110000000011101111000
11111111100011010000010110010101
11111101111100000011011111011100
11111110100101110000110110101011
11111111010001000000010010100101
00000000110110000111000001101101
11111111101011011111111100111011
11111111111101001010011011100101
11111101110100011001101010110011
00000000000110011110001000010111
11111111101000110000111000101111
00000000100010010111111111101011
00000000001011000000110000001010
00000000101011101010100101101010
00000000111100001000111111101101
00000001010010000011000110001001
00000000100110011010101001001000
00000000000011011011001001000001
00000000100101000011011010110001
11111111110101001010100000110000
00000000000010111100110001101011
11111110010010001001010000110101
00000010000111001110110111001001
11111110111110111010001111011110
11111111000111111101001110111000
00000000110000010110010111011101
11111110111001110101010110101111
11111110000111010111010000011101
11111011000101011000111111101000
11111111100100101000001110001110
11111111111101011111011100111100
11111101000010100111110000000100
11111101001110100111110010010101
11111110001010101101001101011001
11111110100001000011101010111011
11111110011101010100101100101100
11111101011100110110010010110111
11111110111110010010101011111001
00000000111100110000010001010001
00000000001110000100100100000111
00000000010111011111011111001001
00000000100100101111101100110010
00000000111001011100110011100111
11111111100111000101111011101100
00000000001111100111101101111010
00000000110000111110001111110011
00000000000111010111110110100101
00000000011100010101001101011100
11111111100001011010100010100110
11111111001100100101000011100111
00000000011101111011000011111101
11111111111000000110010101100101
11111111011111010011011101100101
11111111101001010001111110010111
11111101110001011110000000010110
11111110000010000010100010000100
11111101000001101110010001000110
11111101110110010100101000011111
11111101111100011110001000011101
11111101010011001001101110101101
11111100001000100100000110101111
11111110000000001000101010100000
11111100000110001111111110111110
11111111000001100011111110111101
11111110001101011011110110001100
11111111101001000010101111011011
11111111011110100011001010010010
00000000000001010110001000000001
00000000001100001111010001110101
11111110110101101011011110001100
11111110101110101110001011000010
11111111101110001011000010100110
11111110000101100010000000010001
00000010101110100100111001001100
11111111100110101010011011011111
00000001011010110010011101011111
00000010000010010101001100100100
00000000101001011010010000110100
00000000000111010011101100000010
11111111010000101111101110110101
11111101011100100001000101111111
11111110010001010010010110101110
11111111100000011011110110001101
11111101000101000010000110100111
11111100011011001110111011001011
11111011111100101000111110010101
11111011110101010100110100100100
11111010010011110101101100011000
11111011111001001100011111100101
11111011100101000010000111010011
11111010101011010101010011011100
11111010100101101011010111010101
11111001110011011010111010011100
11111011010111011110100000011001
11111111101000110000011011101000
11111101111000110001110011011000
11111111001011011001101111110111
00000001011101000010100110000100
11111111000010111101110100101001
11111110001100111001000111110001
00000001111000111001110101101100
00000001011011011100110101110011
00000000001111110111001101100111
11111111000000001010001100110110
11111111011011111000011011101011
11111111011110110110100111000011
11111110110001101010010100111011
11111101100001110101100100101001
11111110110100010011000110000000
11111101010111000110011000101011
11111110001011011110011011011000
11111110001110110010011010110101
11111100001110010111010111000100
11111110100010110111111101011111
00000000110010001001110110010011
00000001011101001100100101000000
11111111111000100110111110100100
11111111111101001010101000100100
00000000101010101010101011010110
11111110010111011010001011011100
11111100001100000010101011000101
11111110001100011000101101101111
11111110011110010111001010011010
11111100100111000100001010111011
11111101111001110000110110000010
11111100100010000110101100100011
00000000001010001100001001110011
00000000011010101100101100010100
11111111010100100001011011010100
00000001010100001111101100011100
00000000010000000101111010000011
11111111101100110010100010010010
11111111100111000110100110100000
00000000100010010100000010101110
11111110010000100010101111110001
11111110111001010011110011010100
11111110010011100110011111000111
11111101011100000010000101101011
11111101001100011100000000001010
11111101110010110001000011001110
00000000111111000000000110100111
00000001111101111111101000011111
00000100011000101110110000110000
00000101000011011101111110101110
00000100111110100000110111011111
00000011001110111000010001000111
00000010010001110011100000110100
00000000001000110111000011110011
00000001000110011010100110100101
11111101000010011011101001100110
11111101010111000001011101111010
11111110010001011111010001101001
11111100110100111110110000111100
11111110011111000001100010110101
11111111000100110000000010000101
11111110011100000101110100011101
00000001001101011110001001001100
00000001000001100101001000000011
11111111101101101000001010110100
00000001001010101011101111001101
11111110100000111101001101111100
00000001001010011101101100000000
11111111000010000001100100101010
11111111001110000100011000001010
11111111010010111010101111110000
00000010001000001100111000101010
11111110011011010011110110101110
00000000110011101011000100110011
00000010001101011111110010011001
00000011001100011001100110010011
00000101001100010010001010000111
00000111001101000011001110011011
00000101010111001100001011100011
00000101010010110101100100111011
00000011011100000010001001010111
11111111010111000010001001001111
00000001001111011101011000001110
11111110110111001011001001111010
11111111000011110011000111000111
11111101111000010011001100000100
11111110001001101101010001011010
11111100011111110011001111111000
00000000000110111011010011001001
11111111100011100101111100110111
00000000111010001000100111100010
11111110101100011000110010100100
00000010110011111100101100100101
11111111010111001001100010001100
11111111101101001100001111000100
11111111011010111101010011001010
00000011000011110011000110010100
11111111110100011000101000111101
00000000110101001110110001000011
00000000010101010010111110011110
11111111010111101111001110000101
00000010101010010101000001000110
00000100100000110110101101011110
00000100010011100010111101010111
00000101010001010011000101101101
00000101111000100101101101000001
00000001101110001111100100111100
00000100100111000110000000100001
00000010000001000000000001101100
00000000110101111011100111111010
00000001011101110110110000000000
00000000001011001000101110001111
11111110101110111001111011001000
11111111110000011100001000010000
11111100100000101011010000111100
11111101101101100101011100101011
00000000101100110000010110100111
00000000100101010101101010001010
00000000001101000111111000001010
11111110101000101110100000010110
11111110001101100011010101101101
11111111001100101101100011110100
00000010100000100001010100100100
11111111010111001100100111111000
11111111110001011011100001011110
00000000111010100100100010011100
00000000110010000110101000001000
11111111110010101100111011001001
00000011000011110110111110100010
00000000100101110111100001110001
00000010000000101000000110001001
11111111101100001001010100100011
00000001000100011000101110110001
00000000110001001101000110011001
00000011100111110010010000101011
00000100101100011011111010011001
00000100001111100100100110000111
00000010000101000101010110010100
00000000011100011011100001001001
11111111100111010010001100101000
00000001111001101000001111001000
00000000010100100010110000011010
00000000101100110110111010011010
11111111111000011010100010011011
11111111101010101100101010011111
11111111101001010100111010110010
11111111111010001011111000100010
11111110101111111001011100101010
11111111110100100011000110100001
00000001001000000010100001100010
11111111001010111110100101110110
00000000110010001100010001001100
00000000001100001010110101110101
00000000001101101001101001110101
00000011011111000011001001001011
00000000011010110011110000010010
00000001100000001111000001011001
00000010101110010001111011011101
00000000000101000111111100011100
11111110111010001110010000011001
00000000001011010011111101010111
00000000000001111101111110101011
00000010110010111000101101110101
00000010101101101010101111100010
00000100101100010100111111101001
00000001111011110001001010101011
00000100011010111000001100011100
00000100110101100100100100110001
00000011101101110111101110001000
00000010010111001000101000010111
11111111001100111011000100011000
11111100101101001101011000111011
11111110110001001111101110001101
00000000010010111001110000000011
11111111100111010000110100110001
11111111011000010011010011000001
00000000100101100101001001010101
11111111000001001010101111110100
11111111000000101100000000111000
00000000000110101011001010000100
00000001001111111000101101011010
00000001110001011110111101111000
00000000111110010110101001000000
00000000110101110001001010101011
00000000111001111111001111111000
11111111110011011101010100000000
11111110100101110100000111011011
11111010001111100011100011001011
11111011100001010010101111011011
11111101000101010010110000101111
00000000111100010001101101100110
00000010110001111110100011101010
00000000000110101001110111110011
00000010010010110110100010101010
00000010110100111101101011010011
00000011110000110111011110101110
00000010001110101011101100000110
11111111110011011010111001111111
11111101110111010110111111001110
11111110111000101011110011101001
00000000011111101000001011001010
11111111000110100110111001100001
11111111110011001001011101101100
00000000110011000010000111010011
11111111101010010110000000111111
11111111010001111100110010110011
00000000100011100100110111010011
00000010011001101100110011100101
00000001010100110000100011111001
00000001001010000000110101001100
00000000100001010100101111100111
11111110011100010000100101101001
11111111011111101010000111111000
11111111001110011010001100001010
11111010111001110110000110111100
11110111100001100010100001100111
11111010101000011011110111001101
11111110001001011001000011010111
00000001000110010101010100100001
00000010010000111000000010100100
00000000100111000101010001110111
00000001000111000111001011111111
00000010100010000110111001010001
11111111111001100011111110001110
11111111100000010100100111100000
00000000001011001111100001101100
11111110100111001110000100010101
11111111000000000100010001101000
11111110111100010010011101000000
00000000001011110101001111010101
00000001101110001011011011000011
11111110011110010011000000101011
11111111110111001001101001100111
11111111010101110001101010001101
00000001000011111101100011100001
00000000001011010001110001101000
00000000001011000101101111101001
00000000010010011010011000111011
11111111100101000100101000010110
11111111100110100001000010110101
11111101000000110110010110011110
11111101110001111000011110010111
11111011011111001011000010001001
11111001011001000000100101111101
11111001001110111011100001000101
11111111000100010000001111110110
11111110010011011110000010011101
00000001010100101001011011000101
00000011001000010000101100011011
00000000100110100110001001001111
00000000011010010110100010101010
00000001011101110110000010100011
00000000110110001011011110111000
00000001010010011100001000100000
00000000011010111011011001111000
00000001110000101001100110100111
00000001100100010101110101010110
11111111011101011001000001011101
11111110011011010001110111101111
00000000010010110000010111111011
11111111111001001111100000110110
11111111111011111111110010101101
11111111000111000000110111000100
00000000001101010000101001011001
11111111110001100000100100001010
11111111000110000110001011100001
11111101100000101110000000011100
00000000001110001110100011000110
11111110011010001000100001110010
11111101111001010110000001111000
11111001101110011010110101000100
11111010001010111101101101100001
11111010100010001010110101000001
11111100111101110010101010001110
11111111000100110011011101000011
00000011000101000111001110110010
00000011000011101111100111111010
00000010010101010110000101001001
00000000110101101010010111100100
11111110101100010011010101000010
00000001000110101011110010110000
11111110010101111100001011000101
00000000111110011010101100001110
11111111011111101000110110100101
11111111110010001100001011101101
11111110100010101101110011001011
11111111111110111011010100000001
00000000111100110101111001110001
00000000000110100001011010110010
00000000010101100111111101111010
11111110111110101001111011100000
00000001011110011111111101011000
00000000111000011000001100101100
11111111000100111000001011101100
00000000101010001110001100100010
11111111011111001111001100110111
11111111001000000101100100011101
11111011110101000001010010000100
11111010111100110011100100100001
11111100010111111001100111001010
11111100100001101001000011110100
11111111000010010010000000111111
00000001000011001101001011100111
00000001111011110101001110010011
00000010000111000111011110001001
00000000100000111000100011010101
11111110101000101010011100010000
11111111101110110001111110011110
11111111110101010010111010011110
11111111001111111011000011000000
11111111000101001111111000011000
11111110100100011001001101101010
11111111110100011110000001010111
11111111000010100010100100000101
11111110101100100011111001100110
11111111111011110011010100010101
00000000001101010000100010111001
11111111001111111001110000000011
11111110011010000110011001001100
11111110011111000111010011000001
11111111001100101001101011000001
11111110000010001010010111110101
11111111100100110000000111101110
00000000110110001010011000001100
11111110110101010010100100111101
11111101110101110110100100101100
11111011101101001011111000011000
11111101000100100000100010000011
11111111001001000100101011000001
00000000100010000111111110100110
00000001011010111011111110111010
00000001000000010011100111000111
00000000000010110000010110001100
11111110010100010001001111110001
11111110100010101010101100001100
11111110110000001011111111001010
11111111000101001101001110111010
11111110011111001001111000111100
11111111010111011111111011011010
00000000011001001101000010100001
00000000000011001000011100111011
11111111011001010001001101000000
11111111100100000111100001100100
00000000110010111111110111011100
00000000000110101001101100110101
11111110000010110000011001010001
11111111011011101010011010101000
00000000010111111111001100010000
11111111010000111101010010101111
11111101100101110111111111100000
11111110110000000010100111110101
11111111011001110011010110110110
11111110010011101011111110001101
11111100000110001001111100011010
11111011101000110011000001000010
11111101100011101001010111100000
11111111010110001100101111111101
00000000110111010110000111110100
00000000011101001000000110010100
11111100110111110001110100111110
11111101110100111000001110111110
11111100110011000101101110100110
11111011001111010111010000011101
11111101010000010010110011100010
11111101001010011101100111101001
11111100111000011111111111000101
11111100110101111010101000100010
00000000001101101010111111100101
11111111100001011101110000001011
00000001011001010110000011001100
11111110110010000100110100011010
00000000010000001011111000111110
00000000101000101100101000101000
11111111000111011000110000000011
11111111010010001001101011000011
11111111011101110011101010101000
00000000011010111001101011110110
11111101001111001010010100000111
11111100000111100010011100111010
11111100001011001101111101101010
11111001001110110011011100101001
11111001111100010100010111111000
11111010101100101000011001000010
11111100011111001011010000110000
11111110110111100010000111011100
11111110000111011111001010110011
11111101011110111000110100010100
11111101111101000110110000110011
11111010110101111111111101011010
11111011100001001010010001000101
11111101101110110111100111000010
11111100100100010001001111000111
11111100010110000100011000111010
11111100011011110101111111010000
11111100010001011010110001000011
00000000101011110100010000101111
11111110111001101100111101111110
00000000100110110011100001111101
00000001111000111100100001110000
00000001001011101100111011011010
00000001111011001100111011111001
11111110101001011000100011010111
00000000000111010001100110010111
11111111001111000010010111011100
11111110011110110001000000100110
11111011100101010110011010001011
11111011100111000100010111011100
11111010101100111101001110110010
11111000010100111001100101111100
11111010010001101001100001011101
11111011010001010111000110011100
11111100101001111001111101010101
11111101010001100000101111100010
11111100111000111010101110100111
11111101001011100111101011000111
11111011110111001101010001001101
11111010101100000010111011001000
11111101010110000010001101111100
11111101101101101100010010010001
11111011100000111101100011001101
11111101100111100101000010011100
11111101101100010101000001011100
11111110001000000100011100011011
11111111010011010110110111110110
11111111000001001001010110001111
11111110111111001011100111011110
00000000011100000010011010101001
00000000001011110110101001001000
11111111100011010110001001001101
00000001001010101000000000001011
11111110100101101111011111011100
00000000100000011101111100011010
11111110111110110111101011100011
11111101000011011100011100000000
11111011011000000101010110011001
11111011100011001111110101111100
11111010111111101110110100111010
11111100001011110111110000000001
11111111011101010110111101010111
11111111001101011000111000000111
11111100001101011001000100110001
11111101100000010111011000011101
11111011001110101000001100111110
11111100000011110110000111001100
11111100110111111001110001010001
11111100000101111111110111000101
11111110100000001111101001111100
11111100101101110101101111010101
00000000001000111011000101100100
11111111011100111001000111001011
11111111110100100110110000100010
11111111111101110001000001110001
00000000010101010010000011001101
00000001011110001011001010011011
00000000100101101100010000100111
11111111110000001111001000110011
00000000011010110110110100000001
00000001001000110110100010001010
00000000101100001101010010001111
00000000011100010101011000000001
00000001000110011110101010000110
11111101101011010011111111111001
11111110111000101011101100001101
11111100110010100011010110010100
11111101110011001100000010010011
11111111011010110001110010010000
11111110010001001011010100011010
11111110001010011110101110101111
11111101011000110100000100000011
11111101101011011110011010000001
11111101110101000000010101110111
00000000001101110111110001110011
11111101011100000110010011110010
11111011100010100101110110111101
11111101010110110111100111001100
11111111110110110101011101111100
11111100001010111101110000010110
00000000101010010000100010010110
00000010011011010001100010000101
11111110110100101011111111110100
11111101111000000000100000000101
11111111100000110100100011011001
11111111100010111001000001001000
00000000011101001001010001011000
00000001000010111000001011100100
00000001001011000111001100000010
11111111000111001101101110010001
11111110100100111010010000101110
00000000101010010001101011111000
11111110010011011000011101000100
00000000000001011110101110100111
11111111010110111011011011100001
11111111001000111111010101010111
11111110100001111110110011001011
11111101001101100001011111110001
11111110010110001101100101101101
11111101010011010001001111001010
11111110010000110111011110010000
11111110100101100100001111010100
11111110111000010001001000110110
11111111010110111001010111010011
11111110110000010100110100100000
11111101100011000000100010110100
00000000110001100100110011111110
11111110001011111100001101100101
11111110100010000000101000111111
11111110011010001110001001110101
11111111111111101010101100010110
00000000101110010100110110100001
11111111010011011010111010010001
00000000100110100011110000010100
11111110110011101101010011101001
11111110010000100110001000100011
00000001001001010000011010001110
11111111101011000000101011011110
00000010011001111010011110111110
11111111011001011100010111000100
00000011000001111010101000011010
00000001101101000010101101000000
00000001001111010111101101101110
00000010011001111100011101011111
00000010000101011010010001100110
11111111111001101000011101010000
11111111000111101111001010101000
00000000001110101011001011001001
11111111110010001001000000110010
11111111000111101010100000001000
00000000110011111110000010101011
00000010001110111100100011010000
11111111111111010011010111110010
00000000011111010101100100100110
00000000100111001010110111101111
00000001000000011010011010101100
11111111101011110100101010001011
00000000000100100110101101011010
11111110000010010011000001011001
00000010001010111011011000100001
00000000101101111000110101000010
00000010011010110110100001011101
00000010100111010111010100011111
11111111000010110000010000111011
00000000001001001001110111101000
00000001011111100111100101100100
11111111101111111000011010111001
00000000010010000001100011000000
00000001001111101011011101000110
00000010000010111011110001000101
00000010101000000011000011111100
00000011010010001100000110001001
00000011001111001000010111001111
00000100011001110010111010010110
00000100000100111010010111000001
00000100101111011000010010000001
00000011110110110110101110000101
00000010100011000101011011010011
00000011000101011110010111010101
00000000101001110100001010011100
00000001001110101110010100110101
00000000111101000010001001100110
00000001100110001110000101101100
00000000101110010001101100100010
00000001010001010111111110010001
11111101110110111101101011111110
00000000011101010101011101000101
11111101100010110100111010111101
00000010101001100110111110101001
11111111110111011111100010011010
11111111100111101110011100010101
00000000000111000011100011011100
00000000000001001011010011110011
11111111010010111111011111110111
00000001111001001110011111010110
00000010010111110000001100111101
00000000100000101101101100100101
00000010110100110111111011010001
11111111000101110000010010010110
00000001001000111010100101101011
00000001011110101010001110110111
00000001110000110001101011101011
00000010010110111000001000000100
00000011100101011101010001011001
00000000011100001001001001011011
00000001110010011010001101100000
00000001010001000100101101000110
00000000101100110111001010001110
00000000101110100110100001010011
11111110010011001111010101001100
00000001100001000100111100001000
00000000110111010110101000110000
00000000101101000110100011100000
00000010101001001111010001000111
11111111110100101001000111111000
11111110110100001100001010010110
11111111010000000100101101010100
11111110111111001011010111010011
00000000111000110110001100101101
11111101011010000110011000010111
00000000110110010100001110000111
11111111010110001110101101001100
00000001100101000011011100001011
11111111010111001111000101001101
11111111011010111010001110011001
11111111101011101100110010010100
11111111111011011101001100011100
00000000100010011111101001100111
11111111010111000111101011011101
00000000000110001001000100100011
00000000010111011101000111011010
11111110110011011001001001110100
11111110101011101101110101100000
11111111010000101110100000000011
11111111101110111001100001100110
11111111011010101101111101011100
00000010000001011100110010010011
11111110101000001101110001100001
11111111110011011110101101001010
00000000111011001011000011010011
11111111010010110011100010011011
00000000010011100001100000010101
11111110010000011001011101111011
00000001000011100111010101000010
11111111011100001010011011010010
11111101010000100101011110001000
