11111110110101101111001001100011
11111111110111001000000100101000
11111111010000101111100111001100
11111110111110000011000000001101
00000000100111000110010000111010
00000000111000001100101101000101
00000001011101110000100000110101
00000000111000000010101101011010
11111110011110101011100111000110
00000001010010011010001010001110
00000010111101100101111110001000
11111111001000001101101100010000
11111111011011000001111001001000
11111110101101111100000011011011
11111110100101010001111111011101
00000001010101010100001000001011
11111110101101100000011101110000
11111111111011100001111110011110
11111110101011011000111001110110
00000001010000011001010001111010
00000001100010001001111001110010
11111111001111000101001110001011
00000001011000110111001100000010
11111110101001011010010101000111
00000001101111100010000010000111
11111111001101100100100001000111
00000001011100000010101010110110
00000010010000001000110000011100
11111111101111111011010000100011
11111111000010011111101000000000
00000000011110111100011101001001
11111111000100110111000110111111
11111110010100100010001000011101
11111111100001011010011101111101
00000001001111110010100011111100
00000000001010111110001101110001
00000001000101001110101101111000
00000000101101000010111001101110
00000001111101101011111001100100
11111111011110000101110110011100
00000000100010000101010101000110
00000010100001100001011010011010
11111111100111001101100010111110
00000000001000000001111101011101
11111110111011101011100110110000
11111110001110001000100100011110
00000000100010110001110001010010
00000001101000001001100010000111
11111111110001111001101010110011
00000010010010011100010111000001
00000001010100110101011110011000
00000000100011100110001011011101
11111110100000001000111101101111
11111111000111111010100110110000
11111111000001111100001011100110
00000000011110000010011010011011
00000000111000101100011000011000
11111110100000101011110000000001
11111110110010101010000110110100
11111110110011110001110001000101
11111111110111101010011100000010
00000010010101001111101110001101
00000000100111000000100000001001
00000001011010101100110001001001
00000000111000110101011110110101
00000000000101100010101011011001
00000000110001101000011000000100
11111111111011000000010000101101
11111110011101101001011100001100
00000001111001011101000011011100
00000000010001001100011000000100
00000011001010110011111010110011
00000001111000110110000011110110
00000010000101011010110100010100
00000001100001101111000100111011
00000001011101111101110111001010
00000000110010010001000101001101
11111111100100001000000011001000
11111111111010111100010111001011
00000001101000100101001111010101
11111111111110000001001001001010
11111101111000011110011101011101
00000000010110001010001010101001
00000000100110010110101101111100
00000000101100011101011000000011
11111110111101111101000100011010
11111111000000000011001111110001
11111111000000010001000001101111
00000000111111011000101001011010
00000010001000011111001001000011
00000000000001101000010110110011
11111110101001010100010011101001
00000000100100010000000000000001
11111111001011010000100011100101
00000001001001100101001111100001
00000000010011110000110011101110
11111111110011011010101011111110
11111111101100001010100000111001
11111110111010000010100011000000
11111111110110011011110011110110
00000000001010011010001110101100
00000001000000100001110110010010
00000011100110001100111010100110
00000000101101110001010100100010
00000001011101011110111101010101
00000001111001100100111101101101
00000010000100000010000101110100
11111110011000001100101010010010
00000000010011100011000100101000
11111111011111011000000001000110
00000000101110001000000111111010
11111111101011010010111001110011
00000001011000100111001000100001
11111111000101111000110000111110
11111110100001011110110000110110
00000000010110110101101011111010
11111111110000000000011011010110
11111110011111011111100000110010
11111111111000011100100011010111
11111110101100001011111110001010
00000000011001101000111111000101
11111111000110100010010101011100
11111101101100110101001100001111
11111100010100010100111010101000
11111011010010011010001001101101
11111010101000010000101011000000
11111001011110111011001101011100
11111100101010010010011110101101
11111100110001011010011110100000
11111110100001111110010001010111
00000000100110011001010010001101
11111110101011110100010100001000
11111111111111111010110101101110
00000001110111101011110010111011
00000001001101001110111010101011
00000010011001010000110111000001
00000000010100100101000100111000
00000000010011111001110001110010
11111111100001010001010111000110
00000000110000010101000011011100
00000000110110101011111100010111
00000000000101010110000111011100
00000000000011100111011110010001
11111111111110100101100101001011
11111110110011111001000010110011
11111111100101000101100110101010
11111111010111001000101010001101
11111101011000001010001000000101
11111110010001011001110011111110
11111101100010011011100100100111
11111101100000010000001100100100
11111100111011001001101111000001
11111010101010001110000010100111
11111000111001001000111110001110
11111000011100111010011011101111
11111010101100011110001100111100
11111100011111010001111010000010
11111111001100000101110010000001
00000000000111011011110101011011
00000000111110110010111100100101
00000000111110111001001001101001
00000011100011000000011000101110
00000100011010110001010110000011
00000010110111000010100010110100
00000001101100101100001000000111
11111111100010110011011110100110
11111111011100110100111110000111
11111111001000101100010011011011
00000000101111101110001011010011
00000000011011110110100110111100
11111111001110000011100011000101
00000000000010010010010001111111
11111111110100111101010111110011
11111101011001001110000111101010
00000000001101001000111110101101
11111100100000000011100011111101
11111101110111101101100111100110
11111101111011011000101101111010
11111100010111101110001000000111
11111101111000000110010011000111
11111101101000100100000001001010
11111100001011001011111111100001
11111011111001011111000001111000
11111101010101100001110010001000
11111110110011000101111111101000
00000000000100100011001111000000
11111110101101111010110000101111
11111111011011010011100000111001
00000000100010010001001001111010
00000000110110111010010100111001
00000100111010011000010101010110
00000100011010100111111010110101
00000011010001010101000110101000
00000000101110000011001111110110
11111111011100000100100001110000
00000000010100001011001110000100
11111111101000111011001111000110
00000000101000010010000011111100
11111111111111000010100010011000
11111110010100100111011010000100
11111111110000000101111001111010
11111111010011011100001111000111
11111100110010110100111110110111
11111100100001110110010110101011
11111110110100110011100010110010
11111100111100011000111110110110
11111110100011000101001010010010
11111101111001010110010011101100
11111111010011101001100001110110
11111110001101111011100010011111
11111110001010011101000000001010
11111111010000111111000010010000
11111111110011100100101101100000
11111100011000010110111100001100
11111101101101100010100111111100
11111100111000110011110010100110
11111101101111010001110011110010
00000000110010011111111000110100
00000010001001100101010001110101
00000110011011100111011001111100
00000101001010000110011010110101
00000010110101111101010110001011
11111110101010111110110101100011
11111111010011100101001000001101
00000001011000011000011000100111
00000000110000101101000011100011
11111111010101011000011010000110
00000001010000001001010101101111
11111101000100111011011100001010
11111101000011100000011001111010
11111100110011000001001100001111
11111101010011010001101110101101
11111111001110101011110011010111
11111110100111110011101100100010
11111110010101101010011100111011
00000000001010101110100000010001
11111110110111001110100010001011
11111101000100111010110010000110
11111011100011010010010110100101
11111001110111010001110111101010
11111010011010111100100001100100
11111010000101111100100000101000
11111010111100011111000000001011
11111100001100011100110000010110
11111111100111111010001111010001
00000000010011000011000101011110
00000001111100001000100000010100
00000011001000000011000011111111
00000100111011011000111001001001
00000011011011101110011111000010
00000000000111011001100101001100
11111110001001111101001001000100
11111111110001111001110111110011
11111111100100100111001000000110
00000000000111111101011111011111
11111110111100101100100111000100
11111110000110111100010001010010
11111110100110111000001010011100
11111110010101010001100111111111
00000000000100110000110001101011
00000001010010001101101101110100
00000000011001011111111001011111
00000001001100100111001011010100
00000010100001110010100010100111
00000000010001100100111110101101
11111101100111100100001111101000
11111001100011100100011100111001
11110101101001011010111011010111
11110101011010111000100110000111
11110110011111101011011000000000
11111010001100011000110110011010
11111001110101101011101111110010
11111011111111110110110100000011
11111100100111010110110011111100
00000000100100111000010110000000
00000010111011100011110001100001
00000010111101100101110010111110
00000010000000010101011010001100
11111111000110110011100101111000
11111110010011101111110010101001
00000000100101110101101000100010
00000000000001010101011010111000
11111110011101001111001011000011
11111111001000111100111111001010
11111111000111110101011110001011
11111100111110100011110111001010
00000000100111001011110111110111
00000001001110001011110100001110
00000101000111111100011001101011
00000010101111001011111001000000
00000101110001101101101011011101
00000010111100101111101101100000
00000010001101101010101011111110
00000000001001000110000000001111
11111011100101010101011000000110
11110111000000000011111100111100
11110101001110001111100000101000
11110111000100101110100111010000
11111000001110011101000101001001
11111000100001101100111001101010
11111011101110000101110101000010
11111011001011111101111001011101
11111111001011110101001110111100
00000000111010111101000110010011
00000010110110011010110101000001
00000010010100000010001110100010
00000000110001110011000000100010
11111111000110101111011110010101
11111110101101001111011001101001
00000001000000010001001111100011
00000001000110110110110000111100
11111111101111101111001101101110
11111110100101011111111100110111
11111110111110110101110110000101
00000001111101000110111010100010
00000100111111001101000011111001
00000110011011110010010100010111
00000110111111111100010111011100
00001000001010101100010100011000
00000111010001101001101000110000
00000111100111100110001100100001
00000010110100111010111100101111
11111111110100000111110011111101
11111011100110000011101100101001
11111011110010000010101010100011
11111011010000000010010101101110
11111011011100001101101110110100
11111010111100001011110001110011
11111100010010000010001011010110
11111101100010010111011111000001
11111110010001111101110111001001
11111101011111010011101111101101
00000000100110111000010000001000
11111111100100100010000010011010
11111111010000010111100000111000
00000010100000010101111111001001
00000000001100010010101011010011
00000000111100101010100110101000
11111110010001011111001001101110
11111101110110000011111101101110
00000010001101011011111110101100
00000001101011000001000101001100
00000010100101100100110110011001
00000101100110101110011000100111
00000111001110010110101011110110
00000110101111101100010001000001
00000111111100000111110110110101
00001001110110111001001001011011
00001011100110001110000011011001
00000111000011011001101001010110
00000010111011111100100101010110
00000011010101110110011010011000
00000011110011011100111001011000
00000000010101010001011111111101
00000000011010001101100001111111
11111110101001010100110111001011
11111110111000100000010010010111
11111110101100010010101010111010
11111101111010100010110011011111
11111111001001000010010110001101
00000000000010110011100101001111
11111111100000011010011101101101
11111111100000110010111000111001
11111111001100010001001011010011
00000000000110011001001001011100
11111111010010100011100110100000
11111110101011011010111110111011
11111111100110110011010101011110
00000000011110100011010100100101
00000000110001010100100001111100
00000100110110011100111010011001
00001000101111100000110000011100
00001000011011110011011100010000
00000110001000100001001000100100
00000111101000100011111001111100
00001011010100010000010010111101
00001011000001010001011010001001
00001001001111000000000001001011
00000111001101010010010110100000
00000011100101101101001111110111
00000100011111000001000101100010
00000010111010010101000100100110
00000001011111110010101011111101
00000001001011110110011000110000
11111110101000100000101111110011
11111110101100110110000000000101
00000000010010111101110101100001
11111111111110110111011010110010
11111110000000101110110011111010
11111111100011100001111000001011
00000000010010111011000111001001
00000000011000000111000010010001
00000000110011111111000010111111
11111111111001011001011100111010
11111110111000110101010110100110
11111110111111001000000001111010
00000010010011011100001000100010
00000011000111110100100110001001
00000011100011110011111101100011
00000110011000010001011101001000
00000101100010001100101111100111
00000100101011000011100010111010
00000100010111110000010010111101
00001000010000101111000111111010
00001000010111010110111100000010
00000111100101000110110111111110
00000101111011101011011100010111
00000011100101100110111000100111
00000100001011000110001000010111
00000001110001111110011111101010
00000000001010111000010100001110
11111110100011000101000011000101
11111101011101010000011101111110
11111111010000001010001011110100
00000000001110101101011100010010
11111111110010001110011111100001
11111110110111100110101111001000
00000000111010011100010101101100
00000000110101000000010011100010
11111111010110110101100101011011
11111110110111111011111100011111
11111101101101000010101001101001
11111111010000010100111101101001
00000000001010111010100010111110
11111111001010101101000011111101
00000001001101000010010001000000
00000001001111111010101101010111
00000011111011101000000100001001
00000010001011011101001001100000
00000011001110001000011111011001
00000010000000110111001001010111
00000110110100011000100101111101
00000101110110111001011001001111
00000101111011100110100111110011
00000011110100011101011000111000
00000011110110100001001100101100
00000010101111100010000110010101
11111111110110101011010110010011
11111100111110110101100101110011
11111101000110010100111111100111
11111101001111000100100011111101
00000000100001100011101001000100
11111110011000001010000100011001
00000010101010011100011110100011
11111101101011010011110110011101
11111111000111110001111011010000
11111111011010110010011100111000
00000000110001100100010001101100
00000000000110101101111101010011
11111111110101110111110010001100
11111111110001110111100011010001
00000000101100010100100011111100
11111101101100101001101110100111
11111101111010011001010001111100
11111110101110100010011111010110
11111111000010100011111010110000
11111110111111011001000011010100
00000001111100001000011111110111
00000010101100000111111001001100
00000100010001011011101110000010
00000101100110000000010001011010
00000110011000010110011100010001
00000100100111010101111011101100
00000011000001110100010001011100
00000001111100010000101011001001
11111111111000000011010111100100
11111101100100010110100011000111
11111100110000100000011011011001
11111100011001001101111101110110
11111101100100010001111100100101
00000000010001111011000000010000
00000001111011010000010111011111
00000000111010101101000110101100
11111111111111101010110010010110
11111111100101111001110101010000
11111111111110001110000110110100
11111110011011110000000111111001
11111110111100111110111000010011
00000010101010001001111010100001
00000001011010011101110110111001
11111101000111111110000010101001
11111010111100001010110010001010
11111110011111111101111001000111
11111110110101011100001011010101
00000001000001101111000010111100
00000001101100011011001101100010
00000100000010011100010111111100
00000100001001110101111010010100
00000010101000101101110100000000
00000010100011101001000110001001
00000001101100011000110110111000
00000000100100111000000100010100
00000000011001111010001001000100
00000000101111010011010110010110
11111111010100010001000100001001
11111101111100001100101011100111
11111111001110111010100000011000
00000000000100001110110110101100
11111101001010000101111000010110
11111100111001100000110111100110
11111111011111010111000111010111
11111110011110110000011100010110
11111110001111110110100010110111
11111111111011000110011011001010
00000001010010100001010110011110
00000000011111100010010101101000
00000000001111100111101001000100
00000001111101101100100101001101
11111101011001111100010000100011
11111101001101011010101011110100
11111100111100000100000110000011
11111110110010111010010111011101
00000000011000001010101011010111
00000000101111001001100100100000
00000001110000010011101110101001
00000011111000011000011101101101
00000000111011010100101101000000
11111111111100011000110100111110
11111110111110011110010100011000
11111110011011010101101001101111
11111111101100010110011010010011
00000000011000110001011001101110
11111110101100011010111001111010
11111101100111100011111111100100
11111101101000110101001101010001
11111101111101111011011011001010
11111101101001110010100101100101
11111110110001100101101000011101
11111110011110100010001100100101
00000001001110111010111011100000
00000000110100110000010011100010
11111111101000101111101110011111
00000000000101101100100110011111
11111110110110010010100011011110
00000001100110110100100101010011
11111110111011000010011011000111
11111100111010000100010001110011
11111101011011101111011110110101
11111101011111010010000100101001
11111100111010100100010101110111
11111101000100111001011010011101
11111110110100000010100001001000
00000001010111011111010101010000
00000010101000010001011101101011
11111110001011101110011001001000
11111101101011110000010110110110
11111101010000011000011001011100
00000001010010011110011100010010
11111110010101111111010111111111
00000000000110001111010111011000
00000000000101010001101110010101
11111111000000110100101100111011
11111110011110010001001001000110
11111111000100011100000110000100
11111100111010111000100010011010
11111110111000011001000001010110
11111110101010010010011100010101
00000000000011010110011001011110
11111110011011101101000010100111
00000001111001111101110111000111
11111111110000110010100000010000
00000000001001000110101100011011
11111110010001010011011001110110
11111111010101000110010111110100
11111100010101011100101110001000
11111011000000101000101111001010
11111100101110100011101000111011
11111110000110001101001011000111
11111101111011100010110011010001
11111101001000011101001101100101
11111111100110011101110100111011
11111111001010100100011010000000
11111111000110100110010101110000
00000000100001110101110001110001
00000001001110010100001110010100
00000010001001111111001011000111
00000000101010011000110011000000
00000000001111010111101000101100
00000000111100100001101001110101
11111110011011011001010110001010
11111110000101100000001101101011
11111101000000101111000100101110
11111111111001010011000011010111
11111101010011001011000101000100
11111111010000010000000010110000
11111110101001110011011001100000
00000000101001000110001111000101
00000000011000100111011101001111
00000001000101111110110110101001
00000000100000111111001010110001
11111111110110101100100101101101
11111110001101110001111110100111
11111110010010111111001000000111
11111100110111000011110110010100
11111100111000110010000101010001
11111100111010001010001010010100
11111011110101101001000000111111
11111010101101010101010000100001
00000000001010000010111011101101
11111111000000101110110001011110
11111111000010101111001010011100
00000001111001111101101010010010
00000001010011111110110110111010
00000001000010100101011000110010
00000001000011000011000000110000
00000001111111110010000110101110
11111111010001100000111001111111
00000000001001111110101101001111
11111110100000010011011111000001
00000000101010000011110001101100
11111101100111001010101001101010
11111101001101101000011110101111
11111111110100101101111101110101
00000000100001011000001000010100
00000000000001101011111011011001
00000000010110000100011110011100
00000000101100011100000101110001
00000000011000001101110101111011
00000000101101001001111100011100
11111111101110111001111011110011
11111100111101010001001001011001
11111110101000010000000110010101
11111011111111101110010000010111
11111011010000001010111110111000
11111100001101101010101100001011
11111101101001111010001111111001
11111100111110101100111110011111
11111111000100010011110100010011
00000000100001000101011010000000
11111111100110000011110110000101
11111110011011010000010100100100
11111111110111110011110100101101
00000000001111010110111111000111
11111111000111010001110010011011
00000010110101100111111111000101
00000010010011111001000010010000
00000010001001000101001110111111
11111100111010001111011001110111
00000000001110110011010010011100
00000000001111111001011011101001
00000000001010000101010010001110
11111111001000000001101101111011
11111111001011111100110101000010
11111110101101100100100100111011
11111110110110010110110010010010
11111110011100101101110011111001
11111110110101001111111001010101
00000000010001010111010001110000
11111110001110110010101000001101
11111101100011011000101000110101
11111110011100110001011101101010
11111110010101101110101000010000
11111110100100100001111001011010
11111110010101011000100101111010
11111101010110100110100110100000
00000000111011011100010111110001
00000001010110110110001001101100
00000001100000001001001010000101
11111110010011011110101010010000
11111111100010000100001001100110
00000001000010101010100111101001
00000011011101001011001111110111
00000010110100110001110110100111
00000010011010110101011100101101
00000001110101010100010100101101
11111111001101011101111010111111
11111111100101001101101100011001
00000000101100000101111010110010
00000000010010100010010000100011
00000000011101010111101001010010
00000001101100010101101100000010
00000000001001010010110110001110
11111111111110111111000000011000
00000001101110011110000001100000
00000000111101111011010011011111
00000000101110001101100000011101
11111111111011101101010110101011
11111110111110010111100000001011
00000000000100010110000111101100
11111111010101010101100001100101
11111111101001001100001100110001
00000000101111010000101100010101
00000000100001000000100001111110
00000000001100000001011000111001
00000000111110110001101000010100
00000010000100110010110010111011
11111111101010110010010001010111
00000000011000001010100100110011
00000001101100010111010100100001
00000011110101010111011101001100
00000010101110000011000101010001
00000001010101111001100111101001
00000010011000010001110000111000
00000000100101101010000011010001
11111111011110100100001001010000
11111111100101001101101110000110
00000000001111110001000001010101
00000000011010010111001111111001
00000000000110001111000011011010
11111111010110110000010010111000
11111110111011101000000011100101
00000001001101100001101000011000
00000000101101101000010001001000
00000001001100011110011111100011
11111110100111010000000110111100
00000000100010010110000011111010
11111111111000010101110011000010
11111111001101100000111100100100
00000001000101000010010001001010
11111110001101100111100101100010
11111101110101011110111111011100
11111110100010001001001011100011
11111100110000010010100000010111
11111100101111010010011110011000
11111101100101111011011110011100
11111101100100001111001001011111
11111101111011000110100011111011
11111111110100010010100111111111
00000000011001001011001101001000
00000000100111000000001100010100
00000001100101111010110000110010
00000000110011011010011000100101
11111110011000101001110001110001
00000001100110001101111000111000
00000000111011001001101000000110
00000001010101101101001110000010
00000000010110000110010000011010
11111111111001101110001101111100
00000001100011101011001011101101
00000001001000011100000010011100
11111110010100010010001101001100
11111111101111000011111100000100
11111110111111000001001011000001
11111110111111010111010100000110
11111101111110100010011001000111
11111111010111001001001000101100
11111111001011011100101010000011
11111111101010010100110001111111
11111101010111011100000111111001
11111110010101111100101110101010
11111110010010100100001100000100
11111100110111001000111010010000
11111101100001111011000010100100
11111101010111100100011101101001
11111110010011000110101100110001
11111111101100011100011100000010
11111110011101010010000100011111
00000000001011101110010010001101
00000001100001110000000101110000
11111110011111000011000101111011
00000000110100110110111001011111
11111111011101000000000010110110
11111111111100000101101000110111
00000000110000111100000110111101
11111110111110001100111110100011
11111110100101000110011000110111
00000000010100101101000110101011
11111110100101011100000101001001
00000001010000100010111000010010
00000001011000011111010100010010
00000000011110100011100011101101
11111111011000101111111100001100
11111101111010011000011010111001
11111111001100110010100000010011
11111111001101111111111111001110
11111110110110101000010010100010
11111110110110100111111100000010
00000001011000000010100110001010
00000001001011010001000010010010
11111110011111111100100000000100
00000000100010011010001100110111
11111111010001111000000101000000
00000000100011011010000111011011
11111110111001101000101101110010
00000001111101101101001010101011
11111111110000001100011001110110
00000010101001111100000101101011
00000001000000111001101110110011
11111111001100010110000000100111
11111111010111010001010000011001
11111110111001011000111011001011
00000000011110000000000101000000
11111110111100000001101101101100
00000001001001111110001111101011
