00000100000101000000010001101110
11110001111110000100110000001001
11110011101010100111110000110100
11110110111010110001000000001001
00000110001000110101011011111011
00000010110010011100111001110011
00000001000111101111011110100011
00010000010011101000010111101011
00001010001110010001111001100101
00001101100011111111100100010011
11110101000010011001111011011110
11100010110110111000111101110111
11111011100000100101110110110001
00010110011001100010110001001111
00000011110011101111100001110011
00001111000101010110111000100111
11111001110100100001111110010110
11111011100110101010100101100011
00000011011111000100100000100101
00001100000011001100110001111111
00001110101001001111111011111010
00000011010101101111000001000110
11111111100110011011011111010000
00010000011111101001100001100011
00000101100111001110001110011001
11111110011011001000010100001110
11101111111001001101010001100001
00000101010001010111111110110001
11110110011111001111000100100111
11111110010111001111000001001110
