11100101101100011000001101000101
11101100010110011001010011000001
00000110001000001001111100010110
00000000000001110011000111100011
00100100100001101111010000011010
11111110110010100111110110010010
11110100000101000111010110101110
00000100010100100100001010001011
00000110101111000101011000100000
11101001001100110001100111010011
00010000011100101001100101110011
00110111111010101011111001111000
10111100100001110100111101101111
11111110000111101000101001000011
11101111011011001100001101101100
11011100100111011001000101101000
00101110000101011010000010101100
00010010101111101101111000001101
10111111001001001100100000110010
00010001010110100000101111010001
