11110100101000011111100000111100
11100100000010010010100111010000
11000111101111001000110101101001
11001110000110100001010000101011
00100011001011011101000100110011
11101011110011000001111010111110
11011100010001100111110001100001
11010111010101111010101010011100
11001110101010010001010110110010
11101111110101101100110001001110
11001100101011101110101100100110
11101100000011100011000000101110
00100011011101111111000000011100
00001011110101110110011011110100
00011000101110100011101000000001
00010001100100010111110000110000
11100101100001101110111010011011
11100011010111000101100110001001
00010111101001110100111001110100
00001001010110111101101001100010
