11000101110000001101001011111010
00100001101010010111111010110100
11010000010011101100110011001100
11110001010111000000011000111100
11001101100000110111000011011011
11000011100001110100010010111101
11000101101011110010000110110110
10111000010110000101001011110011
11010011001100110100001110001011
11010111101101001101101010000110
00010110011111001110010000001001
00000101001011110000100111001011
11100101111000111001010011110110
11001010001101011010110110010100
11101110100000110110001100001101
