00000001000100100100001001111010
11111010000101100100110100001111
00000000000010001101110000000010
11111100111111101101001000101110
11110101010011011001100001010100
00000011000011100111010011101111
11111011100010111000000111101011
11111101110000001000001101111010
00000000110100011100001101001001
11111110001011011111111001111011
11110111001111101100010100000010
11111001110101101111011010001010
00000000100010010000100011010000
00000100010001001001001100100000
00000101101100101011110111111001
00000000011100001010011000100110
11111010111011010000000111111111
00000000000000000101011100101000
11111010011111010101111111000110
00000000101011110100001010110011
11111011100111110111111011100011
00001000101100110010001001110100
00000010010111000010000001000011
00000011000100010001111000111011
00000011001010110001000001111011
11111110000001101000011101110110
11111001010000100011001000101011
11111111110110010111011001000100
11111101100111110101110011010001
11111100101000110100111011110110
11111111001011001111111111111001
11111101101001100111001100011011
00000011100100000100111101010011
00000010000011100100011010011000
00000001010111001001101010110001
11110000111000000111111001100110
11110110111101110011101000100011
11111010011110000001011011111110
00000100010110111011000000111001
00000011111000001101011110110100
11111100011010100101110010010000
00000101000000110001110101101000
11111101101000000000001010100111
11111011001011111111001100010000
00000001111111100101111010010100
00000010110001101101101011001000
11111100101110010011100000001111
11111101100101100100100111000111
11111100100000100001010100000111
00000110001101110010101101001101
00000110111011011101101101010101
00000000011001011010101100001011
11111111000000101101001111001010
11110111011000111000101011111100
00000001100010010000111110010010
00000100010111110111000000001110
00000111000010011010101100111010
11111110111100111111011111000100
11111101000000000100000100111110
11111100111011010100100110110011
11111100101001011001111110101100
00001000001011010100000010001010
00000001100111011001111101000110
11111000101011000011011100000001
00000011100010110111100100111110
11111111100011110011010101000100
00000001100010100000001011110100
00000010010010010010000100000000
11111011000100011101011010101011
00000110011010100101011011100101
00000001101101111110000010011101
00000010101000010011001111110111
00000011111011010101111001011010
00000001101011110100011011010000
11111101100101100011110110011100
00000101110110101011111010100010
00000010010000000000101101000110
11111110001010111011101110000011
11111111011100001101101111001010
00000010100100010011101011010111
11111001001001000001001100111000
00001000100001111000010011111000
11111101100110101011100100111001
11111101011101010110001011101101
11110111101001100001000010010001
11111000001011011110111111111101
00010000110101111110010001101001
00000011111100001011011000111000
11111111010101000101101100011010
11111111010011011111001101100101
00000001100000000000001100110111
00000111110000101110100000011011
00000010101010010101101011000010
00000010110010011000000000110001
00000100001100010100011011001010
00001010011100100001001100000010
00000011001010000010111001010010
00000011000010100010001010110000
11111010101001000111011111110000
00000100000000011010100110111000
00000000011101000111110110001111
11111111010011010010100010001000
11111101011110111001111100111110
00000111001101010111110010010010
00000000111100100100010111011101
11111110110011001011101110001010
11110110110000010101011011000001
00000011110001100111100010110011
11111000001000100100110110010101
00000000001101100000101001111001
00000010001011011001000000000111
00000110001111111100111111110001
00000110001100000010001101001001
11111111111111010011001111111000
11111110011110001000101010011001
11111100001010101011010101000110
00000010110001000110011000011100
00000010011110010110111001001001
11111110000100000101011010110110
00000010100001011111111001011110
11111000000010111100110100000010
11111100110010110010111000110000
11111100100100001100011001011001
11111100011101100101110010000000
00000001000001010101010010010000
11111010001000000111010100011110
00001010011101010010001000100011
11111101011001110111100101111000
11111110100011101001101110101011
11111101110111100000100000001011
00000011000010100011011111100101
11111010100011001110011000001100
00000000011100010111110100001011
11111110000010000001101100000100
00000000110111111111011011100011
11111010100101101011100010001111
00000000110001111111001110111001
00000001110000111111001010011101
00000110111110011101100000100011
00000001010011110011101001110101
11111111001010101000000000010000
11111100100101100110101001001010
11111110101110110111011100000010
11111001110110110010001011100000
11111110111100011011111100000100
11111011010010101001101100101101
00000010100011001101000101010100
11111100101000110011011100101111
00000001011001000010001110100111
11111010111000110011010110100010
11111011101001110001101000101110
11110101000101000000000110011001
11111110000000110110111010010101
11111110110110011110001111101001
11111100110010111001010110100001
00000101000110101001000001100101
00000010111100010100110000101001
11111110001101100110100000011110
00000011100110111000011010101110
00000011000001010011110001001000
11111011010001111100011111000110
00000000000000100001001000101101
00000010010101101111010111101110
00000111011000000101110100101100
00000111110101100110011101110100
11111011001110100101110100111001
00000001101001001001110001111100
11111010111101110011011100001011
11111011110110110001011100100011
11111111010111101001001001010100
11111101101111010011111000110011
00001010001001100000100100000100
00000000101011100010100000111110
11111010010100110001011010011001
11111101101000000101101011111010
00000010100011110101101010000000
00000010010000001100000010001000
11111100010011000000101011110011
11111101011000111010111100100000
00000010011001101010100110100110
00000110010110100000001001010001
11111011110101100010001111110101
00000000111000110011111010010010
00000001101101101111000110111110
11111111001001101011010000101100
00000101011100100000110011001110
00000010010100000001100011100001
11111110101010010100011011101110
00000110101010101111011111000110
11111011110000000001110100101011
00000110000010010011101010101100
00000000100101110011110111010101
11111100111100101100010101101110
11111100000100000001000110010000
11111110110100010110101100001100
11111001011000101101011111111110
00000010101001000011111110011110
11111011010110111101101001011001
00000110010111101101011011101010
11111110011001100111100110100101
00000101101011110101110101111001
00000111100110110001001010011101
00000111101010001111101100101000
11110110011010110110101010110001
00000110110100011100101001100011
00000110100010001001110111111001
11111100100001110010110110010111
11111001010100100011110111000100
00000011110001001000001100010001
11111011111101110101101110010111
00000001100110001010100100101011
11110100111111100000010100101110
00000000111011001000111001100110
11111010011100101011110110100111
00000110000000111000101101100100
00000110110001010011110100010001
00000010111011101110010001111001
11111000111111011000101101101010
00000111000000011110000001010000
00000001011101110010111011111000
00000000010000101110000111001110
00000101001000000010100001100001
00000100010001010010111011111111
00000101011110011011011011110000
00000000001000111011000111000110
00000001110101000110001000000100
11111110011111010101110110100000
11111100100101001100111110010010
00000011001110110100101001100111
00000011101000001101001011001100
00000110111001000011111110101000
00000100011000010010101000011011
00000011011010010001010001000101
11111111010100101101101011010011
00000000010010110111001110010011
11111100000100000011110010101010
00000000110011100011001101000100
11111011011011011000011000101110
11111110100001100101011101111011
00000001011010101001111101011101
00000001000000100000011111110010
11111111101100011111110101000000
11111011010101100000111111000110
11111110101100110101110000101000
11111101100010011100111111000001
11111110111110100110110011110100
11111110001001101000101111110010
11111100101000000001110110011101
11111001110001101111001100100110
00000011011100100101001000001001
00001001001101011101110010100111
00001000001001101000011101010000
11111011111101000100101111111111
00000011100000110010001010011001
11111110100011110010111010011101
11111101111010100011001001000001
00000000110011101100110011010100
00000010010101000100011101001001
00000010001000010010000001000110
00000100101010111110101111100010
11111111101000111110010001100111
11111111101011101001101000100001
11111100110101000000001000011110
11111101100110101010011111011011
11111110101000111111111110011111
11111101010101000001100101001010
11110111001100101110100111011010
00000100001101010111001000111001
00000101010010011101010001101100
00000011101000000110000100001011
11111111111111010101100010010100
11110111000101110010010000010110
11111001011001111100110000011001
11111101110101100101001011001000
00000000110100000110100101010100
00000011001100010011111111010101
00001100001010101000111010100111
00001010100011101100101110111010
11111000101111111001110100011001
11111111111111000000111100000100
11111011010100010111000011100100
11111010101100001100111100011100
00000100111011100111100110101100
11111000100010010100000011000111
11110010001110011111111001101010
00000000011000011001101010100101
00000001010001101010100100100101
00000010110010100100011000111000
00000010010100010100011011100000
11111010010100101101100001001011
11111000110001111101101001001001
11111010111001111010100001010101
11111010001011101100001111010101
11111101110111110111010001110011
11111111100011111101010101010111
11111101101111111001100110010100
11111110111100001001001101111101
11111101000100010110100001111110
11111100101000001011100010100011
11111111101000001110011100001010
11111100111111011000111101100001
00000011111001100111101101111100
11111100101000101101111100010110
00000100011001000000010101011010
11111111000100001101001011101011
00000111001111010101101110111101
11111101101000101011010101001010
00000100101011101100011111101011
11111110010101011100100000100110
11111010011000001001011111010101
11111110100100001100010000100100
00000011100001100011010000100110
00000000001110100100111101111101
11111110100101111100010001111100
00001110011101010100011111010010
00000100111001000100000010001110
00000111000101011010010100010001
11111101100100100110011101010001
00000010100001000011000001001101
00000000010100110000001111110000
11111111110010110101100010100000
11111111000101001110111011011110
11110010100000011101001011010010
00000010111111000000111110111100
00000001010111010110101010011100
00000100000101010111011110111110
00000000111010100101010110100101
11111101000101001101000101101101
11111101000011000100101010100010
00000000110000011110101001101101
00000101010100111011110011101001
11111011001111111011011100100100
00000000010011111000111000111010
11111011001000010001101011001100
00000101110000000000110010101001
11111111101100000000000000101100
11111010001010011100011101011110
11110111001111101001101001000111
11111010111001011110001000001001
11111010011110010111101110110110
11111101011110011001010110100100
00000001111001100101001000110110
00001001111011000000010011001001
11111100101100010111000001001110
00000110110010010011111100011100
00000001110010001101010101110010
00000100010101001001001111000111
00000011101000100001000011010100
00000000000000011000101110000100
11111111111111111110101100110101
00000001101111000000101101111100
00000000110100100011101111001100
11111100111110110111110110110010
11111101100010110101000110100001
00000010100101111001011100101110
00000110010110101011001111010011
11111111100001111100100011001110
11111111110100100101000110011100
11111110101001000001010111010010
00000101100110001100101100100010
11111101011001111101111101111110
11111010010101100111111011011110
11111110001000001100101011110010
00000010001011010001100100101111
11111110000011111111010101010011
00000101101001010101100101100011
11111100011111100111001011000101
00000001011010011101010011100010
00000111000101001110111111001111
11111110010110010110101000000110
00000111101111100111100100101010
00000100010110111111001111100000
11111101111011100101010101100011
00000011111111011011100010010101
11111100110110001110111011111111
11111110111000001100011111110101
11111100001100111111100101010001
00000011100001100001010111100100
11111011010000110011000101011011
11111110100011111011001001001011
00000100111101110101010100110010
00000011101011001000100011101011
11111010100100100100111111011000
11111111100000010110001110110010
00000110000101001000001010001101
11111111000110100100100001000000
00000110000010010100000011001001
00001001011000011011101100110101
11111111011011000011001000001001
11111011111111110000111001101011
00000011010101111101011000110100
11111101100000110110001001011100
11111100110101111001011100000010
00000011000101110111001100001111
00000100011110011101100010010110
00000000010011000101001110100100
00000001101101010011111000000011
00000000101000100100110111110110
11111111110010111110101101100100
00000111110100100111101111101100
00000100101000110000011110110100
00000001010000101010011000100111
11111001010100101111110010010101
11111101101100101011001001011000
11111011000011001011100010000100
11111110110001100001100110110010
11111100100101110010111111101110
11111101101101011100001100101101
11111001110011100110000110110011
11111000111011011000000110110001
11111100001110000000010000010010
11111010000001001011101110010101
11111111010000010001000100100100
11111000001111110100100100100111
00000010001000101111010111101011
11111101010110011101000111000010
00000000000011110111011000000101
11111000000101001111101000011110
11111110111101010100010110111100
11111010110110000110000001110100
00000011000110111101101100101110
11111111101100101011110011011011
11111111110000010011100001100001
11111101110010011011000010100000
11111111000011001011000010110110
00000101101100111011010101000010
11110110001101011100001100000001
00000000111011111100100111111001
00000000111101100010001000110111
11111101000111110111111010010111
11111100010011100110111101111111
11111110111001001101110011010010
11111111011100001010100110111011
00000100001110000110111111101011
11111010111010101011100010101000
11111110000111010011100110101110
00001000100110011100000100000001
00000001110100101001101001001111
11110110001110110100001001000010
11111001101100111001110111101001
11111100010001011001110110110000
00000001001010001011010011110111
00000100000010011100111101101011
11111101000100011000001011111110
11111011001010100110100000001011
11111010001011010001011100111011
11111111001111010011110011011100
00000010000000000100001010110110
00000000010011101110101101011101
00000000100111110010101101101010
00000101011100101000000110001010
00000110000101000011000011000101
00000011100010100000010011110101
11111100010010001000111010000001
11111110001010101011100101100010
00000010100011111010110100001010
00000001000010000011000111100011
11111111100011010010001011000001
00000001101101010001000100001101
11111011110000110001111110100101
00000101001000110111100100111010
11111111001100110111000101010111
11110110110011001101101010001011
00000010110100110011000010001000
00000101101100011011010000111010
11111000111001101110110000111100
00000101001110001111011111001111
00000011001010000100100101001000
11111110001110101101100111100110
00000110011000111000011111101001
11110101101101110111110110001101
00000101001010110110110011000110
11111110111000000010110000001100
00000000101011110101001111100001
00000101100010001010110011001011
11111001001011011100110011111101
11111111001111011001111010101001
11110110101111000001111100011110
00000010010101101011000111101101
00000100100010110000001111111100
11111011100001000101011001101111
00000001110010010010111110100101
00000011111001110110110001011010
00000010101111000101101111100001
11111111101101011001000010001011
00000100010001010110100100001100
00000001100110100101011011000110
11111110010011000110010100011110
00000000100000101010001000100100
11111110011110010001110000111001
11111110110101101111111111100111
11111000001011010010110110111100
00000011110100011011100111011100
11111110100011110101000111011100
11111100000111010000010110010001
11111110110110101011110101111101
11111000101101101111111000010101
11111111110010001100100011011011
11111111001111111001111000001000
00000110100001001110101001100110
11111010111111010001010011010100
11111100001100001100010110110111
00000001110111011111111000111000
00000000011101001111011001011011
11111100000100101100110011011101
11111011101111010001011010010001
11111101000010000101111001001001
00000010110001101011110100101011
11111001100010110010011101010001
11111011001111101101010010111101
00000101001111000000001010011110
11111010000111011100111111000011
00000110011001110111010000000101
11111110011011010100001100001101
00000100100110010111111001111110
11111101101110011000010101011100
00000101011111001110011100101100
11111101000011001010000010110101
00000001101001100101001110010001
11111111111111010110000101101111
11111000111101110001011011010111
00000010001010111101000011000011
00000111101101010100111110001011
11111111100101010101100011000001
00000111110101111111001111110101
11111010000101011000011010110101
11111011101000011110101000000000
00000000111011100011011001101010
11111110011000000011110100011000
00000101001011111100011111010000
00000001101000000011110111010011
11111001010111000100111010010110
11111110000101110011110111000100
00001000000000110011110011110110
11111011001110011111110100100111
11111100000000001010001100110001
00001011001110110101011010011111
00000011000101110111101111010010
00000100011001110000011011111010
11111000011101010000110111100100
11111000110001100001110011001110
00000011100101101110110101110101
11111100100001101011110101110100
11110101110101010100000101000001
11111100011010011000101101101011
00000110101010011001111010111011
00000000111100001010100000101000
11111100010100011111111100110111
00000101001101100101101011110110
00000101111110101011100110110101
11111111110000100010010000101100
11111100100110001001001110001101
00000010110101011010111001001011
00000011010100110100101001011110
00000111011110111001101110011001
11111010110000111011111011011110
00000001111001111111010100101011
11111101101011000111001011011100
00001001100100111001111000101100
00000000010110110111111011010000
00000101111000110000000111011000
00000001110111011100111110010111
00000000101101101110101110101001
11111010010000111010111000011011
00000011111100011111101001101100
00000100000011001001110001101110
11111111011101110101101110011010
11111110111111101110110111000010
00000011000101101000101110111111
11111111011011101101110101010000
00000011010111000111010001010001
11111010101010101000110111010100
11111000111000110011111111000101
11111100111111111100010011100000
11111010110111100111100000011010
11111101110101111111100001111111
00000111100001000010101111000111
11111011110001100010010010111111
11111110110011010111111111010010
11111000111101101111110011010101
00000001000010011010111001000111
00000000011001111011000110101010
11111111100100100111100000010000
00000110100000110011010101110100
11111101100010111010001101110000
11111000000010111100110100100010
11111001111111011000110101000111
00000000001010110011101001001111
11111000000010100101100001000010
00000000111000100000101101001011
11111110110100000001110001101111
11111101110001001011110110001100
11111100000100101100111101100000
00000001011001100110101101111100
00000010001011001101010100001000
00000001110011100110011000001110
11111010001011000100110000110010
00000100000101100101111010101011
00000010010100011011100011100010
11111100000010001010111010010010
00000100000100111110000001100001
00000100010011010101010010100000
00000000001000001010101001000000
00001000101101101100110110111100
00000100010111101110011010110100
11111111001011101100100001001011
11111011010101111011101111111010
00000110000011100001111000110001
11111111101000010110100000110100
00001001010111101010011101100100
00000111011000001000011001001001
11111011011001100110010010100100
00000010111110101111010101010111
11111010110101101101011111010000
11111111001001010001100110110011
11111100101110011000100111110111
11111110011100010111111101010001
00000101010101000001101100010111
00000001011110101111011111000011
00000011010101010100110110010110
11111111010111100100011010000110
00000101001010110101101110000101
00000100001000100100110111110000
11111101010010110111010100111010
11111010010110101001101101000001
11111110010101111000100001010000
11111000101000000111010111100110
00000000010110100111010011001011
00000001101101111111110010111010
11111110000111010001101111110000
11111110100100010111111011000010
00000000000111110111111100101100
11111100111110111010110111100000
11111011110100101111010010010011
00000010011101100101001001011001
11111110011000101111100001110011
11111111011001010000111110000110
00001000011000010101001001001010
11111101110010010011100111010110
00000001110011101010100110111101
11111110001100000000001100011110
00000100000100110000001011101101
00000100100111000101011010111001
11111110000110110011000111110010
00000011010001100001000011010001
00000000010110110000000011010110
11111011001010101001101001010001
11111100010000000001110101100011
11111001001000110101111110000000
00000010111101111000110100000110
00000000010011010010010010010010
11111110000010001000001100001101
11111001110011100000000101101011
00000011100111110101100001111100
00000001000011111011010001110110
00000011111001111010010101111101
11111001011011010110100101110001
11111101001001110000110110100010
11111100001010010001110101010010
11111110110010100001111110110111
11111000001110000010100111100010
11111101111010101010000001011101
11111111101011010100001111001100
11111100110001100110011111100101
11111011100001110010110110001101
00000010101001110110001101001101
11111110010001000000000100000010
11111101001000110010100000001111
00000001001010111111011011010011
00000000111000100010010100110111
00000101111100111110100010111010
11111111110101110001111100110001
11111001000001010000001001111010
00000110011010111011000001110111
11111000001110001110101111110100
00000101010100111101001100100001
11111110101010000110100110010001
11111101001001100011001111011000
11111011000000101000011110101110
00000101111001001001011010000001
11111011110110111101001000111000
00000100110101000010110100010000
11111000100101110101011101100011
11111101100100000001011101001011
11111010110010011100000011011000
00000011111100100100111001011100
11111101011101101011001100100001
11111001101010010001001101000001
00001001011110100101000000101010
00000000101010111110111100001000
00000010000100111010000001010000
00000000000001111100010000001110
00000110010001000011010101011100
11111111011000011010011111010101
11111001110011010000111101111011
11111100111001111001011010000011
00000010101001100000001000111111
00000010100011100100100001101010
00000000000010010111010000000001
11111111011110100000001110111101
00000100001001100111000000111001
11111100100011001100111111000001
11110111111011101111010110010101
00000010111110110100010010111001
11111110001001110100010111010000
11111110000000011000110111010110
11111101100011110100111110010101
00000000100111001110100010100110
00000101110100110101100110110100
00000101000110000000011101101000
11111100010100100100111100100010
11111101000011100101100101100011
11111111011101100010101111100011
00000001001000111100000010100100
11111010100100111010000001001100
00000101011101011110011001010011
11111001011101010000000011111010
11111011011100011010010001100111
00000011111010111010000101101100
00000001011100110111110110110100
00000001100010111011101101110110
11111111111101100010011100010010
00000111100010010001010101000101
00000001110000111010111101000010
00001010111101010011111100001001
11110111101111100110000111101000
00000111111011011010111101010100
00000000011000011100110101101100
00000000010010001010010100011001
11111100111101110111000100011101
00000001100001100001001100101100
11111111000110100000110111110010
11110101001100011100001001010000
00000100110111100100110111101100
00000011010111010000010010011001
11111110111011001000000100111101
00000000100111111011001111011100
11111000000010011111110111110001
00000100000110111110110110010101
11111000001001000111000001001110
11111110010010000011010111001110
00000111011110010011101011010110
11111011100001101010010110111100
11111111101001100011010100001100
00000010001101001010111000001111
11110110001001011010011110011011
11111100010100001011100100100001
00000110010101100111000110100101
11111101110110011000101001000000
11111101111000001110111110010101
11111101001111111111101101110000
11111110100010110100000100001010
11111111100100101000110100000100
11111000001100011110011110100000
11111110110110001111101101110111
11111011110110111001010111100101
00000001011110010011100001100100
11111010110011100110010101011011
00000000111000101101100101000111
00000001111001010110100001001111
11111011000000011010100100111110
00000011000111110010011000111001
11111100101100011010000011110011
00000101111110010101101010000010
11111100111011110011001001111110
00000001001110110110110010011101
00000010100010110100011001010001
11111101111100110001101110100101
11111111100001010101010011001011
11111111111000001011010111101010
11111100100010100111100101100001
00000011001110111110000001100000
11111111111100000011011001000011
00001000010110101001001000010100
00000110100000101111000000001011
11111110000010001011010000000111
11111111001100110101001011010001
11110111111011010010100011000111
00000000000101001100110110100111
00000100010100110100010001010111
11111110010110000000001101100000
11111111000101010011110000001110
00000000001011010101100000010011
11111010110101000110010111101110
