00011001101111111011110100000011
00001010000111011010110111110110
11111100001010100101110001011111
00100010000100011010001011110101
00011011100000000011101001011011
00101000000100010011110100001100
00010111110011100010010011011000
00000110000110100011000111001001
00000001011000100000100001001011
11011111011100000000011011000010
00001010111101011101100001011111
00100000111000000111111011010000
11100000001111011101101011101010
00001000011001011001100001010010
11010100010011111011101011001011
11011101001111000101010100010010
11111001111001001000001000101111
00101101111010110010101110011010
00001101001101001101010111100100
11110001000111101110100011111011
11110011001100011110000110001101
00000111011110111111111101011110
00010011010010101100001110111101
00001101011101101001001001110011
11110101101001000101011011110010
00001110000100001100010001000001
00000111000100110110001110101111
11100111000111011100000111111000
11010100001111101011111000110110
11101000100110000010111001111101
11111010100111010111111000111001
11101000101101101111110110001110
00001111000111110111101101010110
00011010100001011001011100110110
00000110111111100101101001001111
00010101010101110110000000100000
00000010011110011011111011101010
11101111011001011100001011011111
00011101000111001110100000100101
11111101100001010100000111111010
