00010111101000011100101100011000
11110111011110110100010010011101
11111001011011000011000101100000
11111100100111101000101110011111
11111111110011001011110110110111
11110000010110100001011110100100
00010011100101110101001101100001
00000110000101100010011100110100
11111111010111001001001001010010
00000101101111011001001101101110
11110101100011101001000101011110
00001001101001000100011101001111
11100110010011001000101001110100
11101110110100001100010100010100
00100111101100101101101101111011
11011100011100110011100110101001
11101000001000010111010111000001
11100101010100001111000010000111
00011000010000110111100111011111
00010000111001011010101001001000
11111011010011111001101101111100
00010111010001100101111011010000
00001100111000010100111110111111
11110111101100101110000010100011
00011001000110111000000110110000
11100101100010110011000010011110
11111011100110111110110111001101
00001010011100110001100111111111
00010011011111110100011011000110
00100011111101011000010010011001
11110101110000011000101010111100
11101011000100010111000100011000
11011111010100110111001111010101
11011100110000111000111011011001
11110010011010000001110010011101
00000100110100100011110001101000
11111110111110001111001011110000
11110111011011011111000111010001
11011110101100001011100010000110
11110101000101001011101100011111
