00001100001101011010101011101111
00011000000100110010011010011101
00000001001111110010000010011111
00001100011101111000111111000100
00010011000100101111100100001010
00010111011111011111011010010100
11110011000010011110011000100110
11101101011001101011011110100101
00011100101101111001001001100101
00011111000011011000010111111101
11101101100111000011100000101110
11111110100011110000110000010101
00011110110011000001100010100010
11101101110111001010101001000010
00000100011101001001100001011010
00011000010101000111101110110110
00000111001010001110000111001100
00001010010010000011100100111001
00011111000101111100100111000110
11111111010011010000000010110100
00000001100000011101110010100000
11000111101110001010001101010111
11010010000000011001011101101100
11110100010001101000001011101100
00001101111010100111001101001011
00000100101010100010010000101000
00000000011010100011001001000101
11111101010111110010001100111001
11011011111001101000101100101100
11100001101100111111001111100101
