00011000101110000001001100010001
00101011010001100000100100111110
00000101010000100001001001100101
00000001110010111111101001011100
11101100011111100111000100011010
11101000000110111011010000011100
11110001000100101100001100001101
00000010011001000110001001000101
11111100001011111000100011111001
11111100110100110111111010111110
11100011011100111011110010101011
11100001110011101001101001100101
00011011111110001000001010110110
11111011001001110101010110111111
11101100000110111110111101011011
00010000001101000011100101110000
00101001011001100010101101010001
00010111110100111100011101000100
00001100111000100000101111010011
00101110010010000100101000110000
00010010010101100101001111010000
00010011011111100101100110110100
11011111000001011110111001010101
00000111110001010101110000011110
00011000010100001110111001001001
