11011101100000111011000001010001
11110011100000111101001101111110
11100110010110001000011001100011
11011100110000111101001101010111
11100111110111001001010001000001
00000010000100111111111000100001
11000001011011110001100011111011
11110111100110001001011001101000
00011011000000001110110010100000
00001110011101110010101101111111
00001001100000111110111010111111
11111010000001011111111111011101
11111101101010000010101011000100
11111111000011110010010011100001
00000010110111001111011111100000
11100100000111111001010011000001
00010101111101000000001010000110
00100010010100101011101100000101
11100001111110010000101010101001
11010000111110111010001001110000
