11100101010100110000111010101111
00111001011011010111110101000110
00000000011100011101011001110000
00001011110111101111111100001100
00010011001110000011110110011000
11111100101100101010000101110101
11111011000110000110110010001110
11101100000111001011110000101000
00011100010101101101000110011100
11111101111101100110000110110110
00011011011011111001100010101010
00101100101111101000111011001000
00001000001101010011110011101110
11010000010110111100101000000101
00001000010101111111000100011100
11100111010010011011100001100110
00000110001100000010000000101000
11111001011100010100111011101110
11000011010011100101001001101100
00100100111100000101100111010111
