00011001011101000011110000001010
11111000001011011110010000000000
11001001010001111011100001000000
11111100101010100011100001001001
00010100111010001101111010011001
11101101100111101011100001000010
11110100111010001001110010001100
11010110100111000101010110101101
00000110010100111100011000000100
01000011000011111000110101110001
00010101100010001000101011000001
11101111100111011010000110110010
00010011001110110010000001010110
00001110101110011111000001101100
00101011111000111000010110010100
11100111110110111010101110100011
11100000100010101000111100010000
11110110000011100111001000101110
00011011010010110000101111110110
11011111111001110100110111100011
