11111110100110011001010111011110
00000001101010011100110001101100
00000000000001100111001100001010
11111111101000000001000000000100
11111111001011110111100010011001
11111111111100100101011011111001
00000001000010000010001110111110
00000000000000000111101110000101
11111110101110110100111010011100
11111111101011011001000111100110
11111110110100100010010010011100
11111111111111110010101010101100
11111111010011101001110100011101
11111111111100001011101011000101
11111111010011100101010001001010
00000000011010000000101010001001
00000000010111001000100100000001
11111111101000001011001111011110
00000010001000100101000101010111
11111101010100101100000101000101
00000000000110100100100010110010
00000000100110011011010010000100
00000000001100001110101101000101
00000000100011010110010110101011
11111111001010011110000010001110
00000000010111011101100010010000
00000000111100010001100010111110
00000000000100110101010110001101
00000000101100111110010111100100
11111111100111000100000011100010
11111110101111110101010001111000
00000000100011111110000011000100
00000000000110100111111101110110
11111111111110110110111001101001
11111111101110000011010010101111
00000000010101110001101010100001
00000000101101101101100101001000
11111111001111111000010110111010
00000000011001111101001111110110
00000000011100011011101000010100
00000001101000011010110011011111
11111110101011001011101001110001
00000000011111010000011000001100
11111110110010100011010110110000
11111111011000001011111110100101
11111110100001001000010111111110
11111110101001000010010111101001
11111111100110101010111010011100
00000001101001111001000100110000
11111110100101100000001010010111
00000000000000101100010000001100
11111111100011000100111111010001
11111110110001111111000001000101
00000000101000110100110001011010
11111110010001100010100101000010
11111111000011011000000101111101
00000010101001001100011000111101
00000000100100100111011000001100
11111111111100001110000101001100
11111110100101001110101101110110
00000000000011111101001111001010
11111110111010100101010101100011
11111110110101000000110010000000
11111110101110001000100001010111
11111111110111111111011001100100
00000000111001011110101100110000
11111111100111111011111010001010
11111111101110111000001111111101
00000001101010001100101000010001
11111111011000011111100101011011
11111110111110101001000100000011
11111111001000110010010000111111
11111110111111101001101010111000
11111111011111001110110010000101
11111110011101001010010011000111
00000001110100001001011010100100
00000010001011010000101110000001
00000001001110100000001011100111
11111111001110100011100111001011
00000000000101010100011001001111
00000000010100011010110100111010
11111111010001101000010000000001
11111110100101001001010001000000
00000000111111011111100001011010
11111111101110001100001000111000
11111110110011000001110010101101
00000000011010010011110100100110
00000001011011110111100100001000
00000000100111001100011010101001
00000000001100011100001110111101
00000000111001011111011100010111
11111111111010110001100011100110
00000000100011111101000111011110
00000000011100001110000011010010
11111110110100011100011111101101
11111101001111110010110111010101
11111101001011001010010100111100
11111100110110111010111110110001
11111101101111101001100111010100
11111100101111011001110100111111
11111100111110110101010101001001
11111101001110010011110011001001
11111110101011010110110010100100
11111101111000100010110000001110
11111101011110101010100001001000
00000001010001110110000010111011
11111111001110000100010111010101
11111111000110110111011100001110
11111101111111110011111011000110
11111110001010000101101100110110
11111111110010101111111101000100
00000000010111011101001111101001
00000000001011001100000000011001
11111111111101101111011001001100
00000000000110010110100101001111
00000001000010011011100101011001
00000000000110111010100111011010
00000000010111010111010010100100
11111110000001011110110101011100
11111111110100110101001111110000
11111111011010010010010010011001
11111100010111001000011001010011
11111110000100100001100011010101
11111101011010010011010101111101
11111011111110001000011111101111
11111011110011101110011010010011
11111110000101000011011011000101
11111110101001011011011110111000
11111111000110000011101100000111
11111110000110001110010001010110
11111100000010001000000011111001
11111110110101100010110100011111
00000001010100000001000001000111
00000000010110101100011001000000
00000010100111011101010010000000
11111110010011000101010100000110
11111110000011010101101010010000
00000001101111001100110100000001
00000000100010000101101100101010
00000001000011111001101100100100
00000000000100101001100110100100
00000000110110010110001101000001
11111111111011001101100100110100
00000000000010111011110011000100
00000010011100110001011010011110
11111111010100011111111101010111
11111101111001100000111010011010
11111100100111001101000000101110
11111111100111101110010011001001
11111011100100110010010100100110
11111100100000001010100101000100
11111001100010101110011001011000
11111100010110101111001001110001
11111100101100110000100100001001
11111101100111010001010110010100
11111110001010110110000111001000
11111111110001010011000110010011
11111111010101011010001101110110
00000000010011000000101100100000
11111111000111000001001100101100
11111111010001000100001010100010
11111111011110001101101100000011
11111111001101010100110111111110
11111111101110010000010010011010
11111111011110000011111110110000
11111110101001111111101100000111
11111111010101001011111001101000
00000001101110101010101110110100
11111111100101010100010110111001
11111111010111110010001000010110
00000000100001000110111010011011
00000000001001110001110010110111
11111110110001010101110010000001
11111110101010110001101011010000
11111110000101011110011100100110
11111101001010011100111111111000
11111100000010110111101000010000
11111001110011001000100100111010
11111001001010010001001110011100
11111100010000100010000001111101
11111010111010110101011110100111
00000001111011110110111000101000
00000001010110100000010001100011
11111111101011000000001100011010
11111110010010101010000010110111
11111111010101101011111110100000
00000000000000111110100101100011
11111111001100000100111001101010
11111110100011011011100010100111
11111101110101111001000000011011
11111111101010100110100001100000
00000001011110010100011101010000
00000000000000011100101010100100
00000000101000011000101101011101
00000000101101111000111000111000
00000001010001110110000000011110
11111111010101010010100111111000
11111110101101100100001010100011
00000000100001110100001110111010
11111101010010001101001110010110
00000000010000000010001110011011
11111110100111000011000101110100
11111100111100110010010000101100
11111101110110110011101000010111
11111101000101100011111111111001
11111100000100011000010111100111
11111100001100100000110100111110
00000000110011011000110100110011
00000000110100110101111100111110
00000010001100011101100111010001
00000001110100000111111011100010
00000010000010001111000001010111
00000000101100110110001010011000
11111111010000001101010111100111
00000000011110110100001111001101
11111111100001111001100001111100
11111110111010100010010000110101
11111110010111101100011111101100
11111111101100000110000010110011
00000000001111111101111110001000
00000001100010111001001010000011
11111111100011100110110011110111
11111111011100101010011000010110
00000000110011000111101000001010
11111101011000001100001011011100
00000000011101010000011011011000
00000010110011101001000111010011
11111111111111001001000001100110
00000001000000100110000000110100
00000000100011101000001010101010
11111111110000101110111010101111
11111110010010110000110110010110
11111101100110000010110100110111
00000000011011000110000100010110
00000011100010011001010011001010
00000010011000001000101110001000
00000100111010111010100001001010
00000100011001111100110100111001
00000001110001101110110011110100
00000000111000100110101101000011
00000000010100010110100110001100
11111110111001111001100011100101
11111111111101001100010010101100
00000001110110001100001001001111
00000010100101011001000001011000
11111111110001110011100101110001
00000001010111000100010010010101
11111110111110010010101101000110
11111111000111010110011011010000
00000001100010000010001010111010
00000000101111101010110100011110
00000001001101010011011000010001
00000000100110010000101110111101
11111111100000011100000011011110
00000000110001110011101000011100
00000000100101101011110100101110
11111111011110111001001011001101
11111111110011101111101011011101
00000001101000100011011011000101
00000010100110111010010110010100
00000101011011001000111110111011
00000001101010010010000000000001
00000100111111110111110001111110
00000110011001000101011001110100
00000100001100110110100100010100
00000010101000100111100011110010
00000001111110110101011100010010
00000001010101111011011001001001
11111110011111001110101000010110
11111110010110010101110110111000
11111111001010110111001111011011
00000000111010111101011001000110
00000010101000001100110010001111
00000011001010100111110100110100
00000000111011010110100101000010
00000001101011111000111000101100
00000000010011100000000110010010
11111111111101110100001101010001
00000000000000100100101111001001
00000000001110111000111000110010
00000000011001101101110100001011
00000000010101110100000100111001
11111111100011100110110100010001
11111111111001001010110101000000
00000000101010100010110111110000
00000010010110000111101011100111
00000010101101011100100000110010
00000010101110101100011010110101
00000100101110100001011111101000
00000011110111000100000111010001
00000111110101010001101000110000
00000101011010101110100011111100
00000010101010011001011010001011
00000100000001111000010111000001
00000010011001100010111110101100
11111110101100110001000010011001
11111110111010011000010100011000
11111110110101111110111000101011
00000001011001111011011110110010
00000010100101001011100101000001
00000001111110011110010011100100
00000011110010001110111010111110
00000011010101101000010101011101
00000001111110101100100011010000
00000001010110101100001110100101
00000000000010011001001001100101
11111111100111100111011000111001
11111111000110111001011111111100
00000000011001100011001110101001
00000001110110101000000010111100
00000000001001100000101100011000
00000000000010101110110110000100
00000000100110100100101000000100
00000010111000010011100110011010
00000011101000100011111001111010
00000001010010000010000101000010
00000110000001011100011010111010
00000110000100000000101010101010
00001000101110011101011010101100
00000100000100111000010110100011
00000011011001011101001000010001
00000010000011010011101101101100
00000100111011011001110010011010
00000011110100011110110000100110
00000000000111110001010100011000
00000000101100100111001000110101
00000100010101011101110110000100
00000100000110110101000010001101
00000011101001100010011101010111
00000010110010001011101010000110
00000001001111010100101010111111
00000001010000110000000011110001
00000001110010001001101100110000
11111111011111001011001111010000
00000000011110110001100011001011
11111111101000010000101101001011
11111101101011000101011011010111
00000000000011111000001100100000
11111111000000010001101001110100
11111111010101010001100101100011
00000010010001101001011100111110
00000001111101001010100110111110
00000011000010110001110101111001
00000001101001110011100011011000
00000010110011000011001010001110
00000010110010000010011000111100
00000010001001010011101000100010
00000000111111100011011101000111
11111111111111001000011011011001
00000010011001011111000011001110
00000101011011010000010100010111
00000010001001001011101001110001
11111111011010010011001001111000
00000001111110000001111000111100
00000000110100111000001001111011
00000101001011000111110000110100
00000100101010011011001100011001
00000011001101000001001011100010
00000010100000001010110010011011
00000000010101110000111010011000
00000001100011100111100101011110
11111101011111111100010000100101
00000001111011001010100110110011
00000000010100111011110111010100
11111111100100010000010111101001
11111111000010100000101001100101
11111111100011010111001101010011
00000001010110110111100010101001
00000011000100011010111010110110
00000001000111001000100000111000
11111111101101001110010100110111
00000000101001111100111001001000
00000000101010101101111101011011
00000000001001110001111001010111
11111101011001101101110110010110
11111100110001010001000100100001
11111110001001010101111011100011
00000100110011101100011101001100
00000100111101100100100111011111
00000100011110011111010110111011
11111101100011101011001010000011
11111110011101011011111101110101
00000010111110100001001010101110
00000010100011000110001100010100
00000000101010110001011100001110
00000000101110001100111110011010
11111110011111001001011100100100
11111111011010111010010011000110
11111100111011011110000011100110
00000010000101011100011100011011
11111110101011110101100111100111
00000000110001001111110001101111
00000001101111011101011011110101
00000000000111101111010001000001
00000001010011001011111001111100
00000001110110000001100011100011
00000001111001100101000100101111
11111111100101001100000110111110
00000000011100000001011111100100
11111101100100101000101101110100
11111110000110000101000100110100
11111011100011010011110001110010
11111010101110010100110010000111
11111010010001110000001011100000
11111101101100101100001011000010
00000011111101001111001100110100
00001000010100101000101001101100
00000011010110011101000110010100
11111110001100111100110011001101
11111110100011111101000100100110
11111110011111111101101001100100
00000000011101000100010101110111
11111101101110011011111100010101
11111110011000101010011111010000
11111101111010011100111010010100
00000000101000111010100001100101
11111101110100011010011100011101
11111110011011001111000101010100
11111111101110001001000010010010
00000000110000010011100111100100
11111111010101000010100010000100
00000000011011101010111110010111
00000000111100111101010001001100
00000000001110000101100011011011
11111111110011000010001110111110
11111110000010101111001110100011
11111110111101001101010010011111
11111100111011110010110001111101
11111100011001100100110010000010
11111010100100111000001000111101
11111001100011110001000101000110
11111101111110011100110111011110
00000001001100100010101101101111
00000100100011000101000111001100
00000011100111101011011000000101
00000001001011010111100111101010
11111100100110011001010000110000
11111101110110100101001011011010
11111101010010011110010011111101
11111011000001011001110010101010
11111011011011111000101101111100
11111101100000111110111111100001
11111101110100001011111001110011
11111100101100011011110100111110
11111100110111101000101001001001
11111110000010011110010111110011
00000000100110100000011011010001
11111111111100100110111011100111
00000000000110111101101110110100
11111110111000010110001111011001
00000001100000010110000001001000
11111110101010111000010111000000
11111101110110100111111011011010
11111101110110100100101001000011
11111101001001001000010011110010
11111010111011000101011101110001
11111100111000011100000011000111
11111011011001110001100111110010
11111110011000011110010101111101
00000001110100011100010110000011
00000101001100000010011000101100
00000110001110000110000100111100
00000100101011111011100101001010
00000010000110000010110100011000
11111101110110001101111100010100
11111100101000100001011110000010
11111011111010000011100101100100
11110111101101110110001001010110
11111010010110011110101100101111
11111100011011010011111001000101
11111100010100111011111100011011
11111110110110001110010100100110
11111110000011110100000101101110
11111110110110110101110101010110
00000000111010001010100001010001
11111111111101110111111001100011
00000001111000010011010001100001
00000000101001000100010101111100
00000000010000111001100100001000
11111111011110110000101011101100
11111101010001011111111111100110
11111101001110110100101100011001
11111100010111110110111101111101
11111100001110110000011111110100
11111111000011101010110101000011
11111111101001111000101001110010
00000100100110000111101110011111
00000100110011110101011001101111
00000101010110000010111110000101
00000111100111000100001011010100
00000010010001100110011010010101
11111111011100010110100000000010
11111110010101110001001101010110
11111001111010100110000111001110
11111100100010001000110011111110
11111011001100110001111101011001
11111101010101111011100011000000
11111100011111010110001111011010
11111100000010110111010000111011
11111101001111000001110110010101
11111101100110001100101101111101
11111110011000101111110010111001
00000000001100101101101100010010
00000001101010010011010010001101
11111110101101110010111010111011
11111111001011100111010001100100
11111111010100010100010100110110
11111111001111111010011000110100
11111111111011111110000000011100
11111100101101101000110100100111
11111100010001101101100000000110
11111100011110011101111111100111
11111111110110110110100011010110
00000001010101100111000011100000
00000011010011011111001110011000
00000100010100001101000110011111
00000011010111101101001000001100
00000011011110101000100001111110
00000010100110111111001100001000
11111101100001011100110101010010
11111100110000011010101001000000
11111010000011011001100001010011
11111010000110001001101010100100
11111010001001101101100011010101
11111010001010100100100011000010
11111011100110111011110001111000
11111100011010011000101111001111
11111100100101100101100001000001
11111110111010010101000100100110
11111111110110010101110110001010
11111111001001011111110010110000
00000000111001001111111001110010
11111111111000110111110111000001
11111111110100111100000101101111
00000001101011000101101001100110
11111111010001110111010110101111
11111110101100001110111101011111
11111100101001101000010110000101
11111011011111100001001100001010
11111101001100011000110011001100
11111110000011001011100101100011
00000000101100000101011010001000
00000000001001010000101101010010
11111111100010111100010100100000
11111111010010111001111110010000
11111110001010011101111000110110
11111100101101100001110111001100
11111010111101000100000010111010
11111011100101100110111010111011
11111010010011010111001000111010
11111011100010011011010011110010
11111011101101100101110100100101
11111010101101100111101010111001
11111011111110100001100000111011
11111100100011110001101110011001
11111100110000110110111101110110
11111111011000000000011010111100
11111110110100011000010010110011
11111111001000100110001110011010
11111110111111100110000001101101
00000001001011110101011111000101
00000001100111011100100100011110
11111111100010001110110010001110
11111111101100000101111101101101
11111101011110101111000000101111
11111101000000001001001111101001
11111011010000110110011010100101
11111100101100101000001110000101
11111101100011101110100001110000
11111110010000010010111100111010
11111110010101010000101011110111
11111110001001001000111001111101
11111100101011011011110001011100
11111110010110001000011010100011
11111100100001110010000100100000
11111101011010000101110100010001
11111010101111110001011100011001
11111101001100111101011000011000
11111011100101000101100001010111
11111011000100111100110111101100
11111100001101001000011110111100
11111011101100011001110111101001
11111100001011111000100110100001
11111111110110110000110001100110
11111101100111001011001000111111
00000000011101111101100011101001
11111101011000110010001011011001
11111111110100000010100101001010
00000000010000110000000110101100
00000001001011111100000100001001
11111111100010000101111101101010
11111111010010001100110111001000
11111101000101110011001100000010
11111110011101101101010011100001
11111110011000100011101001100011
11111100010110000110110001111111
11111101110101111010010111111111
00000000001101001111010000010111
00000000011111001000000011100110
11111101111010001101010010001110
11111101011001100110111001100101
11111110001101010000011101011010
11111100010101110101110001101100
11111100100110010111101000100111
11111111011111100100010010000001
11111110100110000001000011000100
11111111101011110111010000001011
11111100100111000001111101110100
11111110000101100110001011101100
11111100001100010010110011010000
11111110011010110101000010010010
00000000011100100011110111000010
11111100110011111101001000110100
00000000001011001010000011101111
00000000011011011101011110011100
11111111111100010001110011001101
11111111111111000111011101011110
00000000010011010001101111110111
00000001001111110111001010011111
11111111111101100100010101101011
11111101100100011001101011001101
11111110001010100000000110111110
11111110100000000011010010011100
11111111000000000011010001100001
11111111110001011101100100010101
11111110100101110010011000000000
11111111101101011011010110000001
00000000010101100001001111001010
00000001000110011011001110110110
11111111010000001011110110001110
00000010001100110110101101100011
00000001011011100000010111100110
11111111111101100011110000101100
00000001001101101000110001110011
11111111100001110010011110010010
11111100111011110000111001111001
00000000110110101001011101011100
11111110101001001100011110010010
11111110000111000011010010111010
11111111100111001101100101001110
00000000111111011000010111100100
00000001001000111110101100100110
00000001010010011100110100010111
00000000001111110011011100101011
11111101111110001100000001000110
11111111000101001011101010011101
11111110010010111000010000001111
00000000011100011001010001111010
11111111000000111011010001011110
11111111011001110000100100100011
11111111001101110000101001001100
11111110100001000000001101001110
11111101011101011011111111001010
11111111001100110000100001100011
11111111100010100101001111101001
00000000011110001011101011010000
00000010011010001101110111111001
00000010100001001010100010110100
00000101001111010101011001100100
00000010100011000111000110111010
00000011101111001110001011101011
00000011010011000001100100010100
00000010010111001101010100010010
00000010010001101101010011011010
00000001001000111110000100011111
00000000100001111001001100110010
00000010100000000011110001101110
11111110111111110000000000011111
00000000111001100001110011000101
11111101111010111000001011010010
00000000101000110111101101011000
11111110001101111001010101001101
11111111011101010000001000000011
00000001011000100100101000100001
11111111111110001010110110010100
11111100100010001011111010110110
00000001110101111010110100010010
11111111010000010011111000001001
11111110001001010000111000001100
00000000000010101101000000000011
11111111101101011000010010010011
11111111101000011000010101100011
00000000010010011100111011000001
00000010110100110000110011100101
00000001010001010111100011101011
00000001001101100110101100010111
00000000011110001101000101000100
00000001011000100111111010000101
00000001110001110000001000001101
00000101011011111101010000100010
00000011001010001000010111111110
00000001010110101110101111010110
11111111101000100110000001100100
00000010011000100001111101111100
11111111111001011010111111101110
11111111010010001000101011111011
00000000001101100010000101110001
11111111101011100111001100101001
11111111011110000000101011010110
00000000110101111010011001100110
11111111101010100011101011001011
11111111100111111011010000010010
00000000110100000000000110111100
11111111000001100011110101000100
00000000010011111100110100010011
11111110111011110100000101100110
00000001110000000000111100010010
00000010100111101110111111001100
11111111011111111010011110001101
00000000111101111110110110100111
00000001011000111100011011010111
00000001000010010010100101111001
11111111000111001110000110000000
00000001011000011000000100000101
00000001001100001111100001111000
00000010001000010110100001001010
00000011011001101011101011110110
00000001110000001100011011000001
00000000011011001011100111111010
00000010001101001100001100000010
00000000100010101010010010000111
11111111111110010101100001101111
00000010010100101110111010011001
11111111000001100101010100110001
11111111010111011101110000100111
11111110011110010111100111110000
11111111010100110100100110100111
11111111011000100011001011011101
11111110111100011100111000110001
11111110011100001011001111000110
00000001010000001001110101101101
00000000111111011111100110101001
11111111100011111000000000000001
00000000101101101110101010001010
00000001000111100011000010111101
00000001100000010001110000001110
11111110110010110011000101100011
00000001010001000110110110111010
00000001111101010011110001011111
00000000000010101110100100101111
00000000010000010100001010011101
11111110011000000110101111101100
00000001101100000000010010011000
11111110001111000010011001000011
00000000011000001011111111100011
11111111111100111010000100011011
00000000110001111000101011001111
11111111111011010101101110100010
11111111001000000101001101100100
11111110110011001010110000101110
00000000111101000011100111000111
11111111000100100110111111110011
11111111010010100101100001101011
00000000001000111111110010011110
00000000000110001111001010100111
11111111101011111001100010111001
11111111101001001110001000001011
00000001101111011011011111000101
00000010010011011010110111010011
00000000011110011000010101010010
00000000111011011111101010001010
11111111000001110111010010000000
11111111000001111100100000010000
11111111101101101110001011001111
11111111000101000001000011011010
00000000101101010000001000100000
00000000001011011010100110101100
00000000110000000101110101111001
11111111111110010111110110010010
00000010101000110101000111101001
00000000011101001100001111001110
11111111000011110000101100111100
11111101110111111101001010000100
00000000100001001110010111000110
00000001100101111100011101001101
00000000000111001011100100100000
00000011000010010111011001110101
00000001111010100000101110101110
00000000011101110111011110001001
00000000101010101101101110110000
11111110101001100010010110001011
11111111110101101111110111000000
11111110110100110111111100001011
00000000110100100010010000110011
