11111111000111010111011111111101
11111110110011001011001001111010
00000010100011010100010011101000
11111111001100101110010110011011
00000000010100100000001111110111
11111111110011010011100011111110
00000000101001000111111000001101
11111110011100010101100001101011
11111111101101110100011110101111
11111111011011111000000011101010
11111111111011110110100110000001
11111110110011100001010000110011
11111110101111101011101110000001
00000001110011001101010101010111
00000000101001001111000101101111
00000001110101000110001101000000
11111111100000010111111000111111
11111101111011110111010011111010
11111111111100011111111101100001
11111110010010110101000100111110
11111111111000000100101001101110
00000000011110110001001100010000
11111110010110011001110100101000
11111110010001111010001100100001
11111110100111100010000101100111
11111111111011110110010011100100
11111111001001111001011111111011
11111111101110001010100010111000
00000000010000100100100010100111
11111110111100101010011011011100
00000000001111000101110011010100
11111111011100001010010000001010
11111111110000010111110001011000
00000000011110110101111101010100
00000001001000010101111101011011
11111101101011010110111000011110
11111111010000001100000110101101
00000000110001000111010000111000
00000000110100101001010101110011
00000000010101111000011000111110
11111111000001101100100101001101
11111110100001001001010101010111
11111111001100110111100100010111
00000000100011101100110010000011
11111111100110101100111000101111
00000000001101100000011100001000
00000000101100000101001000110000
11111111001001010101110010010111
00000000110101011000001110111100
11111110101011000010010111100101
11111110011000011110111001011010
00000000111111001010001010011111
00000000111001010000011000000001
00000000110110000110010001100110
00000000010001101101100110011111
11111101111101011010111010010001
11111111100011000111011100110110
00000001001110100100010000100000
11111110111001111100010010110010
00000000110111010001000011111110
11111101111111011001001010101001
11111111011010111000101110010001
11111110110110000110100100011101
00000000000101011000110101011001
11111110011000110011101111010000
00000001100011001011100110001011
00000000100111010100011111010011
11111111101100100101000010100100
00000000010011000000010100110000
11111111010010000010101100010110
11111110101010000010000100010011
00000000001111011001001111000110
11111110000110110111001010010110
11111101111101101010011000000001
11111101111111000110100110111101
00000000101111000110111101101110
00000000001101110110110010001111
00000000000011010101101111000101
11111111111010010011000100011110
00000001010101100001111110100110
11111110011001100100110010100001
00000000111000001101111111001000
00000000110101110110001101101011
00000000100101001101000011011110
00000001110011000010110010010000
11111110110110111100010001001010
00000001001100000000011101011110
11111111001000000110100110011001
11111111101010101000100100001001
00000001000011000001000001110110
11111111101010011100010111010011
11111110101110001001110011111011
11111110111010001111001111111010
11111110110101011011000100011000
00000001000101011010001101101111
11111110100010110011111111111011
00000000001000010011011001010110
11111110011100110011111100000101
11111111010010001110001110101110
11111111010011001001000100010111
11111110010000100110110101000111
11111110010010111101111100101010
00000000010101001001001110001011
11111100101110011100011100110011
11111101111100010100111101000110
11111111110101100111000110001100
11111111101000100100100111001010
11111111110111010000111111110100
11111111110100000000011010010001
11111111001010111101101010011100
11111111100101111011110111001101
11111110111011010011000100011101
00000001000101101111111110110100
00000001000011010000111010110001
00000000011000011001101011011001
00000000110001010011011001101011
00000010001110001110000000001100
11111111001011100101111110011110
00000001001010001011011011011011
11111110111110011101011110001010
00000000000100001000111011110010
00000000100001010011110011010111
11111111011011010111100111011101
00000000000111001000110100011011
00000000000110110111100111111011
00000010001000010101101010011000
11111111110111110110010101101111
11111110010000010011001010111001
11111100111001100111011100111010
11111110111001010011110100001101
11111100111011111111010100110111
11111110011000011001011111010100
11111101110101100000111110011011
11111110110101101110010110000001
00000000110101001011010111010001
00000010010000011000101000010001
00000000110100110100011100001101
11111111010011100000001010100010
11111110101010011010110101001111
11111110101000001001101110001011
00000001011010101010011010010111
00000000110000100000001000011010
00000000100100100001000011111000
00000000000110110000111011111100
00000000111101111101111100111100
11111111110001011011110001110010
00000010000111100010100111111111
00000000011110011000001011101010
11111101110101001101111100101000
11111111011000001010011000001010
11111110111110111010100011010011
11111111110000001001000101101110
00000001011000101100010101111011
00000010100110100001101001001011
00000000001101110000110101101111
11111111000001011100100111000111
11111110111010011111110100011000
00000001001010011011010100010001
11111111000011110110110110010010
00000001011111010110001101101011
00000001010101101011001011000101
11111111010111110000001011100110
00000000010000000110101011101010
11111111101001001100000011111110
11111111001000010011010101100110
00000001011101011101001101100100
00000000110011011011010101000010
11111111111000000000000011000000
00000001101100010011111010000001
00000010101000000000011111001101
11111101110100011010110011100010
00000001010000001101011101111001
11111111011110100110100111110100
11111111110010011000100001101110
00000000001011010101110100111000
11111110101011011010111001010010
00000000101111111010100010110110
11111111011100110101111010100000
11111110110001000100101011101100
11111111101011000100000101001101
00000001000100000000001100111111
00000011000000111101100100000011
00000010011000001101101100000110
00000000111010001010000111100000
00000000011110000100010111100000
00000001110100001111100101111110
11111111100100100010000110000100
00000000001111001110011001010010
00000010100110100011001101101010
00000010110111000001101000111011
00000011101101111011111110001010
00000010100101111111010110010101
00000001110010001001111000000111
11111111011001111001000010010110
00000000100011111000110100100101
00000010110111001100101111101101
00000000111101111111010110100001
11111111011111000110010100101110
11111111000000110100000111000101
11111111111101001100000010101110
11111111111000111010111100010110
11111111100000010010001110001100
00000000000000010101110110100111
00000001001011101101011111111001
11111111100100101010001010010100
11111101100111001100010011100101
11111101101001010010001001010100
11111111000010000101000111110001
00000001111101111011100011011000
11111110111011001010000101111111
00000000001011001111110010101010
00000001111010110101001101101001
11111110110111000110000001110101
11111111011010111110111100010011
11111111110101000011111010010100
00000001011000011101110011100100
00000001101011110010011110000110
00000001110100110110111110011000
00000010111111101110111111110101
00000100001101000010011110010101
00000010111010111110110101101010
00000100000001111111000110000010
00000001010000110111000101110011
00000000001110010011001001010111
00000000100101100110010111000111
11111110111110111100100100101100
00000000001011101110001100110101
00000000010011001010000010001001
00000000010010101111110000000110
00000000001000000111010000101110
00000000001010011011001011011101
11111111011111100001110000000010
11111101111101010100110111101101
11111101100001011110010011001001
00000000110101100000000101011001
11111110011101100000100011001010
00000000111100111011011100011101
00000000111101101011110001010101
11111110111110001111000000000001
11111110100011010101100011101111
11111101110100000000111010011011
11111101000000010101011000110000
11111101010100100000011101000100
00000000000000111000110110011100
00000000101001010010110000011000
00000100101101100101111111001000
00000011000010101000111010010101
00000010001110100110011001000111
00000100000000111101011111100101
00000000001010101000000010010001
00000001101010111010101011010001
11111111100110101100101011100010
11111110100110101010001100101111
11111110101010001110011001101000
00000000001001100101100000001001
11111110101000000001110100101000
00000000101100000100000000000001
11111111001110000000100100000101
11111111011111110010010100010011
11111101110100101100101111010010
11111110100110110011110010001000
11111110101001000100001010000001
11111111010111110110110100100010
11111110000000100101010110010001
00000000010110101111100101111011
11111101111000100110011001100011
11111110110001101011001101111101
11111111011111001010010101100000
11111110011010010101000111001001
11111101010111111110110000101000
11111101010010001100010000001001
11111110010011000110111100100101
11111101011011110111000101111010
00000010001110000000011101000001
00000010101100110110000010100101
00000010011111101001100110010100
00000011110101100100111111110001
00000000000001110100100011010110
00000000011010110000000110100010
00000001010111011100010110011111
11111111111110010001111011101000
11111111110110011101101011101000
11111111001010100101100110000011
11111111011001011100100110010011
00000000110010110110101011010001
11111111001010111001110010000110
00000000110110100100110000111101
00000000100010101101111001111110
11111111011011000010101001110101
11111111101010100110011101000110
00000001001100001000010110001010
00000000110010101110101101110101
11111111101010101000010100110001
00000001111100000001100101000111
00000101001100011101110001110100
00000000110100111010001010100001
11111110011101011101011111110010
11111011010000000011001101001000
11111100011010110111110101001011
11111101111100001101101011110100
11111110101111111000001010000001
11111111001000100000001011111011
11111110110010000001110101110100
00000000111111110101010001110101
00000001010011101010011110101010
00000000110010010011101101001110
11111111100101101011111100010101
11111111111101101011101111001001
00000000100000101100101101011000
11111111001010101110100101001101
00000000011001101111011110100011
11111111001011010110111001110110
00000000010011110010011001011101
11111110110100000000110100100001
11111110101011100111111011100001
11111110111101111100010000010111
11111110010010001001000010010011
00000010010101000000100000100011
00000011011011110000010111101101
00000001000011111101001011101010
00000101010000101010010001000010
00000100011001001000110000110010
00000111010000010001001011011101
00000100010101001010001110100110
11111110100111000111000000001101
11111101110101100111111001111111
11111101001011010000001101011000
11111110010000000111111100010000
11111110110101011100100100000100
11111111000011010101111001000000
11111110110100010101111101110000
11111111110011001010111101011110
00000001010110011011001011101111
00000000110100011111000010110011
11111111110010100101110101110101
11111111011000110011111100001000
11111111010101010010000010000101
11111111001101011000101010011000
00000000110111010111001010000000
00000001101001000001000101100110
00000000111011000001001111001000
11111111110111101110001100011111
11111111100111110111100010010111
11111100010011100110111001011000
00000001101111010010000000001000
00000001110000000000000110111110
00000001100001000011000010110110
00000100101010001011110101011000
00000110001100111110011110110111
00001001011111101101110100111111
00001010000100010110001110110000
00000110111100010101101010011000
00000010110001010110010010001001
00000001010011101100110101011010
11111111101101101000111111000010
11111111010101000111100010011100
11111101100110110101010001111001
11111110000100001010011010111011
11111100100100110110010000101101
11111101110001010010010000100010
11111111100110000100101111100001
11111110110001100110100101110110
11111110000010101100111010010000
11111111100101111001011010111111
11111111100010101010000010101011
11111111101100111110000100010001
11111111000001100100001011111110
11111111101001100101101011011001
00000001001111101101110001000011
11111111000011011111110000110011
11111100110110110111000000100011
11111111101111001100000111000110
11111111010011110000110010101101
00000000011010010111010101110100
00000001001101111000001011101100
00000101101011101010011010010010
00001001011001111011100111010111
00001100101101011111000100001010
00001010110101100001000110101100
00000101011011100000111100110010
00000010001011010001001011010011
00000000010110100001001000001010
00000000000010100000111010101000
11111111001110010101000110101100
11111101101001110111001101011001
11111100011111010000100101100011
11111011001111100010101110111010
11111101001001001011011101010000
11111100101011101111110100001111
00000001001100110110111100000111
00000000111101101011010111110111
11111110101100000010000001101000
00000010000011001010000001100101
11111111111101000010010011000000
11111111110001010001100000001010
11111111111001000101011010011010
11111111101001010100001101111111
11111010111100011001010010001001
11111010111101110011010011001110
11111011000000111000110000100100
11111100110100111110000111101010
11111111010000100110000100010100
11111101100010011011011100011010
00000100010111100000001100001110
00000111010001011001101000100100
00001001010100010100000000111110
00001000110010110001110110000000
00000010111011001101010000001010
11111111010110011010000010010011
11111110111011001001110100111011
11111100111101100001101111000011
11111110000000011001000101111001
11111100111001001000000110101010
11111011010100001000110001000110
11111010001111100111100100101111
11111100011110000000001100001011
11111111011110110111010100010110
11111101110111101110011111000110
11111111010001100111001001111100
11111111010011001101010100101111
00000000001110011101001010100000
00000000001010000111110001001011
11111100111010011010001100110001
00000000011011010100011101111010
00000000001111101001110001000100
11111101011000100111010001010111
11111001100010100000000101000110
11110111100110101101100111101110
11111000110001010101010100110000
11111011001111001101100100001110
11111100001101001001010100110010
00000000011100110111110010101001
00000101011000001111000101001011
00000110000011110000001101111110
00000101100011010011111000010110
11111110101100010101111010100111
11111101010001001110011101000011
11111101010101110000000111000001
11111100000001001010011011001111
11111101111001111001111000110110
11111111011100001011110011111000
11111100100111001001101000100111
11111011101011000001111011000101
11111110111011110111111010100111
00000000100000001010110110110000
11111111000010011000111001011111
11111111000111010010101011001001
00000000111011001000100101111011
00000010001010101000110001010001
00000000010111010001000110100010
11111111011100111000111101110100
00000010010000000100011001110100
11111111010000000101001001111000
11111110111011101000001011011100
11111010110011101010001111111001
11111010000101110011000111001111
11111000010111000110111101110100
11111001100110001101001111011000
11111000010000011100011001001111
11111101111110100101000000010101
00000011101000011000010110000000
00000010111010101000011100111101
11111111011100111000100011101111
11111101011001100110101101110101
11111100000001111100110001100011
11111011011110101000000001101010
11111101000101010001111010011101
11111100100110110101101111010010
11111100111110100101010110001000
11111101100001111001010100011110
11111110001011000000100000111111
11111110010110001111010101001100
11111111001111000100010101111000
11111111001101111000010011101101
00000000000011010110100011011010
00000001011110111010101110101110
00000001101000001010000000010100
11111111110001111100000010110001
00000001000111010110001010001111
00000000000110000111110010110111
11111110010111100101001100001000
11111110010011100010100111110000
11111011001111111100111011101001
11111011011110100010010111010111
11110110101011011101001101000011
11111000100010000000111110011100
11111001101110111100001100010101
11111100101110110110011100010101
11111101001000101010111000100001
11111110101110111101101100111000
11111101100110110101101011000010
11111101011000110001001000111001
11111100010001010111011010111111
11111110100110001110111011001100
11111111101110011110001000010110
11111111001011001101110100011011
11111011101110100010100111110001
11111110011110000111010111101000
00000001010111010110100101110111
00000000100100110001100011110001
11111110000100001111001010100101
11111110010001110000100000101010
11111111101010100100111010011110
11111111110010010111111101010010
00000001011101101011011111110101
00000000010000010010101000011111
11111110111010001111011011000110
00000000001101011100011010000111
00000000110000000100001110001110
11111111001111110100110101101110
11111101100100010010001101001111
11111101011111101100010000110001
11111100110000100101011101111101
11111011010111010000000000011100
11111011000010110100001010100000
11111101011101110000010110000000
11111101010110010000100110101000
11111100000000000000100100001011
11111101000001010001000111100000
11111100001000101110011100011000
11111111011110010011001001010011
11111110100011010101010000000010
00000000011100011100000111111011
11111111011110011000001011001101
00000000111001111001011111000011
11111111100101100110111111000100
11111101001001110101001101100101
11111111010100100011100111001001
11111110001011100000011101101111
00000000101000110111001011111110
11111111111110011100111100000001
11111111101101000101110111001100
11111111100011010110000101001000
00000000100011010000110101001100
11111111011011001111011000101111
00000000010001000111011011001111
00000001100010001010110010101110
00000010110011101011110000000101
11111110101010101000001011000010
00000000010111011011101110101111
00000001101110110111110011000100
00000000000101101100001101100001
11111110100100100000010111111101
11111110011111110110000000010011
11111011110011001001101111111110
11111011010011001100011011111001
11111100010000111001111110111101
11111110000001001001101001100000
11111110100101010110011011101011
11111110110000110010100110010101
11111111111010110100110000110011
11111111010001111011110101001010
00000000111100011101110100010101
00000001111001011111001011010000
00000000011010000000101101000010
11111111100001100001000001001001
11111101111010111011001100001111
00000000001111110101101100000111
11111110010001001111110111001100
00000010000100101111111010001111
00000000001011111101001010000001
11111111000011110111011100110000
00000010111000000001110110011101
11111111011000001110010010101110
11111111111110010010001010101100
00000001000001001010011111110110
00000000001110101000110101111111
00000000101100100111110100101101
00000000111000000110001011111101
00000001010001101011011111010011
11111111101010100011001010101101
11111110111000101101101110001001
11111101001101111000100110000100
11111110110001100101110110001001
11111101001010111011001011010000
11111100111101111111001110111111
11111111101011111001101000011111
11111111000110001110110101001000
11111111010101101111010110011101
00000001010100101111011101100100
11111111000101111011001000101011
11111101101000100000100110100001
11111101101111110101101111100100
11111110010100000001011111111110
11111101100001011101011000010101
11111110000101100100010101100101
00000000101000001010111001111011
00000001000110100101111001110011
11111110110100100111100000011010
11111111010000011111011000111101
11111110101000001101001100111011
00000000000100101111111100100110
11111111001111110000000110001001
00000010010111011010101111110011
00000000110110001001011000101011
00000000101001001011000001011010
00000010010111010101111011110001
00000001101001100101000111011001
00000001001010110111011000001010
11111111110000000000101111110001
11111111001111001000010000010111
00000001000101110011011000000010
11111110010100001111011010101111
00000000101001110000110011111110
11111110011100101110101111000110
11111110101110110010100001010101
11111111110101010010101010110001
11111110111111100101000010011011
00000001100000111011001011001111
11111110101010110010100110111001
11111110110100011000000101000000
11111101110100011011101011111111
11111111001111011010001111100000
00000000100010000011000100010101
11111110100100000011001110101010
11111101111011100100001000011111
11111101101100111000100101110110
11111111001011110111001111011100
11111111111010001001010111001100
11111111001011111010101001111110
00000001000101100111001000110000
00000000000110010110001000011000
00000001011010000010101010110011
00000001001010011110000000000011
00000001000111000010100000111101
11111111110101100010110001101001
00000011110010100000110101010001
00000010000000110001000010001010
00000011001000010111111110101001
00000010111100000100101110111011
00000011000100000011100111111101
00000000111110001011111010100111
00000000111101111001100010010110
00000010011001000111000011111010
00000001111010001101000001010101
00000010101000110001011010001111
00000000000111001001101001101110
00000000100001000111110110011011
11111111101011001010101101010101
11111110000000011100000110110111
11111101011010101101110101111001
11111111010101000001001101110011
11111110110101111110101011000011
11111111001110101010111110110011
11111111010111000110000110110100
11111111110001100101000001001001
00000000100111101110010111111011
00000000100101001101101111101000
00000001100100110010100010000101
00000000000100010010010001100100
00000001101011011001010101010111
00000000001101011110011110110001
00000001011001111011100001110101
11111111000110011010011101100110
00000001000001011101010100111010
00000001101111111000110111110010
00000010110011010110010000100011
00000011011111111011110010111000
00000100001101010111000101011001
00000100101001110000000101000101
00000011010110111110100001111101
00000010001000100000010010110010
00000000001111110000000100010110
00000010101111000111000000100101
11111111000101100000101000001000
00000000000110110100011010101001
00000000011101000101101101111011
11111110011011010011111110001111
00000001001001110010000000100110
00000000011011101000100110001100
11111111011100110111101100000111
00000001010010000111110001101110
00000010010011001000100101010011
00000000000100101010011000101010
00000000111101100110001111001011
11111110110001001101001010110110
00000000011001111111101010001000
11111111000010011101001000110010
11111111111011010100100110001111
11111111100010000000010011111110
00000001010110011100000001000100
00000001110001001011010100011101
00000001100001000010001111111110
00000001110001110011011011011000
00000010000000011100000110101011
00000010100001110001000110010001
00000001111111000001001101110001
00000010001100111101010100001011
00000001111001110111100001100000
00000001101100111001010011110100
00000001010000110111101011011111
11111110001101100011011011011110
11111110010101000010011010110010
11111111100010111110011000100111
00000100000111011001000010111010
11111111101101011100100111010010
00000001010010100001010101110111
11111111011111111100111011101110
11111111010100011111001110000001
11111111000110000100001110110010
00000000111001011101111110001101
00000001001111111000110011010001
11111111100001101000001110110110
11111111101001110101001101110000
00000001001001100011101001010011
00000001100010010101001100001000
11111111001100100110101110100110
11111111001100101010001100000111
11111110010001010000001000011011
11111111111100100111110110110111
11111110011010011111010100110011
11111111000100100100101111010100
11111111100001101000111100001010
11111111100111000011010111111010
00000000011101000110101101101111
11111101010101011101101011110101
11111110100001100000011100101011
11111110101101011010101101111001
00000000101100101001000100001010
00000001111001100100011000000101
00000000000001001010101100011000
11111111101010100001000110101100
11111111101011010000001110000010
11111111011101111001100001010011
11111111011110110100001001110101
00000000100010101100011111110000
11111111100011011000010101111110
11111110111101010100011000110000
00000000011101001010101000110100
00000000101100100100110011110100
00000001101001111110111101111011
00000000110101011011011101011110
11111111010100010100111010010010
00000001000101010111111011100100
11111110111100011010100010111011
11111111111111011100101011101100
00000000100110001010000101111111
11111110110111010000011011000000
00000000100010100000001101111111
11111101011000111011100110001100
11111110000001000111110000100010
11111110100100000011111001001010
11111111110001110111100010011101
11111101111000000011111011011011
00000000100101001110000110011100
11111111000001100010100111010011
00000000010100101000111010110111
00000000100010100111000011101110
00000000011111001010110101111011
00000000000111100111001110100000
11111111101110001101101000100000
11111111101111111101110001010000
11111111011101010000101110011001
00000001000001100010111011100001
00000000001000100000110000010001
00000000010001110100000001010001
00000000001101101101000000000011
11111110101111101000111100001101
11111110110111011000000110110010
00000001111001111010110100001100
00000001110101011000110001100111
11111111110000010110100001110000
11111111111110100001011011111010
00000001000010111000011011000111
00000000000010000011011010010111
11111111101010100101100001100000
11111110100011010011101101011011
11111111100111100010110011101100
11111111001000001101110111110111
11111111011001011111110100111001
11111111101010011111101001011001
00000000101111010011010001101110
00000000000000111101010001100010
11111110011101111111100100100000
00000000001001001100000111000000
11111111110011011011011100100001
00000000011100100100001000010110
00000010001010001000001011011000
00000001000100100001001001100011
11111111001100011011100011100100
00000001010111101110111101011010
00000001001001101101100011001010
00000000001111011101111111011110
00000000100100110000110101110001
