11110110111011101101000011110011
00010001011111010111110000000110
00000000100011111110000100100110
00000000001111000100111101010110
11111000101111000110000011001101
00010100111100101000111000011110
11101110000111101101000000111100
11111010001111011001010110011101
00000111011000111101010111011100
11101111111000000101010110111111
11111111111101011100011110100101
11110011010011100110101000011111
11111010000101010111011111011000
11101101001000000111011000101100
00001100011010011000110111001111
11110101000101010101110111000001
00100101100111100101010100001001
00000111000110100011001101101111
11111011100111000111100010000101
00011111110011011010000011000111
00010101001101010100010000110100
00000110100001100100011001110011
11111010011011111101111000110110
11111011101111000010101000001110
11100100010010000001111011000101
11110101100110110111010001110111
11100011011001000010110000000110
11111110111101011100101010111100
11101001011010110010001011000001
11111001011111111111111110011100
