00000011001000010010111000101001
11110011110110101101010010001111
11111011111110001010010011000001
11110111111110100011000110010101
00001001010001010001111010001011
11100111110001101100011101100011
11101010010010000011110110101000
00000011111010111100001111101111
00010000001101101001011100011011
11111111001101011010110000100101
11110010110111111011000010111000
00000101000001011100100110001110
11110001011100101001010101101011
00010010001100000000110100000110
11111110110110111000000110101000
11101100100010110100001011111011
11101010101001100011111010011101
00010101011001111011000100111011
11110011111111110110011001011011
00000000010100101000011010010111
00001111110101000111000111100001
11101100111101011100001111001000
00000000000110100001100110000101
11111110010110000111110000100111
00011111001101011101001101011011
11111000100000000110110101111011
00010000100101101010111000001000
11110100110111110010110100101101
00010000001101100111011111110101
11111110010001101010010001010100
