00000110100111101111011111010101
11111100101100100000011011110001
11111101100000111011011001111010
00000101010101001110110111000011
11100111011100101011110110001100
00010001101111001100111111101110
11101111100010010111100111000010
00000100111100111011111000101010
11110111011011001110111101010100
11100000111001000101010110111001
11101101111100000010010000101101
11101011011000011101010111011110
11110011100000000010100101011010
00001001101111110100011100101001
00011000110011101001101010110001
11101011000111101101100001000000
11111001110100100111101101000010
00010011010110110101101000111101
11111010010010110100111010100001
00011000010011110111111101100111
00010001111000110111010010000000
11101100101010110010100001000111
00001100100010101010101100011111
00001001110000110100110011101100
00000000011001100010000011111111
00000010010100011011010111010101
11110110011100110011110100111011
11110001010010001001001001100001
11111110110110011110100100010010
11111101101100100110111011101101
