11111000110101101101011011100001
00001010101111011000110010001010
11110010010001001111001101110111
11111100110001110100110110000111
00001110001110100011100000110011
00000001100011110111101011000011
00001101111001000101011011111100
11111011001110010001010011001000
11111111111000110110001010001001
00010101000100101000100011000001
00000100011000111100010110001101
00010001010000010011000010001010
00001000101001000010100100000100
11110000001110001100101001011101
11010111000100000101101100111011
00001000101001011011101011101100
11111001000111010100001110110111
11100101010100001011110111001110
00001001111011111100011011011111
11101011010111110100011000001110
11111011001111101010010000010111
11111100010001010100010110000100
11110011101111001010011101010010
11111111111011001010011101101110
00000010101110001011011011001010
11110111101101101001110110001001
00001010001000100101010111001001
00010010100011001000000100100101
00011011011001001110010111101001
11111110110010000110000111100001
