11111110000110011100011000001010
11100111111101111110011000000111
00001000000001000110100101010101
11110100111000011111111001100000
11111011101100101010111110000100
00000101111010000100000100000000
00000000010101111100111101000001
00000010100011011010010110000011
11111110011001011100010111100110
11100101001001101010101011110110
00000101101010000101010100110111
00000110101010100011111101000011
11111100111000101001111011101011
00000100010011000000100010011011
11111011100101010111101010101110
00010110001110110010100100111011
11111010000101100110011111011010
11100110110010111111100001111101
11101111001111010011000001001010
00011111001100010111110110011001
11010011000010010101100110111100
11110010111100100011000100001000
00001100011000011100000010101000
00010010010000011011111010110000
11111010111110010010101011110101
00000000111010001011110011010011
11110011001110011101010011010111
11110101111111101100111011001000
00000011011011010100000101000010
11110100010010001000101110011010
