11110101111110001001100100100101
11011111101111001001010010000110
11110100111110111101100011101001
11010101101111100101001110001010
11111100101010101100000110011001
11010000100110100010010110101011
00010010111100100101001001101001
11100011001010110000000111011101
00001111011000101001111010011000
00011101010011010000010110100101
11111001000111101101010010011010
11011010011001101001101100101000
00001010110101110000101010000010
11011101010010100011101111000101
11110011111011011000011101100010
11101010110010001010011000010100
11110100101011110100000001110010
11101101110101011100101111100110
11110110010111100100001110000000
00000110101011100110010110101011
