11110110011111001110101011100001
00001010000011000111111010101100
00001010000101100101011011111101
00001000001101101010100111011111
00000111000110001000010111111000
00000000101111111110001000000111
11101010000011001011010101010101
00010010111001110100111000010001
11011011011101101101001111111010
11111001000010010001001000011110
00011001011000011001100011111001
00100100000100011100110100000011
00000110100100101110111001011110
11111100110011011100000110110011
11101100000010110001000100001000
11011001111001001001000011100001
11111000101001010100101101101100
11000101000011001000110111111001
11100010100101101101101111101010
11100011100011100001001111011111
