11111111111111111111111001001110
11111111111111111111111101011000
00000000000000000000000110101110
11111111111111111111111111011100
00000000000000000000000101100110
00000000000000000000001100001100
00000000000000000000000000111010
11111111111111111111110001110000
11111111111111111111111100000010
11111111111111111111110111111010
11111111111111111111110110000011
11111111111111111111111000111011
11111111111111111111110111111011
11111111111111111111101111001111
00000000000000000000000110000001
11111111111111111111100011011101
00000000000000000000000010011001
11111111111111111111110110010101
00000000000000000000000011011100
11111111111111111111100111110110
11111111111111111111111101011101
00000000000000000000000011000010
00000000000000000000000011101101
11111111111111111111101101110001
11111111111111111111110101101110
11111111111111111111111011000111
00000000000000000000001000111000
00000000000000000000010010101001
00000000000000000000000001111011
00000000000000000000000000000000
11111111111111111111111000110110
11111111111111111111110111111010
00000000000000000000000100011110
11111111111111111111111110111010
11111111111111111111101101001011
11111111111111111111111101010011
00000000000000000000001000110000
11111111111111111111111100001000
11111111111111111111110001111001
11111111111111111111111001010001
11111111111111111111111000110000
11111111111111111111110100011111
11111111111111111111001001011001
11111111111111111111011110111110
11111111111111111111100111101100
11111111111111111111110001111010
11111111111111111111110101010001
11111111111111111111110011001111
11111111111111111111111111011010
11111111111111111111111100111111
11111111111111111111110111000101
11111111111111111111110110110111
00000000000000000000001011110100
11111111111111111111111100111001
00000000000000000000000100001110
11111111111111111111110101100111
00000000000000000000000110101011
00000000000000000000001100101100
11111111111111111111110010010010
11111111111111111111110010010000
11111111111111111111110111010111
11111111111111111111110101111010
11111111111111111111111010010010
11111111111111111111011010000111
11111111111111111111100110111001
11111111111111111111011000101100
11111111111111111110100001110110
11111111111111111110000010101100
11111111111111111101010011001101
11111111111111111100000101001110
11111111111111111101000100010101
11111111111111111101100111000010
11111111111111111110001000100111
11111111111111111110010010010001
11111111111111111110101101011010
11111111111111111111101000011110
11111111111111111111100001001100
11111111111111111111110001110101
11111111111111111111101011101100
11111111111111111111111000110101
11111111111111111111110001100000
11111111111111111111101111101000
11111111111111111111111011110110
00000000000000000000001000010110
00000000000000000000000000000000
11111111111111111111110001011101
11111111111111111111110101000010
11111111111111111111111101100100
11111111111111111111111011000110
11111111111111111111111000111011
11111111111111111111110101100101
11111111111111111111101000100101
11111111111111111110001010110000
11111111111111111101111110110010
11111111111111111101101100100111
11111111111111111101000000100101
11111111111111111100001011100111
11111111111111111011011111101110
11111111111111111101100000100111
11111111111111111101001011001001
11111111111111111100010010010011
11111111111111111100101000001001
11111111111111111011001000000011
11111111111111111111000000110000
00000000000000000001110010101110
00000000000000000000100100010100
11111111111111111111100010000000
11111111111111111111011001111001
11111111111111111111100110101011
00000000000000000000000011011100
00000000000000000000010111001011
11111111111111111111111011111110
00000000000000000000000100001110
00000000000000000000000010010100
11111111111111111111111110011100
11111111111111111111111101100010
11111111111111111111101110101010
00000000000000000000010111100111
00000000000000000000000010110111
11111111111111111110101001101111
11111111111111111101010101100010
11111111111111111110010111001001
11111111111111111110000100101001
11111111111111111011110111001110
11111111111111111011100000111101
11111111111111111011110001001101
11111111111111111110110111101100
11111111111111111010110000010010
11111111111111111000111001100100
11111111111111111101001101100011
11111111111111111111100010100111
11111111111111111101110101110101
00000000000000000000010011011011
00000000000000000000100010001100
11111111111111111111100101000010
00000000000000000000110001000011
00000000000000000000110110010000
11111111111111111111101110001110
11111111111111111111010010101011
11111111111111111111110100000010
00000000000000000000000111111110
11111111111111111111101110101010
11111111111111111111110110011001
11111111111111111111111111001001
11111111111111111111101110000000
00000000000000000000011001100000
00000000000000000000101001111111
11111111111111111110100111100110
00000000000000000011101110000111
00000000000000000010101101111001
00000000000000000010001101111001
11111111111111111101011001010000
11111111111111111010110010000111
11111111111111111111101010110000
11111111111111111100100111001100
11111111111111111110010011000101
11111111111111111001111000111000
11111111111111111011101010000010
11111111111111111111111111011100
11111111111111111000001101011111
11111111111111111100111011100111
11111111111111111011101101111110
11111111111111111100100010001101
00000000000000000000001011110100
11111111111111111111111010101000
11111111111111111111010111111101
11111111111111111111110110101001
11111111111111111111111000010111
00000000000000000000000111101101
11111111111111111111110111100110
11111111111111111111110110001100
11111111111111111111010101100111
11111111111111111110111001010011
00000000000000000000100011111110
00000000000000000001100011001111
00000000000000000000011111100010
00000000000000000101001000100010
00000000000000000000010100100101
11111111111111111100110011100101
11111111111111111110100010011110
00000000000000000000101110010110
00000000000000000001110000001001
00000000000000000000101010010101
00000000000000000001110010101001
00000000000000000011100111110001
00000000000000000000111111111001
00000000000000000001010001101000
11111111111111111011001101101010
11111111111111111011010010100101
11111111111111111111100011001001
11111111111111111110101000000000
11111111111111111011101000001001
11111111111111111011110011011100
11111111111111111110010010100111
00000000000000000000001011000101
11111111111111111111110101101000
00000000000000000000000001000111
00000000000000000000000101010110
11111111111111111111111110110010
00000000000000000000000101111000
11111111111111111101110100101000
11111111111111111101100111100111
00000000000000000000101001101010
11111111111111111111111100010011
00000000000000000001010010110111
11111111111111111111000011111001
11111111111111111111100001110100
00000000000000000000101001001001
00000000000000000001010100101010
00000000000000000011011000111111
11111111111111111111000001100010
11111111111111111101110000111001
00000000000000000010000101101110
00000000000000000011000001001001
11111111111111111101100111100011
11111111111111111111110001101000
00000000000000000000011100001001
11111111111111111111010101010000
11111111111111111110010111010101
11111111111111111111000110010010
11111111111111111111001001010010
11111111111111111111110111100000
00000000000000000000010111001000
11111111111111111111110111110111
00000000000000000000001001110010
00000000000000000000000000010111
00000000000000000000010010011001
11111111111111111111100000111010
11111111111111111101111101111010
11111111111111111100110110110110
00000000000000000000100011010100
11111111111111111111100110000001
00000000000000000001000111101011
11111111111111111111010100101000
11111111111111111111111000011010
11111111111111111111000111111110
11111111111111111100011110111001
11111111111111111111011110011101
00000000000000000001100110101011
00000000000000000010110100010010
00000000000000000000000011100011
11111111111111111101101100110100
11111111111111111111001000010110
11111111111111111010000011011010
11111111111111111101101011000010
11111111111111111101001101100111
11111111111111111101000010100001
11111111111111111100010111000001
11111111111111111111011001000110
00000000000000000000011110110101
11111111111111111111011011110101
11111111111111111111101111100001
11111111111111111111110111000101
00000000000000000000000010101101
00000000000000000000000011110100
00000000000000000000010011000111
11111111111111111110010010101010
11111111111111111101001111001001
00000000000000000000001000001110
11111111111111111101100000100001
11111111111111111110101100110111
11111111111111111011011110100010
00000000000000000100001010000111
00000000000000000011110100100010
00000000000000000011000010011000
11111111111111111111100110100000
00000000000000000001011011100110
00000000000000000010100110011111
11111111111111111111000101110011
00000000000000000010001000010001
00000000000000000010010000110111
11111111111111111111101110101110
11111111111111111111011011111100
11111111111111111100010011110000
11111111111111111011010100010010
11111111111111110111111110010110
11111111111111111010110011111011
11111111111111111010111000101100
11111111111111111110001011011010
00000000000000000000011110100101
00000000000000000000000101010011
00000000000000000000000010010000
00000000000000000000010001111011
11111111111111111111111011111110
11111111111111111100110001111101
11111111111111111110010110011010
00000000000000000101001010000111
00000000000000000000001100010111
11111111111111111110110000111011
00000000000000000000011100110011
11111111111111111101111111011011
00000000000000000000101100111001
00000000000000000101001110111101
00000000000000000001101011001011
11111111111111111110110001100110
00000000000000000001100101001101
11111111111111111110100010000000
11111111111111111111111111101010
11111111111111111011100010100111
00000000000000000010000011110100
11111111111111111011100100010011
11111111111111111100100001011111
11111111111111111110000011001110
11111111111111111001000000001001
11111111111111111010000111011010
11111111111111111110110001001001
11111111111111111110111001101010
11111111111111111111110000000101
11111111111111111111111011110101
11111111111111111111111101100110
00000000000000000000011000100101
11111111111111111111000101010000
11111111111111111011010001000011
11111111111111111100010100101110
00000000000000000010110101100110
00000000000000000001001001111000
00000000000000000000111001000011
00000000000000000000011000111100
11111111111111111111001101100001
00000000000000000010000101011100
00000000000000000111001011011101
11111111111111111110100101111000
11111111111111111101110110101000
00000000000000001000101010000111
00000000000000000111110010100000
00000000000000000110111101010101
00000000000000000101000110010100
00000000000000000000100001011011
00000000000000000000100001101000
11111111111111111111011000100101
11111111111111111100111010010000
11111111111111111010000011101011
11111111111111111010100011011000
11111111111111111101111111101000
11111111111111111110010000110101
11111111111111111111110110101001
11111111111111111111110111100101
00000000000000000000000011001110
00000000000000000000010111101001
11111111111111111111001110110100
11111111111111111110111101110001
11111111111111111100110011001111
00000000000000000001010101100110
11111111111111111111110111010100
00000000000000000010000111110100
00000000000000000000111010111010
00000000000000000001010111111101
00000000000000000100100110101100
00000000000000000001100100010110
11111111111111111101111010010111
11111111111111111011011110111100
00000000000000000111101101100111
00000000000000001011001101100011
00000000000000000011101001100111
00000000000000000110001110011101
00000000000000000010100101110001
00000000000000000001110011011000
11111111111111111101111010111001
11111111111111111111100011001010
11111111111111111101111001011100
11111111111111111100010111000101
11111111111111111110101011100010
00000000000000000000010011010110
00000000000000000000010001101100
11111111111111111111111101111110
00000000000000000000000111100001
00000000000000000000001010011011
00000000000000000000010010111100
00000000000000000010100010101101
00000000000000000010011100001110
00000000000000000011100101011110
00000000000000000011011010100111
00000000000000000001101101000110
00000000000000000001101111100101
00000000000000001011000011001111
00000000000000000100000010011100
00000000000000000000111001101010
11111111111111111100011011110100
11111111111111111111010001111001
00000000000000000001110000110101
00000000000000000101101111111010
00000000000000000111011111110011
00000000000000000010111110011011
00000000000000000011010010110110
11111111111111111111101101001000
11111111111111111111110001111101
11111111111111111110111011011101
00000000000000000001110001111011
11111111111111111111100111000011
11111111111111111110111011001010
11111111111111111111101110000011
00000000000000000000000011101011
00000000000000000000000101010010
11111111111111111111111100010110
11111111111111111111110010111000
00000000000000000001000000100110
00000000000000000011010101011111
00000000000000000011010100100000
00000000000000000011010011001011
00000000000000000100001011011101
00000000000000000101110100001011
00000000000000000011101100001000
00000000000000000101010100000110
00000000000000000010101101001111
00000000000000000000100111111110
11111111111111111100010100100001
11111111111111111111010000101000
00000000000000000001011111110000
00000000000000000110000000001011
00000000000000000110101110110100
00000000000000001010111001101010
00000000000000000101111100000000
00000000000000000011011000111000
11111111111111111111111100110101
00000000000000000010110001111000
00000000000000000010000010111100
11111111111111111110110001101100
00000000000000000000000111111101
11111111111111111111111100001110
11111111111111111111111000001001
00000000000000000000001111111111
00000000000000000000001011010010
11111111111111111111111011101110
00000000000000000010001110110001
00000000000000000011111110100111
00000000000000000001011001001111
00000000000000000100101000110101
00000000000000000001110110101101
00000000000000000000101101100010
11111111111111111111010010011111
00000000000000000011100001110001
11111111111111111110110111001101
11111111111111111101010001100100
11111111111111111010011010100101
11111111111111111101010111001001
00000000000000001000011010001110
00000000000000000001010011010010
00000000000000001000001101100100
00000000000000001000011110111000
00000000000000000101011110101110
00000000000000000001100011010010
00000000000000000010100011110000
00000000000000000001011110011100
11111111111111111111001101111111
11111111111111111110001000011010
00000000000000000001001101110010
00000000000000000000001000000011
11111111111111111111111010100011
11111111111111111111111101100100
11111111111111111111111100101110
11111111111111111111101011111101
00000000000000000001001011010011
00000000000000000010011100011110
00000000000000000010110110001001
00000000000000000111010001000111
00000000000000000111101001100000
00000000000000000011110110001100
11111111111111111011111101011110
00000000000000000001001010101101
11111111111111111110110101101111
11111111111111111110001011011110
11111111111111111010101110000000
00000000000000000010010100011110
00000000000000000011100011010100
00000000000000000000010000000100
00000000000000000011101010001101
00000000000000000110000111000000
00000000000000000011011000000100
00000000000000000011001000101100
11111111111111111110101000011000
11111111111111111111011101111101
11111111111111111110010110011010
11111111111111111101011001110111
11111111111111111111110000011001
11111111111111111111110010101110
11111111111111111111111000010101
00000000000000000000000100111000
11111111111111111111111100011010
00000000000000000000000100111111
00000000000000000000100011110011
00000000000000000001101000001111
00000000000000000100000011111100
00000000000000000111101000001011
00000000000000000100000001111001
00000000000000000000010111110100
00000000000000000000000010010100
11111111111111111101010101110000
11111111111111111111111000010111
11111111111111111110000101111011
11111111111111111010011101011111
11111111111111111111110000100110
00000000000000000111000101100110
00000000000000000010000000100011
00000000000000001000101010001000
00000000000000000111000110101000
11111111111111111101110000100101
11111111111111111101011010101101
00000000000000000000000011100100
11111111111111111110111000000100
11111111111111111110110001011100
11111111111111111101100100100011
00000000000000000000011000001010
00000000000000000000010100010111
11111111111111111111101100001110
00000000000000000000010100100011
00000000000000000000000101110001
11111111111111111111100101111001
00000000000000000000000000010000
00000000000000000001111110001010
00000000000000000011001100100111
00000000000000000100111100010101
00000000000000000010001111111001
00000000000000000101001001000111
00000000000000000000101011011100
00000000000000000001110011001000
11111111111111111111011011100011
11111111111111111011110010010111
00000000000000000001000001000100
00000000000000000100011011000111
00000000000000000110011011100110
00000000000000000101011100011011
00000000000000000110110101010010
11111111111111111110110010100111
11111111111111111011111100010100
11111111111111111110101110001000
00000000000000000000101101000001
11111111111111111101110110111010
11111111111111111100101010010011
11111111111111111101111001000011
11111111111111111111010111011000
00000000000000000000011011100000
11111111111111111111110010010100
11111111111111111111111111100010
11111111111111111111111011011111
11111111111111111111110011010110
00000000000000000000011100110010
00000000000000000001011101101010
00000000000000000000011000001010
11111111111111111011011101001001
11111111111111111111000100110101
00000000000000000010010110101000
11111111111111111111010001010101
00000000000000000011010100000001
00000000000000000011111001100101
00000000000000000100001110010001
11111111111111111110000100111100
00000000000000000101010000010110
00000000000000000001001011001101
00000000000000000011110000100110
11111111111111111000011010001111
11111111111111110111101101010000
11111111111111111101110001101001
11111111111111111101011011001011
11111111111111111111100000111101
11111111111111111010101101010000
11111111111111111010100011011111
11111111111111111101010010011010
11111111111111111110100000101101
11111111111111111111110110000101
00000000000000000000000101000001
11111111111111111111111110111011
11111111111111111111111101010110
11111111111111111111111010000001
11111111111111111111010100010111
11111111111111111110101111110011
11111111111111111100101011111011
11111111111111111000101000100100
11111111111111110111011100011010
11111111111111111001001101110011
11111111111111111100101001000001
11111111111111111100110000110101
11111111111111111101100100011010
11111111111111111101001001000111
11111111111111111100101000100011
11111111111111111011111111011001
11111111111111110110001000111111
11111111111111111011001111111101
11111111111111110110000000000111
11111111111111110111111011000001
11111111111111111100001011011111
11111111111111110101001001111001
11111111111111110101011100111011
11111111111111110111100100111100
11111111111111111011001011010100
00000000000000000000000100101101
11111111111111111111101100101101
11111111111111111111110111010011
00000000000000000000000101000000
11111111111111111111111100110011
11111111111111111111110111001011
11111111111111111111110101100110
11111111111111111110011001100001
11111111111111111101000010010100
11111111111111111011111001000001
11111111111111111000101001001011
11111111111111110101000011001101
11111111111111110111111101000001
11111111111111111011011001010011
11111111111111111010010100110110
11111111111111111010101010000001
11111111111111111011101111010101
11111111111111110110100111001111
11111111111111110001111000011110
11111111111111110011101000010101
11111111111111111101010101001110
11111111111111110011110010001100
11111111111111111010101011011000
11111111111111111010011110011000
11111111111111110111110011110111
11111111111111111000011011000111
11111111111111111010011110011010
11111111111111111100000001001011
11111111111111111111100100110101
11111111111111111111111110001101
00000000000000000000000111100011
11111111111111111111111111011111
11111111111111111111110110000101
11111111111111111111111011100010
11111111111111111111110001111000
11111111111111111110100000001010
11111111111111111100000100110101
11111111111111111000101000110011
11111111111111111010111111111010
11111111111111111011011111010101
11111111111111111010101110111100
11111111111111110111100011001110
11111111111111111110001110001110
11111111111111111010100000011001
11111111111111111001111111001100
11111111111111110111110111001111
11111111111111111101001100111001
11111111111111111100010001010110
11111111111111111000101110010101
11111111111111110110100011000111
11111111111111111010110000010001
11111111111111111001111110101111
11111111111111111011111010101101
11111111111111111011100101101001
11111111111111111110100000111001
11111111111111111110100010101100
00000000000000000000100011101110
00000000000000000000000001010011
11111111111111111111111100101011
11111111111111111111111110111101
11111111111111111111110000101010
11111111111111111111101100100100
11111111111111111111101101010110
11111111111111111110111101101011
11111111111111111011110101001000
11111111111111111010101100011011
00000000000000000000010001011000
00000000000000000010001100011010
11111111111111111110111000001011
11111111111111111011000101101010
11111111111111111110100101001101
11111111111111111011111111100100
11111111111111111010001010001000
11111111111111111011100010100000
11111111111111111100101001101011
11111111111111111010100101101011
11111111111111110110101000011011
11111111111111111010000100011010
11111111111111111000010100100011
11111111111111111010100010011101
11111111111111111100011011111000
11111111111111111101101011111000
11111111111111111101100000001000
11111111111111111110010111000101
00000000000000000000001110001100
00000000000000000000001010111011
00000000000000000000001011111010
11111111111111111111111101101101
11111111111111111111111000110010
11111111111111111111111010111010
00000000000000000000000000011111
11111111111111111111011111100010
11111111111111111110111011111001
00000000000000000000011000010110
00000000000000000010001000101000
00000000000000000010111001100101
00000000000000000001001100100110
11111111111111111010100111000011
11111111111111111101101010110010
11111111111111111011100001011110
11111111111111110111011100011100
11111111111111110111000110111001
11111111111111111001110101001010
11111111111111111001010010001001
11111111111111111001110111100011
11111111111111111110101100000000
11111111111111111100001000001001
11111111111111111011111010010011
00000000000000000011001001101001
00000000000000000011000110110001
00000000000000000000100111101000
00000000000000000000101111100110
11111111111111111111100101100001
11111111111111111111110010011000
00000000000000000000000101011111
11111111111111111111111010111001
00000000000000000000000010111100
11111111111111111111111111001101
11111111111111111111110100011101
00000000000000000000001101111101
00000000000000000000110011101001
00000000000000000001011000000001
11111111111111111111111011111000
11111111111111111111111000010100
11111111111111111101101101101000
11111111111111111101101011000110
11111111111111111110000011011101
00000000000000000001110110010011
11111111111111111101100100100110
11111111111111111100001111101000
00000000000000000001111100111101
11111111111111111111110010000011
11111111111111111100000000110010
11111111111111111101111001001011
11111111111111111110100010011000
11111111111111111100001110010111
00000000000000000000100011001011
00000000000000000001110110101000
00000000000000000000100001000100
00000000000000000000010010001011
11111111111111111111101110100000
11111111111111111111111001010000
11111111111111111111111010010100
00000000000000000000000101001001
00000000000000000000001010010111
11111111111111111111110110001011
00000000000000000000000000001010
11111111111111111111111110110100
00000000000000000000010111011110
00000000000000000000011010111010
00000000000000000001100001111100
00000000000000000001111100010100
00000000000000000001110111000010
00000000000000000011000001110010
00000000000000000001101110110010
11111111111111111111101010000001
00000000000000000000001001101001
00000000000000000000100110000110
00000000000000000001001000011011
00000000000000000000100111110100
11111111111111111111111010101011
11111111111111111111000001001100
11111111111111111111110101001010
00000000000000000001011100001110
00000000000000000011000001110111
00000000000000000010001110011101
00000000000000000000111110000101
00000000000000000000001001011011
11111111111111111111111010010111
00000000000000000000000000011001
11111111111111111111111011000111
11111111111111111111111011100100
11111111111111111111111111001101
00000000000000000000000010001011
00000000000000000000000111111010
00000000000000000000000000000000
11111111111111111111111100110101
00000000000000000000000001000000
00000000000000000000000100101001
11111111111111111111111000110101
11111111111111111111110110111110
11111111111111111111110111000111
00000000000000000000011010110001
11111111111111111111111111000010
00000000000000000000000100000010
00000000000000000000010100000000
00000000000000000000100010000000
00000000000000000000001110110110
00000000000000000000011100110110
00000000000000000000011011101000
00000000000000000000101101011010
00000000000000000000011110111001
00000000000000000000100101010011
00000000000000000000101010101100
00000000000000000000100101000010
00000000000000000000000101101101
00000000000000000000000111110001
11111111111111111111110011111101
00000000000000000000000000011110
00000000000000000000001010111100
