11111111111111111111110101110101
00000000000000000000000000000111
11111111111111111111110111110011
00000000000000000000000111011001
11111111111111111111111000111110
11111111111111111111111111101101
00000000000000000000001010101000
11111111111111111111111101111111
00000000000000000000000011100000
11111111111111111111111100100001
11111111111111111111111011100101
00000000000000000000001001100011
00000000000000000000001101100100
00000000000000000000000011101010
00000000000000000000001001000001
11111111111111111111111010101100
11111111111111111111110111011001
00000000000000000000001000001000
11111111111111111111111111011100
11111111111111111111111101101111
00000000000000000000000000000111
11111111111111111111111111011011
00000000000000000000000111001010
00000000000000000000000100111101
00000000000000000000000001001000
00000000000000000000001000000111
11111111111111111111111111100101
00000000000000000000001000111011
11111111111111111111110000101111
00000000000000000000000101101000
11111111111111111111111100111101
00000000000000000000000101011110
11111111111111111111111101000010
00000000000000000000001110010111
11111111111111111111111111010100
00000000000000000000001011001111
00000000000000000000000100010010
11111111111111111111111101101111
00000000000000000000000110010001
00000000000000000000010110001001
00000000000000000000011101010101
11111111111111111111111111001000
11111111111111111111111000001101
11111111111111111111111110100110
11111111111111111111111011001010
00000000000000000000000000000000
00000000000000000000000001000001
00000000000000000000001001010000
00000000000000000000000000001110
00000000000000000000001001010001
00000000000000000000001001001011
00000000000000000000001111111000
00000000000000000000000110011011
11111111111111111111111111011011
11111111111111111111111001011000
00000000000000000000000001010010
00000000000000000000001000000100
11111111111111111111110111101101
00000000000000000000000001000001
00000000000000000000000100010011
00000000000000000000000011011010
11111111111111111111101110111101
11111111111111111111101100111010
00000000000000000000000010001101
11111111111111111111101011001011
11111111111111111111101111010100
11111111111111111111101001110101
11111111111111111111110000100001
11111111111111111111101010111101
11111111111111111110010010011111
11111111111111111110001100000011
11111111111111111110110101000110
11111111111111111111001101110101
11111111111111111111101010110111
11111111111111111111101101101000
00000000000000000000000001011010
00000000000000000000000001011101
11111111111111111111111011000111
11111111111111111111110101000001
11111111111111111111111111011101
00000000000000000000001001100011
00000000000000000000001011010101
11111111111111111111111111101010
11111111111111111111111101010111
00000000000000000000000001100011
11111111111111111111111001010000
11111111111111111111111011000111
00000000000000000000001001110100
11111111111111111111111000101001
11111111111111111111011100000010
11111111111111111111011100111010
11111111111111111110010110101001
11111111111111111110001010100101
11111111111111111111000100000111
11111111111111111110110011000100
11111111111111111110101110000101
11111111111111111110100001100000
11111111111111111110111000100011
11111111111111111110001110010100
11111111111111111101010001101110
11111111111111111110100101101011
11111111111111111101110100111001
11111111111111111101000110000000
11111111111111111101101100110100
11111111111111111110110110000000
11111111111111111110011111010010
11111111111111111110101001100000
11111111111111111111111101010011
00000000000000000000001000111110
00000000000000000000000111001111
00000000000000000000000101111000
11111111111111111111111110010011
00000000000000000000000101001000
11111111111111111111111111110100
00000000000000000000000101111100
00000000000000000000000101010101
00000000000000000000000001011110
11111111111111111110110101011011
11111111111111111110010010011110
11111111111111111101010100000110
11111111111111111011101011110101
11111111111111111100000000101100
11111111111111111010110010000001
11111111111111111101000110001101
11111111111111111011100010011111
11111111111111111111000101100011
00000000000000000001000111111110
00000000000000000010000100111000
00000000000000000001111001111010
00000000000000000101010101010010
00000000000000000011010010000101
00000000000000000000101101101110
11111111111111111101100000000001
11111111111111111100101000110011
11111111111111111101111100110010
11111111111111111110100111001010
11111111111111111111000000000101
11111111111111111111011101101001
00000000000000000000001000111110
11111111111111111111111111010011
00000000000000000000000001100010
11111111111111111111111100100010
11111111111111111111111101000000
11111111111111111111111101111111
00000000000000000001100111100011
00000000000000000001000100001110
11111111111111111111011010000111
11111111111111111110100010110001
00000000000000000000110000010110
11111111111111111101100111111010
11111111111111111011000111001101
11111111111111111101011110111001
11111111111111111011100001111101
11111111111111111110010000100111
11111111111111111101101101111000
11111111111111111001110110010000
11111111111111111101111011101110
00000000000000000001101000110111
00000000000000000010001011100001
11111111111111111111000001011011
11111111111111111100101000011111
11111111111111111110011110111110
11111111111111111110011111101100
11111111111111111110110010101110
11111111111111111110100101000011
11111111111111111111101000101110
11111111111111111111110000001101
11111111111111111111101001100001
00000000000000000000000001001111
00000000000000000000001100011011
00000000000000000000001001001111
00000000000000000000001110010111
00000000000000000010011000010011
00000000000000000011110101010010
00000000000000000001111011100011
00000000000000000010101000011011
00000000000000000000011001111101
11111111111111111010100000001000
11111111111111110111110010110000
11111111111111111110001110000110
00000000000000000000110010011101
00000000000000000001010100110001
00000000000000000011100000101111
11111111111111111101100011101011
11111111111111111101111100010000
00000000000000000000100010011001
00000000000000000000010110101010
11111111111111111110001000011101
11111111111111111011100110001001
00000000000000000001010011100010
00000000000000000001011101001110
11111111111111111110111001110110
11111111111111111110000010110000
11111111111111111101110010111001
11111111111111111110111010101110
11111111111111111111001111011001
11111111111111111111111100010011
00000000000000000000100011001011
00000000000000000000101101111001
00000000000000000010001001101000
00000000000000000000100100011100
11111111111111111111011001110011
00000000000000000100000011010110
00000000000000000101001000110001
11111111111111111110100000001100
00000000000000000011101000000000
11111111111111111110010111010110
11111111111111111110111100000101
11111111111111111111110111111111
11111111111111111100100100101010
11111111111111111011001100001011
11111111111111111000101111110111
11111111111111111110011111010001
11111111111111111100000100000101
00000000000000000101101111011011
11111111111111111111100110000111
11111111111111111101000100011100
11111111111111111100101100100001
11111111111111111111011100111111
11111111111111111110010101101000
11111111111111111111010110100101
11111111111111111111101110000100
11111111111111111110010011101011
11111111111111111111100101110100
11111111111111111111111001110101
00000000000000000001001011111111
00000000000000000010000001010010
00000000000000000010001011101101
11111111111111111111011110010110
11111111111111111101001110110010
00000000000000000000100111101011
11111111111111111111111011001110
00000000000000000110000111111011
00000000000000000000011111110101
00000000000000000011000110000010
11111111111111111100110111101000
00000000000000000001001110101100
11111111111111111011011111110111
00000000000000000000010110111011
00000000000000000000101010110101
11111111111111111111010111100101
11111111111111111101110000100010
00000000000000000010010010100000
11111111111111111011101110101101
00000000000000000000011011101110
11111111111111111111011000011010
11111111111111111110000001000110
00000000000000000001010000110001
11111111111111111110000010001100
11111111111111111111101111011001
11111111111111111110111101101011
00000000000000000000000010110000
00000000000000000000000001100111
00000000000000000001001001001000
00000000000000000010000000100100
00000000000000000011100101001001
00000000000000000011010000000110
00000000000000000001110111111110
00000000000000000111000100001111
00000000000000000100011000010111
00000000000000000001100001101100
00000000000000000011110000100111
00000000000000000001111000111011
00000000000000000011000100101100
00000000000000000100110111110011
00000000000000000010001000000110
11111111111111111111001000001100
11111111111111111111110000110100
00000000000000000001011010010010
00000000000000000000000010010101
00000000000000000100001100111101
00000000000000000001111100000011
11111111111111111110100001111101
00000000000000000010110100110011
00000000000000000001110100001011
00000000000000000101101111011111
00000000000000000000101011001111
11111111111111111111010001110110
11111111111111111110000101010100
00000000000000000000000101110000
11111111111111111111110000010100
00000000000000000001000000111011
00000000000000000010100001101000
00000000000000000101000001000001
00000000000000000100011001110101
00000000000000000100110111010010
00000000000000000010101100111001
11111111111111111110010101101111
00000000000000000010000011000010
00000000000000000011110101111000
00000000000000000110010101101000
00000000000000001011011001011011
00000000000000000010010111100110
00000000000000000010000000000101
00000000000000000000000011110100
00000000000000000001100000001110
00000000000000000011100000001000
00000000000000000100000110001000
00000000000000000001001111001000
00000000000000000010101010001001
00000000000000000110000101000001
00000000000000000010100110100000
00000000000000000101101101011110
00000000000000000101111001001000
00000000000000000010000011110101
11111111111111111111011010010110
11111111111111111111011110010100
11111111111111111111110101001001
11111111111111111111110010000011
00000000000000000000011110111000
00000000000000000101000101110011
00000000000000000111010011010010
00000000000000000100101101010001
11111111111111111111010010001010
00000000000000000100000011011001
00000000000000000011110110010110
11111111111111111011110000010110
00000000000000000010100001001101
11111111111111111100111011110110
00000000000000000001110011110111
00000000000000000010010001010000
11111111111111111011011110000000
11111111111111111110011001110001
11111111111111111011011100000001
11111111111111111100000001100100
00000000000000000100100000001111
00000000000000000100000000010010
00000000000000000110000101001101
00000000000000000111110111100111
00000000000000000010111111011011
11111111111111111111110110110010
00000000000000000011111111100111
00000000000000000011001010100001
00000000000000000000001010110110
00000000000000000000001100001010
11111111111111111111111100110111
11111111111111111111110001111100
00000000000000000000010011100111
00000000000000000010101110011111
00000000000000000100111111110010
11111111111111111111111100111100
11111111111111111100100001111110
00000000000000000010101001000000
00000000000000000011101011110100
00000000000000000101100111000010
00000000000000000001110101111011
00000000000000000100101101001001
00000000000000000101010001001111
00000000000000000101011001001110
11111111111111111100110111001101
11111111111111110001111101110100
11111111111111110100100000100101
00000000000000000000000010110001
00000000000000000010011000100100
00000000000000000000110111001000
11111111111111111110100111011100
11111111111111111110010110000011
11111111111111111100100010011110
00000000000000000011100000001111
00000000000000000010000010111110
00000000000000000011110101100101
00000000000000000000011111100000
00000000000000000000000000101100
11111111111111111111111100000010
11111111111111111111111001100001
00000000000000000000010011000110
00000000000000000010000010100000
00000000000000000010101100100000
11111111111111111011110100100000
11111111111111111011110000000111
00000000000000000010101000011110
00000000000000000011001010100110
00000000000000000101011010100011
00000000000000000011011100000000
00000000000000000111101101000011
00000000000000001001111101110001
11111111111111111110100111011011
11111111111111110101001111001010
11111111111111110011011110110000
11111111111111110011010000000110
11111111111111111100001000000111
11111111111111111101011101000011
11111111111111111011000001100111
11111111111111110110100000100001
00000000000000000000010101101000
00000000000000000000010101011101
00000000000000000000111001111101
00000000000000000000101011011110
00000000000000000011100010100001
00000000000000000001001010000010
11111111111111111111110011101000
00000000000000000000001011100011
00000000000000000000000111100000
00000000000000000000010010011101
00000000000000000001100101111110
00000000000000000011100100000001
11111111111111111011001110111110
00000000000000000000111100110001
00000000000000000010000010000000
00000000000000000001010110011100
00000000000000000000000010000000
00000000000000000000011111101001
00000000000000000111001110101011
00000000000000000010101000011100
11111111111111110110100000111100
11111111111111101111010011111010
11111111111111111000101111010001
11111111111111111101010110110100
11111111111111111001101001010110
11111111111111111110101010110101
11111111111111111010011100110000
11111111111111111001111000110111
11111111111111111100101111010100
11111111111111111111001111101100
00000000000000000011000101111010
00000000000000000110101110011010
00000000000000000011110101000110
11111111111111111111101101001100
00000000000000000000000010011100
11111111111111111111110010011011
11111111111111111111110111001100
11111111111111111111111011000110
00000000000000000000101010111110
00000000000000000010100011110100
00000000000000000000100011100011
00000000000000000001000010011011
00000000000000000101001100001010
00000000000000000101110010000001
11111111111111111110011000100011
11111111111111111111100000000100
00000000000000000101111100010111
11111111111111111100110001101110
11111111111111101110110111110000
11111111111111110010111110011110
11111111111111111010000011101010
11111111111111111101000011011110
11111111111111111000100101000001
11111111111111111110111101001110
11111111111111111101011111001101
11111111111111111111010010001100
11111111111111111011100100101110
00000000000000000000011110110010
00000000000000000000101101110111
00000000000000000011100101110110
00000000000000000000000000111000
11111111111111111111000101011111
11111111111111111111100011011010
11111111111111111111110110100000
00000000000000000000000110001000
11111111111111111111101011011111
00000000000000000000000001101110
00000000000000000001000001010001
00000000000000000011110000010100
00000000000000000000010001010111
11111111111111111110010100010011
00000000000000000000010000111100
00000000000000000010011011111100
00000000000000000000011010011001
11111111111111111111011011000111
11111111111111110100001001110110
11111111111111101111010100101000
11111111111111111010100000011111
00000000000000000000001001011001
11111111111111111011100111100010
11111111111111111010110000110110
11111111111111111110000101011110
11111111111111111011101010001000
00000000000000000010100111000011
11111111111111111100000101001001
11111111111111111111010110100001
11111111111111111101110010111110
00000000000000000000011001000100
11111111111111111101010001000010
11111111111111111110000101101110
11111111111111111111100000011101
00000000000000000000000100111100
11111111111111111111111111000000
00000000000000000000010011011011
00000000000000000000000110101001
11111111111111111111001011010000
00000000000000000010111111001001
00000000000000000011010100110110
11111111111111111101110110000000
11111111111111111010101001010011
00000000000000000000011101000110
11111111111111111100010001011000
11111111111111111011101010010100
11111111111111110011100000010111
11111111111111110101000000101100
11111111111111111111111010010110
00000000000000000100110001000101
11111111111111111101011101001001
11111111111111111110100001100011
00000000000000000000001010011000
00000000000000000100000001011011
11111111111111111100101110101100
00000000000000000000010101110011
00000000000000000001100101111101
00000000000000000001000011011000
00000000000000000001010011101111
00000000000000000000100111101111
00000000000000000000110010001101
11111111111111111111101110011100
00000000000000000000000010101100
11111111111111111111111001000110
00000000000000000000000101010100
11111111111111111111110001100110
11111111111111111100010110011000
11111111111111111111001110001101
00000000000000000001111100110110
11111111111111111111110100110000
11111111111111111111000100011110
11111111111111111111011011000011
11111111111111111100110010011001
11111111111111111010010110000110
11111111111111110111111101001101
11111111111111110100011111110000
11111111111111111011000111101000
00000000000000000011111010100001
11111111111111111100100111010111
11111111111111111110100000111001
00000000000000000011001011100110
00000000000000000010111111101110
11111111111111111011001000000110
00000000000000000000100010011101
00000000000000000110001000101000
00000000000000000001001011111001
11111111111111111110110000000011
11111111111111111111100010111011
00000000000000000000111011011000
11111111111111111111111000000001
00000000000000000000000010001011
00000000000000000000010101000000
11111111111111111111111111010001
00000000000000000000110101111100
11111111111111111101111100000110
00000000000000000001101010011001
00000000000000000001001111101101
00000000000000000011111011001010
00000000000000000011001011111001
11111111111111111110100011111001
11111111111111111101000010000010
11111111111111111101001000101111
11111111111111111010010010000011
11111111111111111000000111110110
11111111111111111011000110101010
11111111111111111110101110001101
11111111111111111011010110011110
11111111111111111010000110110000
00000000000000000110110101110101
11111111111111111110011010110110
11111111111111111100111011111101
00000000000000000010000100010101
11111111111111111101111101111101
11111111111111111011011001100101
11111111111111111010110101111111
11111111111111111110101011111101
00000000000000000000000101111001
11111111111111111111101111011110
11111111111111111111111011101000
11111111111111111111110011011011
11111111111111111111111101111111
00000000000000000000001110100011
11111111111111111111111011010101
00000000000000000000110110010101
11111111111111111111011001111111
00000000000000000000011011000111
00000000000000000011011011010110
11111111111111111110001001011010
11111111111111111110110000010100
00000000000000000001000101111110
00000000000000000011000000000110
00000000000000000010010111011001
11111111111111111110101110000101
11111111111111111011110010001100
11111111111111111100100111001110
11111111111111111010001001100100
11111111111111111101011101000111
11111111111111111011000011001111
11111111111111111101010011011110
11111111111111111100010010111000
11111111111111111100001101110011
11111111111111111100111100110011
11111111111111111011111111010101
11111111111111111101111101101111
11111111111111111110101100001000
11111111111111111111111111101011
00000000000000000000000110110011
11111111111111111111111000101110
00000000000000000000000101001111
00000000000000000000010010010100
11111111111111111111111111100111
11111111111111111111001001111110
00000000000000000000010111000101
11111111111111111111000111010010
11111111111111111111011011001101
00000000000000000010111110001100
00000000000000000001001000011100
00000000000000001001110000011010
00000000000000000110111011111101
00000000000000000011101111001010
11111111111111111111110110000110
11111111111111111110110111010110
00000000000000000001110010110000
11111111111111111110100111110011
11111111111111111110010010110111
00000000000000000000000010100001
11111111111111111011011000010000
11111111111111111110100110101001
11111111111111111110110001100001
11111111111111111111001000110001
11111111111111111111111100010101
00000000000000000000001101111100
11111111111111111111111110011000
00000000000000000000001100111101
00000000000000000000010010000010
11111111111111111111111000111000
00000000000000000000001100111110
00000000000000000000000110011010
11111111111111111111100010000001
11111111111111111101111100101001
11111111111111111111011110011011
11111111111111111111000111111110
00000000000000000000100010111101
00000000000000000101011110010111
00000000000000000101011101011101
00000000000000000000101100011111
11111111111111111110110000111100
11111111111111111111011000011101
00000000000000000100100000111011
11111111111111111110101001101001
00000000000000000100010101101111
11111111111111111110011101000110
00000000000000000001111010000100
00000000000000000100011101000100
11111111111111111110001011011001
11111111111111111110001011000111
11111111111111111110111001101010
11111111111111111110100000001110
00000000000000000000000000000000
11111111111111111111111011110100
11111111111111111111101100000111
11111111111111111111111010011010
00000000000000000000000001001100
00000000000000000000010001001111
11111111111111111111111111011001
11111111111111111111110000100111
11111111111111111111011001111001
11111111111111111111001101110011
11111111111111111111110010110100
00000000000000000011000010111101
00000000000000000010010101111000
00000000000000000000001101101011
00000000000000000011001011110010
00000000000000000010111101011010
11111111111111111110111100001101
00000000000000000001111001101010
11111111111111111101111010010110
00000000000000000000010111101011
11111111111111111111101010011110
00000000000000000000111110010101
00000000000000000001110000110001
00000000000000000010001100001000
00000000000000000000000000001010
11111111111111111101001001110001
11111111111111111111010010001011
11111111111111111110011110111111
11111111111111111111110001001000
00000000000000000000000010001010
00000000000000000000000001011011
11111111111111111111111110100111
11111111111111111111101111100001
11111111111111111111110011000101
11111111111111111111110110110110
11111111111111111111111101101011
11111111111111111111110111001011
11111111111111111111111010111010
00000000000000000010000001011101
00000000000000000001100000110110
11111111111111111110010111000011
11111111111111111111011001110101
11111111111111111111101110100001
00000000000000000011011100011111
11111111111111111110110110110001
00000000000000000000001000001001
00000000000000000000000000011101
11111111111111111111101001111010
11111111111111111111101001000111
11111111111111111111110111001111
00000000000000000010011101011100
00000000000000000001011011111101
00000000000000000010110111001100
11111111111111111111010111100010
00000000000000000001010101101100
11111111111111111111111100110110
11111111111111111111100101011110
00000000000000000000101110110100
11111111111111111111110101111101
11111111111111111111110000001001
11111111111111111111101011000010
11111111111111111111110001101000
00000000000000000000000001011100
11111111111111111111111101111110
11111111111111111111111001111111
00000000000000000000110010111111
11111111111111111101010000101110
11111111111111111010100000111101
11111111111111111011111111100101
00000000000000000011011111010101
00000000000000000010000000100110
11111111111111111101110000010000
00000000000000000011001010110011
00000000000000000110000000010001
00000000000000000011101000001000
00000000000000000011111111101011
00000000000000000100111011011111
00000000000000000101101001000101
11111111111111111111100001011001
00000000000000000010101011000111
00000000000000000100010000100000
00000000000000000000110010101100
00000000000000000001011001000010
00000000000000000001110101101011
00000000000000000000001111111000
00000000000000000000100110100011
11111111111111111111111000111110
11111111111111111111110101010111
11111111111111111111111010010101
11111111111111111111110111001111
00000000000000000000000000101010
00000000000000000000001100001010
00000000000000000000000010001000
11111111111111111111101001110101
11111111111111111100000111011100
11111111111111111101010000111101
11111111111111111110110010011011
11111111111111111111010101010101
11111111111111111111111110111010
11111111111111111110101011001001
11111111111111111101101001111111
00000000000000000001110001101010
00000000000000000000110100100110
00000000000000000010000001000000
00000000000000001000010110110001
00000000000000000100110101110101
00000000000000000000001111011000
00000000000000000100101101001101
00000000000000000101000011100111
00000000000000000000110010001110
11111111111111111111100000010011
00000000000000000000001011110111
11111111111111111111111100010101
11111111111111111111111000100001
11111111111111111111111100101000
00000000000000000000000100111100
11111111111111111111111010100110
00000000000000000000011000111001
11111111111111111111111110111010
00000000000000000000000111010001
11111111111111111111111011110100
00000000000000000000000001010101
00000000000000000000001110110111
00000000000000000000001000010110
11111111111111111111111101011010
11111111111111111111111110100011
00000000000000000000010100001011
00000000000000000000101110100110
00000000000000000000000110000101
00000000000000000000001000110010
00000000000000000000001011100111
11111111111111111111101111111001
11111111111111111111001110010000
00000000000000000001010100101011
00000000000000000000011000111110
11111111111111111111000000010001
00000000000000000000101101100101
00000000000000000000010000011011
00000000000000000000000110000111
00000000000000000000000011110110
00000000000000000000000100011110
00000000000000000000001110010101
11111111111111111111101001100000
00000000000000000000001100111000
00000000000000000000000100111111
