00000000000000000000000001100111
00000000000000000000000001001110
11111111111111111111111010010011
11111111111111111111111111110111
00000000000000000000000011000111
11111111111111111111111111100100
11111111111111111111111111010101
00000000000000000000000010011001
11111111111111111111110100101100
00000000000000000000001100010011
00000000000000000000001001100100
11111111111111111111111100010000
00000000000000000000000011000111
11111111111111111111111100010100
11111111111111111111111110101011
00000000000000000000000011111101
00000000000000000000001110100111
11111111111111111111111100100100
11111111111111111111111100110110
00000000000000000000001010011011
00000000000000000000001011010010
00000000000000000000000001100100
00000000000000000000001000010110
11111111111111111111111101001011
11111111111111111111110101001100
11111111111111111111110111111110
00000000000000000000001111101111
11111111111111111111111101100100
11111111111111111111111110000101
11111111111111111111111110011101
00000000000000000000000001101101
00000000000000000000001101110101
11111111111111111111111001101010
00000000000000000000010110010111
00000000000000000000001100011000
00000000000000000000000100000011
00000000000000000000000010001011
00000000000000000000001001000010
00000000000000000000000010001000
00000000000000000000001001000001
00000000000000000000000100110100
00000000000000000000001000110100
00000000000000000000001010100100
11111111111111111111110000001111
11111111111111111110101111000001
11111111111111111111011010110011
00000000000000000000001000101010
00000000000000000000000110011101
00000000000000000000000100001111
00000000000000000000000011111000
11111111111111111111111111110011
11111111111111111111111000100101
00000000000000000000001001001000
00000000000000000000001000100110
00000000000000000000000001010111
11111111111111111111111111001101
00000000000000000000001110000001
11111111111111111111110111110101
11111111111111111111111111111001
11111111111111111111111111010100
11111111111111111111111011011001
00000000000000000000001101001111
00000000000000000000010011101000
00000000000000000000100110101101
00000000000000000000111010101101
00000000000000000000010111011000
00000000000000000000000101010011
00000000000000000000000001101111
00000000000000000000000001000001
00000000000000000000000001111011
00000000000000000000000111111101
00000000000000000000011010001010
00000000000000000000101101111001
00000000000000000001001011101010
00000000000000000001000100000111
00000000000000000000011110011101
00000000000000000000001011000111
00000000000000000000010001110001
11111111111111111111110111101111
00000000000000000000001001110100
11111111111111111111111100110010
11111111111111111111111100110001
00000000000000000000000010110110
11111111111111111111111011101111
00000000000000000000000110111011
11111111111111111111111001010101
00000000000000000000000001101110
00000000000000000000000011001111
00000000000000000000000110011110
00000000000000000000010111111011
00000000000000000000101010011011
00000000000000000000110100101111
00000000000000000000111000101101
00000000000000000001011011010110
00000000000000000000011000101111
00000000000000000001001001101011
00000000000000000011011101101111
00000000000000000001000110001000
11111111111111111111101101011111
00000000000000000001111100011001
00000000000000000010010111100001
00000000000000000001000011110010
00000000000000000001010101001101
11111111111111111111111011001100
11111111111111111101010101101000
11111111111111111110000011111000
11111111111111111110111100101011
11111111111111111111101001111001
00000000000000000000000001010111
00000000000000000000001100101110
11111111111111111111110111111010
00000000000000000000001000000100
00000000000000000000000001111101
00000000000000000000001010111100
00000000000000000000000101001000
00000000000000000000010011010000
00000000000000000000000100110000
00000000000000000000010100011001
00000000000000000000000100001111
00000000000000000000000000001100
00000000000000000001100100011001
00000000000000000010110010001100
00000000000000000100100101010011
00000000000000000101110001110001
00000000000000000110010100101100
00000000000000000001100011010111
00000000000000000010110111101000
00000000000000000001101001011110
00000000000000000001111010000110
11111111111111111101001111010000
00000000000000000001001110110011
00000000000000000010000000111111
11111111111111111101100100101010
11111111111111111111100100110001
11111111111111111110000101010111
00000000000000000001000010001111
00000000000000000001110101000000
00000000000000000001100011101011
00000000000000000000110001100011
11111111111111111111111001111100
00000000000000000000000001111000
00000000000000000000001010111011
00000000000000000000001010101111
00000000000000000000001001001100
11111111111111111111101111001110
11111111111111111110110010011011
11111111111111111110100010100101
00000000000000000010001001010100
00000000000000000001110111100110
11111111111111111110101101000100
00000000000000000101100110001001
00000000000000000001110110111011
00000000000000000010011110111100
11111111111111111101010010101101
11111111111111111111000110000010
11111111111111111011111010000101
11111111111111111101010111110000
11111111111111111111101111100110
11111111111111111111011101101100
00000000000000000000101011010110
00000000000000000010111101010100
00000000000000000000100011101101
00000000000000000001100010110111
00000000000000000011011001111110
00000000000000000001101110000000
00000000000000000001110100010111
00000000000000000000011000010010
00000000000000000000000001010111
11111111111111111111111101111000
00000000000000000000000011011000
11111111111111111111110101001011
11111111111111111111101111101010
11111111111111111111000101100010
11111111111111111111000000111011
11111111111111111111010010000111
00000000000000000101011110111011
00000000000000000010000101011011
00000000000000000000101100010111
11111111111111111110111000101000
11111111111111111011101111111100
00000000000000000001000010111010
00000000000000000001100111110111
00000000000000000001101000110010
11111111111111111110010110010111
11111111111111111001110101010001
11111111111111111010000011011110
11111111111111111011010011111111
11111111111111111110010111000010
00000000000000000001110011000000
11111111111111111110101110010100
00000000000000000010011001000000
00000000000000000101100010111011
00000000000000000101011111110000
00000000000000000011001100011101
00000000000000000000110001000001
11111111111111111111111000110011
11111111111111111111111100111101
00000000000000000000000010010000
11111111111111111111100011100011
11111111111111111110111110111101
11111111111111111110010010001011
11111111111111111111101110001001
11111111111111111100100111111110
00000000000000000000110001000010
00000000000000000100000001010110
00000000000000000010000100010000
00000000000000000000010101011001
00000000000000000110111001001000
00000000000000000011001100110000
00000000000000000001100010000011
11111111111111111111101010000011
11111111111111111110010110010100
11111111111111111100110101100111
11111111111111111001001100101110
11111111111111111110001001010101
11111111111111111101111001110100
11111111111111111101101000100100
11111111111111111101011111100101
00000000000000000001000011000110
00000000000000000001001101100011
00000000000000000100000111001010
00000000000000000011011101100011
00000000000000000001001100101010
00000000000000000000001001101100
00000000000000000000000101100010
11111111111111111111111110100010
11111111111111111111000101001101
11111111111111111111011010101111
11111111111111111110000011011011
00000000000000000001010001010111
11111111111111111101011111110011
11111111111111111110101010111010
11111111111111111100100010101110
11111111111111111110001100001110
00000000000000000010010001001110
00000000000000000010100110101101
00000000000000000011000101010011
00000000000000000010100111101000
11111111111111111110011101000101
11111111111111111101010010101000
11111111111111111000010100011000
11111111111111111101000011100111
00000000000000000000010110001000
00000000000000000100101100110101
11111111111111111111110100010110
00000000000000000000100000110100
00000000000000000011011101001101
11111111111111111110100111001010
00000000000000000100100000111100
00000000000000000110111111011110
00000000000000000001011011011011
11111111111111111111111101110000
11111111111111111111111110001111
11111111111111111111100100100111
11111111111111111111111100000100
11111111111111111111010010000110
11111111111111111011111111101000
11111111111111111101001011001110
11111111111111111110011111000010
00000000000000000001110111011000
11111111111111111111111010101010
11111111111111111111100011100100
00000000000000000000100101011000
00000000000000000011101110100100
00000000000000000101011101000101
11111111111111111111100010001000
00000000000000000101000001001111
11111111111111111101101011000011
11111111111111110110101110001100
11111111111111111101110001010010
00000000000000000010000100110100
11111111111111111010100111010111
11111111111111111011100101010100
11111111111111111111111000001000
00000000000000000010111110110001
11111111111111111100110011101101
00000000000000000001100100111011
00000000000000000111010100011110
00000000000000000001110000101011
00000000000000000000010001100010
00000000000000000000000001010110
11111111111111111111110100011100
11111111111111111110111000010001
11111111111111111110110110101111
11111111111111111100010011010010
11111111111111111011101011101001
11111111111111111110110110110001
11111111111111111110010010001011
00000000000000000001001000101001
11111111111111111110110001011000
00000000000000000010011011010111
11111111111111111100100100010101
00000000000000000001000000110110
00000000000000000011100100011110
00000000000000000101001001000000
00000000000000000010010100110111
11111111111111111011101101111111
11111111111111111001011101010001
11111111111111111011110010000100
11111111111111111100111101000001
11111111111111111110101000100101
11111111111111111110011101110111
11111111111111111110100000111011
00000000000000000000010111010110
00000000000000000101100000001011
00000000000000000110100000011010
00000000000000000010010101001111
00000000000000000000001000001100
11111111111111111111110011001100
11111111111111111111111110001011
11111111111111111101111101001010
11111111111111111011111001101010
11111111111111111100110101010001
11111111111111111100110100110101
11111111111111111100111111000000
11111111111111111011111110111100
00000000000000000000010000111011
00000000000000000000110101010100
11111111111111111001001010100011
00000000000000000010000100010100
00000000000000000100100000011001
00000000000000000100011010111100
00000000000000001011100010111001
00000000000000000110011001101010
11111111111111111101011111001011
11111111111111111011101011011101
00000000000000000001010001101010
11111111111111111111100000101101
11111111111111111101000101010010
11111111111111111111100110000101
11111111111111111011100100011000
11111111111111111011011100101100
00000000000000000000010111001000
00000000000000000011111011111010
00000000000000000000111001011110
00000000000000000000001010010001
11111111111111111111110101111001
11111111111111111111101000001110
11111111111111111110000010100100
11111111111111111100000000100010
11111111111111111010100100101110
11111111111111111011101100101111
11111111111111111111110011101010
11111111111111111111111111000001
11111111111111111110100100010101
11111111111111111110111101110101
11111111111111111111101010001110
00000000000000000010000110110101
00000000000000000011011110010000
00000000000000001000010110010100
00000000000000001100101000101100
00000000000000001011001111000000
11111111111111111111011100001001
11111111111111111101101100000010
00000000000000000000110110110100
11111111111111111111001111001000
00000000000000000010100001011101
11111111111111111110101011000101
11111111111111110110110011101110
11111111111111111000111110011011
11111111111111111001001001011110
00000000000000000000101111011101
00000000000000000000010010100111
00000000000000000000001010011100
00000000000000000000000101010111
11111111111111111111110000100001
11111111111111111111000101011101
11111111111111111101000100010011
11111111111111111001100011010100
11111111111111111000111001111110
11111111111111111101101101010111
00000000000000000010000010011010
00000000000000000011101011101100
11111111111111111111001100000011
11111111111111111100110010101110
11111111111111111110000001011011
00000000000000000010010100000100
00000000000000000110001001100001
00000000000000000101110101010100
00000000000000000100000110110011
11111111111111111111011011011110
11111111111111111110111101111110
00000000000000000100000101000001
00000000000000000001000010111101
11111111111111111101100000101000
11111111111111111001011100010111
11111111111111110100000011111100
11111111111111110110110110110101
11111111111111110111101101001010
11111111111111111111010011111110
00000000000000000000100011000110
00000000000000000000010111010011
00000000000000000000010001110100
11111111111111111111111100100000
11111111111111111111011111101100
11111111111111111110101100010000
11111111111111111101001000011011
11111111111111111011010111000100
11111111111111111100100101101010
11111111111111111001010001001001
11111111111111111000111010100101
11111111111111111111111100101110
11111111111111111110111110010101
11111111111111111111110101111101
00000000000000000010100110110010
00000000000000000000110001101100
00000000000000000010100101101110
00000000000000000000111110110011
00000000000000000011100110100110
00000000000000000000000100000111
11111111111111111011110010000101
11111111111111111001101110111111
11111111111111110111010000000110
11111111111111110111100110000011
11111111111111111000001001101101
11111111111111110110001000101100
11111111111111111001100000001010
11111111111111111111101101001100
11111111111111111111101011111010
11111111111111111111110011000011
00000000000000000000001011100000
00000000000000000000000000000000
00000000000000000000010010100001
00000000000000000000010110111000
00000000000000000000110110110100
11111111111111111110110101110100
00000000000000000001100011001100
11111111111111111011001000001001
11111111111111111110001111011111
11111111111111111111011101100111
11111111111111111011111111010101
00000000000000000011101110000011
00000000000000000011000010011100
00000000000000000011101001001110
00000000000000000111001111100000
11111111111111111110011101010100
11111111111111111110110010001111
11111111111111111010000010000110
11111111111111111010101000111001
11111111111111111000001100010011
11111111111111110111101101010011
11111111111111111101010000001111
11111111111111111011010010100000
11111111111111111100110001111110
11111111111111111101011001000100
00000000000000000000011111010101
00000000000000000000011100011111
11111111111111111111110101101001
00000000000000000000010010010001
11111111111111111111111101111001
00000000000000000000011011001110
00000000000000000001100011001010
00000000000000000000110000100100
11111111111111111110111001110101
11111111111111111101110001000110
11111111111111111101010101011011
11111111111111111101110001011111
00000000000000000000111010110000
11111111111111111100001100101011
00000000000000000000111010001000
00000000000000000101001110000011
00000000000000000101011100001100
11111111111111111110100100010101
11111111111111111101000111000001
11111111111111111010110100001011
11111111111111111100110000010010
11111111111111111100000000111100
11111111111111111010110101101101
11111111111111111001110100111111
11111111111111111110000100010000
11111111111111111011110011111110
11111111111111111111101011010001
00000000000000000010010110111101
00000000000000000000001111111001
11111111111111111111101011000101
11111111111111111111110111001010
11111111111111111111111011100101
00000000000000000000000110001101
00000000000000000000011011001001
00000000000000000010100100110011
00000000000000000001001110101010
11111111111111111111100000001100
00000000000000000000101110110100
00000000000000000011110010001011
11111111111111111110011110110110
11111111111111111111011010011010
11111111111111111100010000111101
00000000000000000011001111000001
00000000000000000110001001001100
00000000000000000101110111101001
11111111111111111110100101011100
11111111111111110110001101001001
11111111111111111001010001011000
11111111111111111110100101010110
11111111111111111011101001000110
00000000000000000001011010001001
11111111111111111101010000001011
11111111111111111101111111010111
11111111111111111010110101010001
11111111111111111110111010100001
11111111111111111111100010110000
11111111111111111110110010111010
11111111111111111111101000011100
11111111111111111111100000100011
11111111111111111111111101110111
00000000000000000000000101000011
11111111111111111111110111110111
00000000000000000100110001000011
00000000000000000011010111011101
11111111111111111111111110100000
00000000000000000001111101000000
00000000000000000100011000111110
11111111111111111100111100010001
11111111111111111110111011110011
11111111111111111101011001101111
00000000000000000010100010111100
00000000000000000011100101001101
00000000000000000011010111010000
00000000000000000010011101011000
11111111111111111110011111000011
11111111111111111100111000011110
11111111111111111101010010010101
00000000000000000000101110011001
11111111111111111111110101001110
11111111111111111110111100110101
11111111111111111110110011010000
00000000000000000000100010100001
00000000000000000110000100001011
00000000000000000001001100110110
11111111111111111111111000011001
11111111111111111111110001010000
00000000000000000000001000110001
00000000000000000000001110010111
11111111111111111111110100100000
11111111111111111111010000101111
00000000000000000011111101100011
00000000000000000100000110011111
00000000000000000011111110111011
00000000000000000001110001001100
11111111111111111110101011010101
11111111111111111101010000100000
11111111111111111001110011000010
11111111111111111001110000111011
11111111111111111111110001000011
11111111111111111101110010111101
00000000000000000100001010001101
00000000000000001000001011111110
00000000000000000010101111110010
00000000000000000010111111100110
00000000000000000010110111000101
00000000000000000011010101111110
11111111111111111110100010001111
00000000000000000100101010110001
00000000000000000011010100100110
00000000000000000011011111110111
00000000000000000100101011011011
00000000000000000001000100011011
00000000000000000000001101011110
11111111111111111111110111011010
11111111111111111111110110101100
00000000000000000000001011010001
11111111111111111111111101110000
11111111111111111111111001011110
00000000000000000011010011111100
00000000000000000100110000000001
11111111111111111110110011100011
00000000000000000011100100111100
00000000000000000000011001010100
00000000000000000000010010110010
00000000000000000011000101100001
11111111111111111100001111101001
00000000000000000000000110110001
00000000000000000011010001000110
00000000000000000011111110011010
00000000000000000110101011100110
00000000000000000101010010010011
00000000000000000101111001001110
00000000000000000101001101011110
00000000000000000011111100111111
00000000000000000001101101000100
00000000000000000111110011110100
00000000000000000011100110011100
00000000000000000011110011111111
00000000000000000100000101000011
00000000000000000000100110111100
11111111111111111111101001100111
11111111111111111111111011100110
00000000000000000000000110011010
00000000000000000000000010000010
11111111111111111111111000110111
00000000000000000000000110001011
00000000000000000010101100111001
00000000000000000100010101000100
11111111111111111110011011011010
11111111111111111111000110111111
00000000000000000010011010011010
00000000000000000001101100001000
00000000000000000000100100011100
11111111111111111101111111101000
11111111111111111110110001001110
11111111111111111101000001111001
11111111111111111111110110011100
00000000000000000001000111010110
00000000000000000000101101000111
11111111111111111110111011010100
00000000000000000011011100111000
00000000000000000110000110001001
00000000000000001000000010010011
00000000000000000111001101000001
00000000000000000011010010100000
00000000000000000001011000100011
00000000000000000011011100011001
00000000000000000000000110011111
11111111111111111111010001010001
11111111111111111111111000000101
11111111111111111111111011011111
00000000000000000000000000110011
11111111111111111111111011001111
00000000000000000000001000010111
00000000000000000010000000010001
00000000000000000100111000101010
11111111111111111111111111000111
11111111111111111100110000011101
00000000000000000000011101100101
11111111111111111101010110111010
11111111111111111101010010011100
11111111111111111011011111110100
00000000000000000000001111011100
11111111111111111011101011001100
11111111111111111011111010101000
00000000000000000010100010000101
00000000000000000011011011011001
00000000000000000010011011111000
11111111111111111111001101000110
00000000000000000011001011111100
00000000000000000101111010101001
00000000000000000101010111011110
00000000000000000001010011010111
00000000000000000001010011011001
00000000000000000000010100010001
11111111111111111111101001000010
11111111111111111111010010011000
00000000000000000000000101100011
00000000000000000000000101100100
00000000000000000000000100110101
00000000000000000000000101001111
00000000000000000000100101000100
00000000000000000001101111001110
00000000000000000100101101110111
00000000000000000010001100011010
11111111111111111101111110010111
11111111111111111100101010001111
11111111111111111110010111100101
11111111111111111011111111100101
11111111111111111111111001001011
00000000000000000001100000110001
00000000000000000001011100110011
00000000000000000000011010100011
00000000000000000011101100101100
00000000000000000010001011001100
00000000000000000010001100010111
11111111111111111111011101000110
00000000000000000100100010001101
00000000000000000100100001010111
00000000000000000011100011111001
11111111111111111110000010100111
00000000000000000000110010101101
00000000000000000000111101111010
00000000000000000000010101011011
11111111111111111111110000000010
00000000000000000000000000101110
11111111111111111111111010101000
00000000000000000000000101110011
11111111111111111111111100000101
00000000000000000000100101100000
00000000000000000000101001001101
00000000000000000000101010100011
11111111111111111111001111010010
11111111111111111111100011111000
00000000000000000001000001011110
00000000000000000001100011001111
11111111111111111111111000001110
00000000000000000001010011111110
00000000000000000001101011101111
11111111111111111110011111100001
11111111111111111111000000010011
00000000000000000011111010010011
00000000000000000000100100101011
00000000000000000010000111000110
00000000000000000010011001011001
00000000000000000011100010101100
00000000000000000001100011010000
11111111111111111111111111000111
11111111111111111110011011000111
00000000000000000001001011000001
00000000000000000001010001011100
00000000000000000000010111110001
11111111111111111111111100101010
11111111111111111111111010000000
00000000000000000000000100001111
00000000000000000000000001100100
11111111111111111111111001101111
00000000000000000000001000111111
11111111111111111111100011111001
11111111111111111111000100111000
11111111111111111110000110100101
11111111111111111110010000010010
00000000000000000000001010001111
00000000000000000001010011010101
11111111111111111111101001100100
00000000000000000010000110010001
00000000000000000000100111001001
11111111111111111101010010101011
11111111111111111101110011011000
11111111111111111010101100000011
00000000000000000000001101111010
11111111111111111110011001101101
00000000000000000000110111100101
11111111111111111111010101110100
00000000000000000000011011001111
11111111111111111111011000111100
00000000000000000000000111001101
00000000000000000010100010111000
00000000000000000010110011001111
00000000000000000001010011000010
11111111111111111111110111001010
00000000000000000000000100010110
00000000000000000000000101100110
11111111111111111111111100111100
00000000000000000000000001110110
00000000000000000000000111100011
00000000000000000000001010001111
11111111111111111111111011011011
11111111111111111110011111101010
11111111111111111101011010110101
11111111111111111101011101001101
11111111111111111101001101101011
11111111111111111011101110010111
11111111111111111101101100111101
00000000000000000000111100110111
00000000000000000000111101000000
11111111111111111110110111110110
11111111111111111110000011111011
00000000000000000001001111011100
11111111111111111110101011000100
11111111111111111101000010000101
11111111111111111101010001001111
11111111111111111110101100111001
11111111111111111110100011111001
11111111111111111110001010011010
11111111111111111111000001100000
00000000000000000000000101001001
11111111111111111111110101000100
00000000000000000000000011101000
00000000000000000000001011111100
11111111111111111111111011110010
00000000000000000000000010101011
11111111111111111111111111100011
00000000000000000000001000110101
00000000000000000000000110001000
11111111111111111111111100110100
11111111111111111111101110000011
00000000000000000000001000010011
11111111111111111111100000001000
11111111111111111111101000100010
11111111111111111111111101000100
11111111111111111111010010001010
11111111111111111111011110111000
11111111111111111111011111001110
11111111111111111111100100001010
11111111111111111111000111001000
11111111111111111111111100001101
11111111111111111111100100100000
11111111111111111111100110011111
11111111111111111111001111110000
11111111111111111111011101101111
00000000000000000000001000100000
11111111111111111110100111110010
11111111111111111110111011011101
11111111111111111111111110101111
11111111111111111111111101100101
00000000000000000000001000100101
00000000000000000000000010101011
11111111111111111111111011001000
