1111111111111001
0000000000010111
1111111111100111
0000000001110101
0000000000000111
1111111111010111
1111111111101010
1111111111111101
0000000000011110
0000000000101011
1111111111011000
1111111111111110
1111111111101011
1111111111101101
0000000000001111
1111111111011110
1111111111101011
1111111111111001
1111111111100110
1111111111011001
1111111111111001
1111111111100011
0000000000000000
0000000000001001
0000000000000010
1111111111110110
0000000000101010
0000000000001000
0000000000000100
1111111111100010
1111111110101110
0000000001000001
0000000000010001
0000000000001100
1111111110101010
1111111110011110
0000000000010110
1111111111001010
1111111111111010
1111111111011111
1111111111010111
1111111111111101
1111111110011100
1111111101101001
1111111110100011
1111111111111111
1111111111110001
1111111111011111
1111111111110001
1111111111110110
1111111110110110
1111111111001100
0000000000100110
1111111111111001
0000000000000100
1111111111110010
0000000000010010
0000000000011000
1111111111111100
1111111111100111
1111111111111100
0000000000001110
1111111111011110
1111111110000101
1111111110000100
1111111100011010
1111111101001110
1111111011111100
1111111001000110
1111110111101010
1111111101001111
1111111100011101
1111111000000111
1111110110110011
1111111010000001
1111111101011000
1111111111000011
1111111111000011
1111111110010001
1111111111010001
1111111111001001
1111111111110010
1111111111101110
0000000000001101
1111111111001110
1111111111010011
1111111111111110
1111111111110000
0000000000000101
1111111110001001
1111111010100001
1111111100011000
1111111010111101
1111110111101100
0000000010011100
0000000000011011
1111110010110100
1111101110101110
1111110100111010
1111110010100001
1111101101010110
1111101100110101
1111100110100101
1111110100101000
1111111100010101
0000000001110000
0000000010110000
1111111111011001
1111111101011010
0000000010100011
0000000000100010
0000000000100001
0000000000001001
0000000000011100
0000000000000000
1111111111011101
1111111110111111
1111111101101100
1111110111001000
1111110010100000
1111110000010111
1111110111001000
1111110011011100
1111111101111101
0000000100010110
0000000011010110
1111111111100010
1111110011101000
1111100110110101
0000000000100010
1111111110001100
1111110110000110
1111111111011111
0000000101111011
0000000111110001
0000000101110101
0000000011111110
0000000001001101
0000000000001100
1111111111111000
1111111111010011
0000000000000001
1111111111100110
1111111110110000
1111111111111000
0000000101011110
0000000001111100
1111110011100111
1111101101010011
1111111011011000
1111111001011010
0000000110001100
0000000101111100
1111111000010110
1111110110111101
1111111110110101
1111100011011000
1111100011001110
1111100010001010
1111100110010000
1111100111101101
1111101001011011
1111110111000011
1111110101110100
1111111011100011
0000000100010101
1111111111111001
0000000000011011
0000000000110011
1111111111010010
0000000000000110
1111111111001111
1111111101101110
0000001110100010
0000000000011111
1111110101011101
1111110010011111
1111110001110000
1111111010100100
0000001010010110
0000001011111000
0000000111110101
1111100111111011
1111011000100011
1111111001110110
1111110101011011
1111110100111011
1111110010010111
1111100111110001
1111110000100001
0000001011101100
0000000100011001
1111111111001111
1111111110111000
0000000010101111
1111111111100111
1111111111100011
1111111101101000
0000000000100110
0000000100101101
1111111010011100
0000000010111111
1111111101011010
1111110001011101
1111110100011001
1111111110101011
0000001010001010
0000010001111101
0000011110000101
0000010111001110
1111111001010011
1111101100010111
0000000111110110
0000010011110110
0000010010110110
0000001100101101
0000001011110000
0000001101000101
0000011111001110
0000011101011100
1111110111110000
1111111000110010
0000000111011001
0000000000110110
1111111111100011
1111111111001010
0000000001010101
0000000010101000
1111111100000001
0000001010111011
0000000001111101
0000000010100111
0000001100010111
0000000010000110
1111111101100011
1111111001110010
0000001000000111
0000001010011001
0000000011001001
1111111101011111
0000010100000110
0000000000000010
0000011101011010
0000001010011001
0000100001111110
0000010011110100
0000001110111111
0000000100110011
0000001000110101
0000000010111111
1111111111100001
1111111111101011
0000000000001100
0000000000101101
1111111111011111
1111111100011010
1111111001110011
0000000011001001
0000000101110101
0000000011001101
0000001010111010
0000000111000101
0000000110100110
0000001001011110
0000001100101000
0000000100111001
1111110001000100
0000001000011000
0000010110001100
0000010110100000
0000011110001001
0000010111110000
0000010010011111
0000010111000011
1111110010110111
1111111111001011
0000011001110000
0000000110011101
0000000001100110
0000000001010000
0000000000010111
0000000000101011
0000000001011100
1111111111011100
0000000000001110
1111110101110000
1111101011101101
1111111001011010
0000000111100101
1111111111001010
1111110111000010
0000001011100110
0000001010111100
0000001001001111
1111111110000010
0000010010111101
0000101110111100
0000011110100010
0000010101011110
0000010100101000
0000010011100111
0000010100110011
0000000111000110
0000000011111011
0000010000001011
0000001101110111
0000000011011111
0000000001001101
0000000000000011
0000000000011001
0000000010101110
0000000010110000
1111111101100010
1111101111110000
1111101111001010
0000000101010100
0000000100110110
1111111011110010
1111111010000111
0000000110101010
0000000101001101
1111101011011010
1111100110010101
0000000001101110
0000011001100001
1111111111011100
1111111101110111
1111111010111011
1111111001111101
0000011000010010
0000001010000111
0000000101110111
0000000001011100
1111111101001000
1111111110110011
0000000000100010
1111111111101101
0000000000000100
0000000011010000
0000000100011010
0000000110101001
1111111010000110
1111110110001100
1111111101101011
0000001110100000
0000001111000010
1111110111001010
0000010101000001
0000010010000111
1111110010100000
1111010111010110
0000000100011000
0000000000110001
1111110010101001
0000001001111001
0000000011111110
1111111001001100
0000010101100000
0000011000110011
1111111100111100
1111110101100011
1111110100010001
1111111011111000
1111111111011101
1111111111100111
0000000000001001
0000000000001000
1111111111000101
0000010110000010
0000001000011010
1111110010011100
0000100011000001
0000010001011101
0000011001110011
0000001110011000
0000000110110001
0000001110001000
1111100111111000
1111100100101110
0000001001000100
0000001101001111
1111111000011100
1111101001000000
1111110101100000
1111110101101001
0000011100111101
0000010100111111
1111110110000100
1111110010010000
1111111011010000
1111111000110110
1111111011001011
1111111111101011
0000000000000100
0000000000100001
1111111100101110
0000010001000111
0000010111010010
1111110010110001
0000011111110000
0000011000000101
0000010000011100
0000001000111101
0000000010101111
0000000100101011
1111100100111011
1111011111011010
1111110100111110
1111110011000010
0000001001111010
0000001000100100
1111111100011010
0000001001111100
0000010110100101
1111111010010110
1111111100110110
1111111101000000
1111110110101001
1111111001000001
1111111111000010
0000000000000000
0000000000100000
1111111111000100
1111111110001101
0000001111001000
0000000001001011
1111110101000001
0000010111101011
0000011001110011
0000001110100011
0000100110011101
0000000111111010
1111111010111001
1111011000010010
1111100010011010
1111111000011010
1111111010011100
0000001010101101
0000001000101011
1111111011111111
1111111001011001
1111111110000101
1111111010110100
0000000011100111
1111110000010011
1111101000010011
1111110110011011
1111111101110110
1111111111111010
0000000000000000
1111111101111011
1111111001100100
1111111100100110
0000000100101001
1111110100110000
1111111010111001
0000011100011000
1111111000001000
1111111011101011
0000000000001001
1111110101110110
1111101101000111
1111100011100110
1111100100010111
1111111011101101
0000001001101000
1111111110111010
1111110101111010
0000000001101010
1111100111110000
1111110101011001
1111110111010101
1111100101100001
1111100010101000
1111110101001000
1111111111010100
1111111111110100
0000000000010001
1111111101111101
1111110100110001
1111101111101110
0000010101010010
1111111101010111
0000000000010111
0000001111100001
0000001111000111
0000000010101000
1111111000111010
1111100111100101
1111011111100010
0000000101010000
0000000101010000
0000000101101001
1111111111011010
1111110000011111
1111101100011100
1111111101101010
1111100100100101
1111111101011010
1111111011011001
1111110000011111
1111101100011011
1111111100000011
1111111110111101
0000000000000101
1111111111111110
0000000000010111
1111101101100101
1111011101111111
0000000101011101
1111111010101001
0000001001111111
1111111111101100
1111110100110111
1111110011110110
1111101100001101
0000000011111001
1111111011010000
0000010011110111
1111110111100100
1111111111000111
1111111100101001
1111111001000000
0000001100111000
0000000001111011
1111101110111010
1111111110001000
0000000010001100
1111101110001000
1111101111011111
1111111110010010
1111111110011110
1111111111111001
1111111111110001
1111111111001111
1111110010010000
1111100100010100
1111111001000001
0000000111010001
0000001001100111
0000000000011111
1111110101000100
0000000011001111
0000000011100100
0000010011010111
1111111111001001
0000000011110100
1111110111100001
1111110100011000
1111111110111010
0000001011110010
0000000100111101
1111110111111001
1111111001001000
1111110101100000
1111101100011110
1111110100111111
1111110110110111
1111111011110100
1111111111100110
0000000000011100
0000000000110011
1111111110100101
1111101110001100
1111100001010011
1111110110000010
1111111001011100
1111110001011000
1111111101111010
0000000100110001
1111111001000000
1111111001111101
0000010101010010
0000000001101010
1111110011001110
1111101101101101
1111111000000010
1111111011100111
1111111001001110
1111111100010110
1111101001111101
1111100011110001
1111100011101011
1111101001001110
1111111111011111
0000000001011001
1111111111000111
1111111111110111
0000000000101111
0000000000000000
1111111011111111
1111110000011110
1111101000000110
1111101111100011
1111101110111001
1111110100010110
1111110101001010
1111110011111010
1111110110000011
1111110000010100
0000001010110101
1111110010100010
1111100010010000
1111110100001011
1111110000100001
1111101001101000
1111101100011000
0000000001000000
0000000001100111
1111110000001000
1111110001001100
1111110101011000
1111111101100111
0000000000110111
0000000001001101
0000000000000101
0000000000110000
0000000000010010
1111111110101010
1111111100110101
1111110010011101
1111101100010000
1111101110000100
1111111101001000
1111111111100011
1111101100101111
1111111110110011
0000000110001111
1111111111010010
0000001011111011
0000000001100011
1111110011011011
1111101111100111
1111100011111010
1111100111111001
1111110111000010
1111110011111110
1111111011001100
1111110111010011
1111111000110011
1111111001001000
1111111011001101
0000000000010010
0000000000000110
0000000000010011
0000000000100110
1111111110000011
1111111110110000
1111111001110001
1111101111110010
1111101111010110
1111111100110011
1111111100101100
1111101111010100
1111111100011101
0000000001100011
0000000011010011
0000010100010110
0000001110000100
1111111010001011
1111110010010011
1111111000010010
1111101111000011
1111111100000011
1111111100101011
1111111001011101
1111101110110101
1111111000100110
1111110111001010
1111111000001101
0000000000001011
0000000000010011
0000000001010100
0000000000111111
1111111111100101
0000000001011110
1111111101110100
0000000000001010
1111100111110111
1111100010010100
1111100010010111
1111110000001101
1111110010110010
1111110100100001
1111111000101110
0000001101010111
0000000000111110
0000001011000000
1111110100011001
1111110011000010
1111101110011010
1111111110001011
0000001010011101
1111111010100100
0000000101010010
0000000000110111
1111111001100101
1111111011111101
1111111111011010
0000000000010010
0000000000011010
0000000000010100
0000000000000100
0000000010001100
0000000000111011
0000000001100100
1111110001101011
1111110000111110
1111101111000101
1111110111110110
1111111111001110
0000000010000001
1111111101001000
0000000111110100
0000010001001010
0000011000010001
0000001001000111
1111111001000000
1111111001000111
0000000100011100
0000001111111101
0000001110100001
0000000110110110
0000000011111111
0000000000100100
1111111111000010
1111111111001001
0000000000110110
0000000000010000
1111111111100100
1111111111100110
0000000001000101
0000000000000101
0000000101110000
0000000011110101
0000000011011000
0000000101000001
0000000110000001
1111111111110000
0000000001000101
0000000111000011
0000001001001000
0000001011110001
0000000111111010
0000000011000110
0000000011110010
0000001000100100
0000001000100101
0000000110101000
0000000100001100
0000000010010110
1111111111110000
1111111111110000
1111111111101010
1111111111011100
0000000000000101
1111111111101011
0000000000000010
0000000000001010
1111111111000011
0000000000100011
1111111111110000
0000000000000011
0000000000010010
0000000000101111
0000000000000001
0000000001011101
0000000000110001
0000000000001101
0000000000000011
0000000000101001
0000000001000111
1111111111010101
0000000000011010
0000000001110010
0000000000001000
0000000001000110
0000000000100011
0000000000010010
1111111111101101
0000000000100010
0000000000100001
0000000000001001
0000000000000011
