1111111111100111
0000000000011010
1111111111110101
1111111111110011
0000000000000100
1111111111001101
1111111111110011
0000000000100111
1111111111110100
1111111111110010
1111111111000001
1111111111110110
1111111111110011
0000000000110000
1111111111101000
1111111111100111
0000000000001101
1111111111111110
0000000001100111
0000000000000101
0000000000011011
0000000000010010
1111111111111100
1111111111111011
0000000000000000
1111111111101001
1111111110111011
1111111111011111
1111111111001101
1111111111011110
0000000001000101
1111111111101011
0000000000010101
1111111110111010
1111111111010110
1111111111000101
0000000000000000
1111111111110100
0000000000001101
0000000000001101
1111111111011001
0000000000010001
0000000001000100
0000000010000100
1111111101010011
1111111101101000
1111111111011010
1111111111101001
1111111110110010
1111111111101010
1111111110111001
0000000000000110
0000000001001011
0000000000001001
0000000000011001
1111111111110110
1111111111101111
1111111111110100
1111111111111000
0000000000000000
0000000000011110
1111111111111110
0000000000010001
1111111111001110
1111111110110001
1111111111000001
1111111101100100
1111111101100011
0000000010011100
0000000110011001
0000000010000000
0000001010101010
0000000010100011
1111111100010000
1111111111101100
1111111110100101
1111111111111100
1111111110100010
1111111111101010
1111111111000111
1111111111110100
1111111111100101
0000000000101100
1111111111100000
1111111111111000
0000000000001001
1111111111110101
1111111110101000
1111111111110001
1111111111001110
1111111111000111
1111111110010101
1111110111100111
1111111011001011
1111111011110001
1111110001110100
1111111011011000
1111111011100100
1111110100011011
0000000011010010
1111110011110011
1111101101011010
1111111001001100
1111110100000001
1111110011100001
1111111101100001
0000000010010100
0000000000011100
1111111101010100
0000000001111000
0000000001010111
1111111111100111
0000000000011110
1111111111000101
0000000000100001
0000000000000001
1111111111010101
1111111100100111
1111111100100100
1111110011100110
1111110010011100
1111110001111000
1111100110111010
1111100110010001
1111101111011101
1111110000101011
1111111000100010
1111101101011110
1111101111010100
1111111001010110
0000000110010011
1111111101001101
1111111110111101
0000000011001111
0000000001010110
0000000011100010
0000000010001101
0000000010011110
0000000000000001
1111111111110010
0000000000001100
1111111111110000
0000000000100110
1111111111100000
1111111110111110
0000000101101111
0000000010011000
1111110101111010
1111111100100111
0000001000001111
1111101010101010
0000000011001111
0000000000000100
0000000101001010
0000000010101111
1111111101000100
1111111001010001
0000010000001000
1111110111110110
1111110010101000
1111111101011110
0000000100110001
0000000111000101
0000000010100101
1111111110011011
0000000010100011
1111111111110011
1111111111101111
1111111110110110
1111111111110101
1111111110100001
1111111110011001
1111111100000000
0000000001001110
1111111000000101
1111110010011000
1111110101110010
1111110101010111
1111110111101101
0000000101000010
0000001000110011
1111111100001001
1111111100010110
0000001011000110
0000000000000101
0000000001000100
1111110001101110
0000000001011000
0000000111011000
1111111101101001
0000000110101011
0000001100000100
0000000110101100
1111111110111111
0000000000010000
1111111111111100
1111111111111001
1111111110110010
1111111111000010
1111111101101101
1111111000111110
1111111110111111
1111110111001111
1111111000110010
1111110011011100
0000001010011101
0000001111000111
0000000101000101
0000010010111011
0000000101100110
0000000111100000
1111110101011011
1111110100011011
0000000010000110
1111111100001110
1111111011101010
1111110010100001
1111110000001110
0000000010100010
0000001111111100
1111111111000000
1111111010111010
0000000011001100
0000000000101101
0000000000100100
1111111111110010
0000000000010011
1111111110000110
1111110110011111
1111110111110100
0000000001000010
1111111110100011
1111111001100000
1111111110000111
1111111001000000
0000101100001110
0000101110101110
0000001110001100
1111111010111010
1111111100010111
1111111010111111
1111111000000101
0000000001100010
1111101111101011
1111110001101001
1111101001010110
1111111010001001
0000000100011101
0000001010111000
0000001001010100
0000000011100111
0000000001000010
1111111111100001
0000000000000110
0000000001011011
1111111101111000
1111110000010000
1111101110111111
1111110101110100
1111110011011101
1111101000110110
1111100010000010
1111101100010111
0000011000000110
0000011110101111
0000001010011110
1111110000110100
1111111011011000
1111111100011001
1111101001111011
1111111100101101
1111110011010111
1111100100110000
0000000010010111
1111111011101001
1111111110111111
0000001010000001
0000001010010010
0000000011001010
0000000000100111
0000000000001000
0000000000001011
0000000000001010
1111111011001100
1111110101011100
1111101111111101
1111110011000100
1111100011000000
1111100011101111
1111100011000101
1111101001010101
0000001010011111
0000011111100110
0000010100101110
0000001111001101
0000010100111101
0000000011101001
1111111010101011
1111110010101100
1111111000100101
0000000000100011
0000001111111110
0000000110111101
0000000100110010
0000010000101100
0000001001101100
0000000001010011
1111111111101011
1111111111001101
0000000000110100
0000000000011111
0000000000000000
1111111010100010
1111110101010011
1111101010011000
1111100110101001
1111110001110011
1111110011001110
1111011010101001
0000000010101000
0000100010111010
0000010110001110
0000011001011001
0000101010010110
0000100101001111
0000000000101001
0000000001000100
1111111010111101
0000000000110000
0000000100110110
0000000101100100
0000001111111110
0000001110111110
0000000101110001
0000000000001010
0000000000101100
1111111111111001
1111111111000110
0000000001011000
0000000011011110
0000000011101000
1111111111100010
1111111000010001
1111110011100011
1111101001111101
1111101010100100
1111100000100000
1111111000000001
0000001001101110
0000010010111000
0000010011000011
0000011100100100
0000000000000010
1111111100100010
1111111100110111
1111100100010110
1111111001011100
1111111011110000
0000001100110101
0000001110101001
0000000111101011
0000000010111000
1111111110110111
0000000000111101
1111111111011110
1111111110110001
0000000001001001
0000000011101100
0000000110010001
0000000100111001
1111111101000110
1111110011100001
1111101001111010
1111111100100001
1111110000111001
1111101101101000
1111111001001101
1111110111011010
1111110110110010
0000010010011100
0000000001010111
1111111000010001
1111100000110010
1111110100010111
0000001100101011
0000000001110100
0000000101000110
0000001100100011
0000000101110111
0000000010001111
1111111010110001
1111111101010001
1111111111011010
1111111111111110
0000000000001001
0000000001100111
0000000010110001
0000000101110000
1111111100001100
1111111110001000
1111111101110100
1111100110010010
1111101011111000
1111101111010011
1111111011110110
1111111011101101
1111111010111011
0000010110111011
0000000101111010
1111111000010100
1111111110101110
0000000100111101
0000001101001100
0000000000001101
0000000000100101
0000000101000110
1111111010100001
1111111101001110
1111111000101100
1111111111110010
0000000000000101
1111111111101010
1111111111011100
0000000010100110
0000000101100100
0000000011100011
0000000101110111
1111111011000100
1111111011110011
1111110101011100
1111100010000011
0000000001011011
1111111111011000
1111110101101010
0000011011010011
0000011100101110
0000000011000110
1111101101010000
0000010011100110
1111101101000111
0000000010010001
0000000000010000
1111111111100111
1111111011001011
1111110001011111
1111110101001000
1111111100100010
1111111111101101
1111111111111101
1111111111101001
1111111110111111
0000000010110011
1111111110111100
0000000011100110
0000000100000101
1111111011000000
0000000000000110
1111110101010101
1111111010010111
0000000100100000
0000001000101111
1111111100101000
0000001100000110
0000011111011011
1111110110100000
1111101110100011
1111101100011100
1111101000010010
1111101111011010
1111110001100100
1111101011110101
1111101001100111
1111101100000011
1111110000110110
1111111001000101
1111111111101100
0000000000110010
0000000000000010
1111111110110101
0000000010000100
1111111101111010
0000000011110100
0000000110010000
1111110110100101
1111111100101100
1111111000011110
1111111011001001
0000000010111010
0000000010101111
1111101110001111
1111111110001100
0000011001101000
1111101110110101
1111011110011100
1111111011101011
1111110010011110
1111110111011000
1111111001000001
1111110011001011
1111111011100011
0000000001100011
1111111101101010
1111111111101001
1111111111100100
1111111111000101
1111111111101101
1111111111001001
1111111001001011
1111111011110010
1111111001110101
1111111001011010
0000000000000110
1111110110110100
0000001000001000
0000000000000111
1111110011011001
1111110110010010
1111101000100000
1111110010101000
1111111100110000
1111100110100011
1111101000111110
1111101111001101
1111110110000111
0000001101101100
1111110111000000
1111101110110111
1111111101100111
0000000011001011
0000000010100011
0000000100011110
0000000000011101
1111111111011101
0000000000001000
0000000011001100
1111110011011000
1111111000101000
1111110100100110
0000000000001011
1111110111101100
0000000011110011
0000001100101100
0000001110010111
0000001001100010
0000001010111000
1111110111100100
1111111001011100
0000000100001010
1111110101110011
1111101011010000
1111100101011111
1111111010100011
0000001010110111
1111110100100111
1111101101100001
1111111100010010
0000001000111101
0000000010100001
1111111111000001
1111111111111100
1111111111100100
1111111111110110
0000000001110110
1111110001011011
1111110011000110
1111111111111000
1111111011110011
1111111110001001
0000010000011101
0000001100001011
0000001111001001
0000001101000010
0000011010010100
0000000011100000
1111110011001000
1111111000111101
1111110000011110
0000000010000011
1111111101000111
0000010100101000
0000000011011100
1111101110101000
1111101111101100
1111111101000010
0000000110011100
0000000010001011
1111111111000100
0000000001000011
0000000000101011
0000000000000000
1111111110011000
1111110100001010
1111110110010010
1111110111110110
1111111110001011
0000001001011011
0000000110110111
0000010000000001
0000001001101010
0000001000100101
0000010011000011
1111111110000100
1111101100011100
1111101011010101
1111110110010000
0000000000000000
1111111101000010
0000001000110100
1111111100101010
1111110110001011
1111110000111011
1111111001001011
0000000100011111
0000000000010010
0000000000011011
0000000000000011
1111111111111001
1111111111110111
1111111111100100
1111111100110100
0000000011011011
0000000001100001
0000000000000110
0000011100010010
0000001101100011
0000000100110000
1111111100110111
0000000000111100
0000001111101010
1111111011101011
1111111100100111
1111111000110000
1111110010011111
1111110001101000
1111110010001011
1111110101100101
1111110000000010
1111110100000110
1111110000011011
1111110110100001
1111111101001001
1111111101010111
1111111111101111
1111111111001000
0000000000011011
1111111111100111
1111111101011011
1111111100001100
0000000001000111
0000000001111110
0000000110101110
0000000100111101
1111110111010100
1111110100100111
1111111111001110
1111110100111011
0000001110110110
1111111011100111
1111111110101100
1111100110000100
1111110110100100
1111100001111110
1111011011000001
1111101010001010
1111101000101011
1111110000010000
1111110101101111
1111111010010100
1111110011110010
1111111101011110
0000000000010011
1111111111101100
0000000000000101
1111111111110100
1111111110110000
1111111100101010
1111111000101111
1111111110111011
1111111111010011
0000000011000111
0000001101100011
0000001110010011
0000001101010001
1111111011110110
0000000000011111
0000001100001000
0000000001001100
1111111010010010
1111100001011101
1111010011101010
1111101001110101
1111101001010010
1111101101010101
1111110010111011
0000000000001010
0000000000101100
1111111110110011
1111111111101001
0000000000000110
1111111111101010
0000000000010110
1111111111010110
0000000000100011
0000000000110110
1111111101000100
1111110101100110
1111101100000111
1111110101010001
1111111101100110
0000000001010110
1111111111101110
0000000101101000
0000000000101100
0000000111000011
0000001001000110
1111111010011011
1111011010011101
1111011111111000
1111110000110000
1111110001000111
1111110110010110
1111111100100100
1111111110100111
0000000011000000
0000000000010001
1111111110111000
0000000000001000
0000000000010001
1111111111011110
0000000000100100
1111111111110010
0000000000010000
1111111111010101
1111111101101100
1111111010111110
1111111100100100
0000000001101011
0000000101110101
1111111111001100
0000000010101001
0000000100101001
0000000101111101
0000000011000010
0000000011000010
0000000000000111
0000000001000010
1111111101000110
0000000000100001
1111111111010010
1111111111011010
0000000000101010
1111111111010111
1111111111101001
1111111111100101
0000000000111011
0000000000100010
1111111111101110
1111111111101111
0000000000000000
1111111111111110
1111111111001000
1111111111010001
1111111111100000
1111111110111001
1111111111010001
0000000000001100
0000000000011000
1111111111011101
1111111111111010
0000000001011100
1111111110100010
0000000000000101
0000000000011000
0000000000000001
1111111101111100
0000000000011001
0000000000100011
0000000000001101
0000000001010100
1111111111011010
0000000000100011
0000000000011110
0000000000010001
1111111111111100
