11111111111111111111110000000001
11111111111111111111111100010010
11111111111111111111111100100010
11111111111111111111111100010111
00000000000000000000000001111101
00000000000000000000000100100101
11111111111111111111111111010000
11111111111111111111111111001100
00000000000000000000001100111011
00000000000000000000000100100100
11111111111111111111111101011101
00000000000000000000000000011010
11111111111111111111111101010110
00000000000000000000000101000010
00000000000000000000000011001101
11111111111111111111111000011100
00000000000000000000001010011111
00000000000000000000000101000001
11111111111111111111111101001011
00000000000000000000001101101010
11111111111111111111111100000001
00000000000000000000000111100000
00000000000000000000000001110100
00000000000000000000001000010100
00000000000000000000000100100010
00000000000000000000001011010100
00000000000000000000000001010100
11111111111111111111111010100000
11111111111111111111110011101101
11111111111111111111111000010000
11111111111111111111111011101100
11111111111111111111111110101010
11111111111111111111110011100000
00000000000000000000001001011001
00000000000000000000000010011001
00000000000000000000010011011000
00000000000000000000000110111011
00000000000000000000010110100000
00000000000000000000000110010111
11111111111111111111110010000001
11111111111111111111111100101010
00000000000000000000000110001100
00000000000000000000000000100100
00000000000000000000000110000011
00000000000000000000000011110110
11111111111111111111111100010010
00000000000000000000000000000000
11111111111111111111111011100001
00000000000000000000000011010101
00000000000000000000001011110101
11111111111111111111110011110000
11111111111111111111111100101001
11111111111111111111101111000111
00000000000000000000000011110010
00000000000000000000000101110111
00000000000000000000001010111011
11111111111111111111111100111110
00000000000000000000000100110010
11111111111111111111111100000101
00000000000000000000001001001001
00000000000000000000001010101111
00000000000000000000000011011101
00000000000000000000001000010011
00000000000000000000101011010110
00000000000000000000100111010000
00000000000000000000111000100101
00000000000000000000100111111111
00000000000000000001011000000100
00000000000000000000110110010111
00000000000000000000011011011001
00000000000000000001110011100011
00000000000000000011011011011110
00000000000000000010010110010010
00000000000000000001110010110000
00000000000000000000111000001000
00000000000000000000100001100011
00000000000000000000001010100000
11111111111111111111111000100100
11111111111111111111110110011001
11111111111111111111110101011011
00000000000000000000000001011010
11111111111111111111111010011010
00000000000000000000000010100010
11111111111111111111111100100010
11111111111111111111101110111000
11111111111111111111101111111011
11111111111111111111111010101100
11111111111111111111111010010011
11111111111111111111111110110000
11111111111111111111111010111011
00000000000000000000110110011110
00000000000000000001001111100000
00000000000000000001111001100100
00000000000000000011010010101001
00000000000000000010101101100100
00000000000000000010100111110100
00000000000000000011100010010100
00000000000000000110000010101110
00000000000000000001110011111010
00000000000000000001101010110010
00000000000000000001100001110000
11111111111111111110111110000001
11111111111111111111101100100001
11111111111111111111111110100010
11111111111111111110101001100100
11111111111111111110100100010111
11111111111111111111010100010000
11111111111111111111110001000101
00000000000000000000010000000000
11111111111111111111111101001010
00000000000000000000000111111111
11111111111111111111111000100001
00000000000000000000000000110101
00000000000000000000000101011110
00000000000000000000000111101000
00000000000000000000000001001000
00000000000000000000011110010101
00000000000000000000011000011001
00000000000000000010010000111010
00000000000000000011111101011011
00000000000000000011110101011000
00000000000000000110011011011011
00000000000000001000001010001010
00000000000000000100011111110001
00000000000000000010111011000101
00000000000000000000000000010110
00000000000000000010000000101111
00000000000000000100111000110010
00000000000000000001101010011001
11111111111111111111110101100100
00000000000000000000100101000111
00000000000000000000001000001001
11111111111111111111101111100111
11111111111111111111010001101011
11111111111111111101101101010011
11111111111111111110001111000011
11111111111111111111000011111011
00000000000000000000000011110010
11111111111111111111111010100011
00000000000000000000000110010011
00000000000000000000000101100001
00000000000000000000001101100001
11111111111111111111111000001000
00000000000000000000001000100001
00000000000000000001100011101000
00000000000000000001111001101011
00000000000000000100001110000111
00000000000000000100101011000101
00000000000000000100001010001000
00000000000000000110011010000000
00000000000000000110100001100110
00000000000000000111011011111110
00000000000000000011101110010001
00000000000000000000100111001011
00000000000000000000101100101010
00000000000000000101001101000000
00000000000000001001110000100010
00000000000000000101100101101100
00000000000000000010101011111001
00000000000000000000111010000010
11111111111111111100011111000110
11111111111111111101001010010001
11111111111111111011100100101010
11111111111111111100100111011000
11111111111111111110101111111101
00000000000000000000011100101010
00000000000000000000011010111110
00000000000000000000001100010111
11111111111111111111111110110110
00000000000000000000000101100001
11111111111111111111110111111111
11111111111111111111011010110101
11111111111111111111110111101100
11111111111111111110000001100111
00000000000000000010000100011011
00000000000000000110011111000000
00000000000000000100110110001001
00000000000000000110101100010011
00000000000000000111011001001100
11111111111111111111110011000010
11111111111111111101100110111110
00000000000000000000101111100110
11111111111111111101001111011110
00000000000000000111010010101011
00000000000000001111011111000100
00000000000000001001100001010110
00000000000000000010011011100011
11111111111111111101011011110100
00000000000000000000000100100001
11111111111111111001111001101011
11111111111111110111111111101100
11111111111111111000011100001110
11111111111111111111100110111110
00000000000000000000011111011110
00000000000000000000001000111010
00000000000000000000000001010111
00000000000000000000000000000000
11111111111111111111111101001111
11111111111111111111001100110010
11111111111111111101111101101001
11111111111111111110100010001100
11111111111111111111100000010011
11111111111111111111010101101101
11111111111111111111111100011011
00000000000000000010001010101110
11111111111111111111101000000000
00000000000000000011101000011001
00000000000000000011001111000101
00000000000000000000110101001111
11111111111111111100011100110100
00000000000000000000100111010010
00000000000000000111100110010100
00000000000000001101000110011011
00000000000000000111111000100000
11111111111111111101000101010100
00000000000000000001111101011010
00000000000000000100010011100111
00000000000000000011011110111010
11111111111111111101111001000100
11111111111111111101100001110000
11111111111111111101111010001100
11111111111111111110010010000111
11111111111111111111100110111000
00000000000000000000001010011111
11111111111111111111111010111101
11111111111111111111111101010001
11111111111111111110101110110101
11111111111111111101100111111000
11111111111111111111001001110111
00000000000000000000110100101000
11111111111111111111101011000100
11111111111111111001001000001110
11111111111111111010110000111111
00000000000000000010100101001001
11111111111111111111011101101111
00000000000000000010101010111100
11111111111111111110111110010011
11111111111111111101011011000001
00000000000000000001010111010001
00000000000000001001110010000100
00000000000000001100111010111000
00000000000000000011110001111011
11111111111111111101101110010111
00000000000000000001001010001001
11111111111111111011101011010010
11111111111111111111101100100000
00000000000000000010001110101001
11111111111111111100111100010111
11111111111111111110000001111010
11111111111111111110101000101011
00000000000000000000001111101110
00000000000000000000001001100100
11111111111111111111111100011011
11111111111111111111011110101011
11111111111111111110011000000001
11111111111111111100001111101000
11111111111111111100001001011011
11111111111111111110011000110111
11111111111111111011101110111010
11111111111111111100101111011010
00000000000000000000111111010110
11111111111111111100111011110110
11111111111111111101111000011010
11111111111111111100111011101101
11111111111111111110101011010010
11111111111111111111101101000101
00000000000000000000100001000110
00000000000000001000001010010110
00000000000000000111001010000111
00000000000000000010001010000111
11111111111111111011000100100000
11111111111111111101110000011000
11111111111111111011000010010011
11111111111111111011010011011100
00000000000000000000011001010001
11111111111111111010010001001111
11111111111111111110010010001110
11111111111111111111011000011011
00000000000000000000100011111001
00000000000000000000010111001000
00000000000000000000001011011010
11111111111111111111101100111101
11111111111111111110011010110111
11111111111111111101011010100000
11111111111111111101001110110001
11111111111111111101000011000111
00000000000000000001100011000010
00000000000000000010110111001110
11111111111111111101110110010100
11111111111111111100100110001010
11111111111111111101010011100101
11111111111111111010101110011110
11111111111111111000100011011010
11111111111111111101000110001100
00000000000000000010010010010001
00000000000000000110101001111100
00000000000000000110011110000101
11111111111111111101100010000101
11111111111111111110101101011000
11111111111111111101110001001000
11111111111111111110011110000000
11111111111111111100010000010000
00000000000000000000010000001110
11111111111111111011000101000101
11111111111111111101110000011000
11111111111111111111001011011010
00000000000000000000011000000111
11111111111111111111110011000110
00000000000000000000001101000000
11111111111111111111011111010100
11111111111111111110011010110100
11111111111111111101110110101000
11111111111111111111100010000000
00000000000000000000100110010110
00000000000000000010101101011100
00000000000000000001110111101011
00000000000000000010000000010010
11111111111111111010111111101110
11111111111111111110110110000110
11111111111111111011001010101110
11111111111111110101110111101111
11111111111111111011110001000010
00000000000000001001110010000101
00000000000000001010110000111100
00000000000000000111000111001010
11111111111111111010000011111001
11111111111111111010111010101010
11111111111111111101000111000100
11111111111111111111111010111101
11111111111111111101100000101111
00000000000000000000111111011111
11111111111111111101101100111110
11111111111111111110011110001001
00000000000000000000100111000111
00000000000000000000000100000000
00000000000000000000000110011110
11111111111111111111101111000111
11111111111111111111110101110100
11111111111111111110011101101110
11111111111111111100011010010111
11111111111111111101101000100110
11111111111111111110111001000110
00000000000000000000010111111011
11111111111111111110110011111000
11111111111111111111101111100010
00000000000000000001100000000000
11111111111111111110100011001100
11111111111111110110101111011000
11111111111111110100001101100111
11111111111111111110000110000100
00000000000000001011101000000110
00000000000000000100111011010000
11111111111111111111011100100110
11111111111111111010110100100000
11111111111111111001011101010011
11111111111111111010011101111010
00000000000000000000100001101100
00000000000000000000111011110000
11111111111111111010011010001001
00000000000000000001111010000100
00000000000000000000001011101110
00000000000000000000111111101011
00000000000000000000000100110010
11111111111111111111111001010101
00000000000000000000000111001000
00000000000000000000000001011000
11111111111111111110001000011000
11111111111111111011111100001110
11111111111111111100101110011010
00000000000000000001010110111111
11111111111111111110000011000100
00000000000000000001011111101001
11111111111111111100011100011110
11111111111111111101011000111101
11111111111111111010011110110110
11111111111111111000001011000110
11111111111111111110100110011001
00000000000000001100001111010101
00000000000000001101011101110111
00000000000000000110010000011100
00000000000000000010101010110101
11111111111111111110001110001000
11111111111111111111111010001101
00000000000000000101110111000000
11111111111111111101010111010110
00000000000000000010001010010001
11111111111111111110101111100001
00000000000000000011001100100101
00000000000000000000101101001001
11111111111111111111010110101001
00000000000000000000000000000000
00000000000000000000000010111000
11111111111111111111110111000100
11111111111111111111111111111010
11111111111111111110101110001000
11111111111111111101101111101001
00000000000000000010001000000111
11111111111111111011010111000011
00000000000000000001001000010101
11111111111111111110010111110010
11111111111111111100110011100010
11111111111111111100011001100011
11111111111111111011100001010001
11111111111111111111011010110011
00000000000000000111101110010000
00000000000000001101010010001001
00000000000000000111100010000111
00000000000000000010011101011010
00000000000000000011001100110111
00000000000000000010000011011110
00000000000000000100010000110000
00000000000000000001000010001011
00000000000000000011101111100011
00000000000000000010011011110010
11111111111111111111011111111011
11111111111111111110100000001000
11111111111111111110111100010101
11111111111111111111010110011100
11111111111111111111111101011110
11111111111111111111110101101101
11111111111111111111110100100011
11111111111111111111111101110110
11111111111111111111000110101100
11111111111111111110111110010101
00000000000000000011001011010111
11111111111111111110111101011000
11111111111111111111111111000010
11111111111111111010001110101110
11111111111111111110011100011111
11111111111111111100110001000010
11111111111111111110011011000101
00000000000000000100010110110101
00000000000000001010011100011001
00000000000000001000110010010000
00000000000000000101001010011001
00000000000000000110001001100111
00000000000000000011101111001101
11111111111111111111110011001011
11111111111111111110111010110001
11111111111111111111101010010100
00000000000000000110001100110111
11111111111111111110111001100101
11111111111111111110011001000011
11111111111111111101110101011100
11111111111111111110101000100110
00000000000000000000110110110001
00000000000000000000001010101010
11111111111111111111111000101000
00000000000000000000000000111110
11111111111111111111111101101001
11111111111111111111101111001011
11111111111111111111111101010110
11111111111111111110011100100010
00000000000000000001110110011101
00000000000000000001110110100100
11111111111111111111000101001011
11111111111111111101000010101000
00000000000000000010110111110000
00000000000000000001000010100110
00000000000000001001100111001011
00000000000000001010011000000111
00000000000000000000001100110100
11111111111111111111101101101001
00000000000000000000101111001001
00000000000000000100100010001010
11111111111111111111011010001110
11111111111111111101011010100011
11111111111111111011101010011110
00000000000000000100001000001011
11111111111111111100100111100100
00000000000000000000001101111101
11111111111111111101111111111111
11111111111111111110001111011000
00000000000000000000110111100010
11111111111111111111011001101001
11111111111111111111111010100101
00000000000000000000001001110000
00000000000000000000000100001010
00000000000000000000001111001010
00000000000000000001011011001101
11111111111111111100101100111101
11111111111111111010000111010010
00000000000000000001111100100101
00000000000000000100101101101010
00000000000000000000111010111010
00000000000000000100001100111101
00000000000000001000001011001110
00000000000000001000101101000000
00000000000000000110100010000101
00000000000000000010001111111000
11111111111111111100110110100101
00000000000000000100011101011111
00000000000000000011110011101100
11111111111111111110010110101101
11111111111111111001010101000101
11111111111111111110110010011001
00000000000000000001110001110111
11111111111111111111101011000000
00000000000000000001101001011101
11111111111111111101011010101100
11111111111111111111010101101010
00000000000000000000010100101111
11111111111111111111110010000100
11111111111111111111111000111001
11111111111111111111111100111110
11111111111111111111111010110010
11111111111111111111111001011000
00000000000000000010000101001001
11111111111111111110111011010110
11111111111111111011101110011001
00000000000000000000000111000011
00000000000000000010101011101100
00000000000000000001011001001100
00000000000000000010101110001101
00000000000000001001100110000110
00000000000000000011001110011110
11111111111111111111110000101101
00000000000000000000101001010110
11111111111111111101011000010001
00000000000000000000100100100110
00000000000000000000100011101000
00000000000000000000100110111110
11111111111111111100011101111100
11111111111111111101000000001010
11111111111111111101010011000001
11111111111111111100001000000110
00000000000000000001100001111000
00000000000000000011100111101010
00000000000000000001110011100110
00000000000000000000001111100101
11111111111111111111110110111100
00000000000000000000000100011010
00000000000000000000001000100001
11111111111111111111111010110011
11111111111111111111100110101101
00000000000000000010010010100010
00000000000000000001111011011111
11111111111111111111110101010001
00000000000000000000010001001110
00000000000000000011001011111100
00000000000000000101010111101101
00000000000000000110010110110011
00000000000000000110111000010110
00000000000000000101110011100010
00000000000000000011100010001000
00000000000000000001010000001010
11111111111111111101110011110000
00000000000000000000110010011100
00000000000000000011010101101111
11111111111111111110001111010001
11111111111111111011111110101101
11111111111111111100111110010100
11111111111111111111100001100100
00000000000000000001110101011101
00000000000000000100101010111101
00000000000000000101011111011101
00000000000000000001101011000100
00000000000000000000011010100001
00000000000000000000010100000011
00000000000000000000001001000111
11111111111111111111111110100011
11111111111111111111111100000001
00000000000000000000000011111011
00000000000000000001110101101000
00000000000000000010111110011001
00000000000000000010010001001111
11111111111111111111111011100001
00000000000000000010110100000111
00000000000000000101101111000110
00000000000000001000011110011101
00000000000000000011000101110110
11111111111111111111101010110110
11111111111111111100101111001001
00000000000000000000101011100111
00000000000000000000101010000111
11111111111111111111001001111010
11111111111111111111011101101001
00000000000000000110010111001111
00000000000000000100111101010110
11111111111111111111110001000101
00000000000000000011001111111111
00000000000000000011110101010001
00000000000000000101111110110100
00000000000000000110011110001110
00000000000000000010000100111000
00000000000000000000111000110001
00000000000000000000001110001011
11111111111111111111110010111110
11111111111111111111111111000110
11111111111111111111110110110010
00000000000000000000000011000111
00000000000000000001010010011010
00000000000000000100000010111101
00000000000000000010101100110100
00000000000000000000111110011110
00000000000000000010100000000000
00000000000000000011100110100000
00000000000000000001001001101111
11111111111111111111000100111000
11111111111111111111000011101111
00000000000000000011101011011011
00000000000000000000101011110001
00000000000000000010100111111101
11111111111111111111100001000100
11111111111111111111101100110011
00000000000000001000101001001111
00000000000000000010011000111001
11111111111111111111011111010011
11111111111111111110010011000111
00000000000000000010101111111100
00000000000000000011101011110100
00000000000000000010110010001111
00000000000000000000100100101010
11111111111111111111111111001101
11111111111111111111110000100000
00000000000000000000010001000001
11111111111111111111111011111100
00000000000000000000001000111000
00000000000000000000000011111111
00000000000000000000011001000011
00000000000000000010010110101010
00000000000000000100000000100111
00000000000000000001111101101111
00000000000000000001001001110110
11111111111111111111101000101111
11111111111111111011111010010010
00000000000000000001011010001101
00000000000000000010110111011100
00000000000000000100111011111101
11111111111111111101100100101001
00000000000000000000010110111101
11111111111111111100001110011010
00000000000000000000010010101011
00000000000000000010100101010001
11111111111111111101000111111111
11111111111111111110111001011100
00000000000000000010011011011110
00000000000000000010011011111101
00000000000000000011111001101110
00000000000000000001101101110010
11111111111111111111101001101010
11111111111111111111101100100010
11111111111111111111101111010110
00000000000000000000000010111100
00000000000000000000001010111000
11111111111111111111101110011100
00000000000000000000001111001001
00000000000000000000001100100000
00000000000000000000100101101000
00000000000000000000011100001101
11111111111111111110110100111100
11111111111111111110101101011011
00000000000000000000101001000010
11111111111111111101011011111000
11111111111111111100010110100011
11111111111111111101101100001111
11111111111111111111110101001101
11111111111111111111101000011000
11111111111111111110000110111100
11111111111111111111100111011000
11111111111111111100101011001111
11111111111111111011001000011011
11111111111111111100010001010000
00000000000000000000100010110001
00000000000000000010101000000000
00000000000000000010111111101110
00000000000000000011000110101000
00000000000000000000110000000001
11111111111111111111100011000000
11111111111111111111011101011010
00000000000000000000000101010111
11111111111111111111111011101100
11111111111111111111111011001010
00000000000000000000000010001000
00000000000000000000011101000010
00000000000000000000101001000101
00000000000000000000111000010110
11111111111111111111000011011000
11111111111111111111010000011001
00000000000000000000011111001101
00000000000000000010010010010101
11111111111111111111011001110101
11111111111111111100111000111111
11111111111111111111011110001110
00000000000000000001001010001101
11111111111111111101110100011001
00000000000000000001111000001001
00000000000000000010011001101101
00000000000000000000000011100001
11111111111111111100010100010001
11111111111111111101110111000000
11111111111111111111011100111000
00000000000000000011010000011001
00000000000000000010101001000101
00000000000000000000010000011101
00000000000000000001000011100000
11111111111111111111111000110011
00000000000000000000001011100110
00000000000000000000000110010111
11111111111111111111111010000000
11111111111111111111111000000101
11111111111111111111111001101001
00000000000000000000001000011100
11111111111111111111111010011000
11111111111111111111101111101101
00000000000000000010100101111111
00000000000000000010111001101000
00000000000000000011011101110101
11111111111111111111001111001111
11111111111111111100000000101101
11111111111111111111110110011010
11111111111111111110110100010001
11111111111111111100101100001011
11111111111111111101010111100111
11111111111111111100100010111010
11111111111111111100100010011011
11111111111111111100100111100000
11111111111111111110110011110110
11111111111111111111100000100100
11111111111111111110001011111101
00000000000000000000111110110100
00000000000000000000000100111011
11111111111111111110110111110011
00000000000000000000011111101101
00000000000000000000000110000010
00000000000000000000000001001000
11111111111111111111111001101000
11111111111111111111111111000001
11111111111111111111111001111111
00000000000000000000000000110011
00000000000000000000001000100111
00000000000000000000000001100110
00000000000000000000000101110011
00000000000000000011010110010100
00000000000000000011100101010111
00000000000000000010100010111100
00000000000000000001101001110010
11111111111111111111001101111101
00000000000000000011101000110100
00000000000000000001101010001000
00000000000000000000011111110000
00000000000000000001100101101001
11111111111111111110111110001111
11111111111111111100000101110111
11111111111111111100101010001110
00000000000000000010000111011100
11111111111111111111100001001110
11111111111111111110101111011011
00000000000000000010110000011011
00000000000000000010001101110010
11111111111111111110111101011100
00000000000000000000010101010011
11111111111111111111111110110110
11111111111111111111110100101110
00000000000000000000000110001010
11111111111111111111111100110101
11111111111111111111111110111100
11111111111111111111111110001000
11111111111111111111111111110011
00000000000000000000001100100111
11111111111111111111111111001001
00000000000000000000000010011010
00000000000000000000001010011001
00000000000000000000010010111000
00000000000000000000011100010101
11111111111111111111110010010001
11111111111111111110011001100010
00000000000000000000101011011100
00000000000000000001001011011110
11111111111111111111100010001101
00000000000000000000010000000000
00000000000000000001001100110001
11111111111111111111111101001000
00000000000000000000001010000001
00000000000000000001000100101010
11111111111111111111010110001001
00000000000000000000001001001101
11111111111111111110111100100011
11111111111111111110000011111000
11111111111111111111100010001111
11111111111111111111110111111010
00000000000000000000000101110101
11111111111111111111111010110010
00000000000000000000000010001001
