0000000000100001
1111111111100010
1111111111011000
0000000001000100
0000000000111100
0000000000010010
1111111111100110
1111111111111011
0000000000101110
0000000000000100
1111111111111000
0000000000111010
0000000000001101
0000000000000001
0000000000010111
0000000000101001
1111111111011111
0000000000010101
0000000000100011
1111111111101110
0000000000001101
1111111110101100
0000000000011111
0000000000010001
0000000000111011
0000000000100100
1111111111110111
0000000000011000
1111111111110100
0000000000000001
1111111111101011
0000000000011010
1111111111101000
1111111111010100
0000000000111100
0000000001001110
0000000000010110
0000000001010010
0000000001101001
0000000001011101
0000000001001111
0000000001000101
0000000000000011
0000000000101000
1111111111111111
0000000000101101
0000000000001111
1111111111110100
0000000000000111
1111111111110001
0000000000100110
0000000000100111
0000000000010001
0000000000100101
1111111111100010
0000000001001111
0000000000011011
1111111111111010
1111111111100101
1111111111100100
0000000000011100
0000000000100110
0000000000101000
0000000010001001
0000000001101001
0000000101111010
0000001001111110
0000001101011101
0000001110000001
0000001011110001
0000001100001101
0000000101000010
0000000001101011
0000000001110100
0000000001111000
1111111111000001
1111111111101101
1111111111111100
0000000000010110
0000000000111101
0000000000000000
0000000000000111
1111111111111101
0000000000001100
0000000000110001
1111111111001100
0000000000000100
1111111111010010
1111111111011011
1111111111010100
0000000010110011
0000000000111001
1111111110100001
0000001111110111
0000001111000100
0000001110100100
0000001010010000
0000001010111010
0000001100101111
0000000000011000
0000000000111100
1111111111101011
0000000001110100
0000000000101101
0000000100101101
0000000110100000
0000000001100000
1111111111011100
1111111111000010
1111111110000100
1111111110111010
0000000000101001
0000000000110001
0000000000010101
1111111111111001
1111111111111111
0000000000001011
1111111010111001
1111111011111111
1111111010100100
1111111010011101
0000001100100001
0000001001110011
1111110101110000
1111111110110010
0000001000111110
1111111011110111
1111110101101111
0000000010101100
0000010110100111
0000001111101000
0000010011010101
0000001101100010
0000000010101110
1111110101101001
1111101011110110
1111110100100010
1111111100001101
1111111111001011
0000000000111100
1111111111111001
0000000000001110
1111111111100010
1111111101010100
1111111011110101
1111110100001011
1111110100111101
1111111001001101
0000000000010110
1111111101001110
1111111011110110
1111101010011011
1111111010110100
1111111110111111
0000000111100111
0000001110010010
0000000101110110
0000000001010000
1111111111101000
1111111101001110
1111111111011001
0000000100100111
1111111000010001
1111111010111110
1111111101011110
1111111100011001
0000000000010101
1111111111111101
1111111111011000
1111111111101100
1111111111010110
1111111001011101
1111111000011001
1111101110000000
1111101011110110
1111110011111111
1111110000110101
1111110001000101
1111101010001101
1111111010100001
1111111001011010
1111111111000101
0000000000011011
1111110001111111
1111100101001001
1111011000010000
1111000011101110
1111101010010011
1111101101011110
1111101000000100
0000000010101001
1111111110010101
1111111010100001
1111111011110001
1111111011010101
1111111111011111
0000000000001010
0000000000100000
0000000000101101
1111110100011001
1111110110101100
1111110100110010
1111101110000111
1111101110110110
1111110000111110
0000000101100111
0000000101000000
0000010110110110
0000000011110011
0000000010011011
1111110110001100
1111110010010101
1111100000000111
1111101001101101
1111110110111101
1111110100011011
1111101110001011
1111110110111101
0000000000100100
1111111110000101
1111111110101001
1111111000010000
1111111001000100
0000000000011001
0000000000000000
1111111111111111
0000000001100101
1111110111000101
1111111010000001
1111110110100011
1111111101000001
1111111000101011
1111101100000101
0000000010011010
0000001011000000
1111111110110000
0000001111010001
0000010010110111
1111111110000011
1111101101101000
1111011011101000
1111101100101001
1111100100101000
1111111000100100
0000001010101001
0000000100110110
1111111100011001
1111111101000011
1111111010101111
1111111010001100
1111111100111000
1111111110101011
1111111111010100
0000000000001001
0000000001101110
1111111100011011
1111111011110010
1111111000101110
1111111011111101
1111111011101111
1111101110000010
1111110101010001
1111100000010010
1111111001111110
1111111001110101
0000000010111111
0000000111110011
1111101100010101
1111101010000001
1111101010101011
1111101100110100
1111111010010011
1111110011111101
0000001000111000
1111111110110100
1111111110100010
1111110111010011
1111110101010111
1111111010101101
1111111111011101
0000000000110001
1111111111111011
1111111111011101
1111111000001101
1111111100000110
1111110111101011
0000001101010110
0000001111110111
1111110101101100
1111111111010000
0000000000110111
0000000010111110
1111101001011010
0000000110110110
0000000101010100
1111101110111001
1111011100010001
0000001111010110
0000000100000100
1111111011011000
0000000001101111
0000001000001111
1111111110101110
1111110010010101
1111110110111100
1111110010011001
1111111011010101
0000000000000111
0000000000011010
0000000000100011
1111111110111101
1111111000110111
1111110111110101
0000000001110101
0000010000111010
0000000000101101
1111110111100100
0000001111101001
1111110101111111
0000000011100000
0000000011010101
1111111001010001
0000000110001101
1111101101011101
1111110011110011
1111101110101110
1111110010011100
1111111100010110
1111111011000101
0000001110001011
1111111100010000
1111101111000011
1111111001101110
0000000001001011
1111111111011100
1111111111100001
0000000000010101
0000000000001011
1111111111111010
1111111001011001
1111111000001000
0000000011011011
0000001000100010
0000001000101000
0000010011011100
0000000100110101
1111101001010000
1111111011000111
0000000110001011
1111111101011010
0000001111000111
1111110001001010
1111110000011101
1111110111100111
1111111110001111
0000001000100110
0000000110111001
0000010011001110
0000000001111111
0000000000011100
0000010010110000
0000001010100010
0000000001001000
0000000000011001
1111111111101100
1111111111101011
1111111111000010
1111111011000111
1111110001001111
1111111110011111
1111111001110010
1111110111000100
1111111100010011
1111111110001001
1111110000101001
1111110100011001
1111111101000010
0000010001000010
0000010101001110
0000000010000010
0000001010010001
0000000001010010
0000001111101110
0000100011101001
0000001101111001
0000000010101101
1111111111000111
0000001101110011
0000010001011000
0000001000100000
0000000110101001
0000000011101011
1111111111011111
1111111111111100
0000000000100011
1111111110011010
1111110010011101
1111111010000011
1111110110011100
1111111101011111
0000000000001111
1111110101100110
1111110010010111
1111110000001010
1111111000010111
0000000011001101
0000001111110100
0000001110101011
1111110100110110
1111111010111010
1111111011111100
1111110111101111
1111110101011000
1111111110101011
0000001101111111
0000010010111101
0000010001000000
0000001100010000
0000000011111010
0000000000001010
0000000000010001
1111111111100011
0000000000001000
0000000001001101
1111110111001010
1111111000111111
1111110100010011
0000000001011011
0000000001001101
1111110110000010
1111110011010100
0000000111100111
1111111110001101
0000001101111110
0000100100011100
0000000000111000
1111101010011110
1111110100000000
1111111101011111
1111111111110001
1111111010111011
1111111010101010
0000000011000010
0000010011101110
0000010011011100
0000011001100101
0000001000101011
0000000001010000
1111111111110010
1111111111011001
1111111111001111
0000000000010010
1111111101001110
1111110111011001
1111111111000011
1111111000101110
1111110100000000
1111111001101111
0000000111011000
0000010101011001
0000001010011010
0000010000111110
0000011010110101
0000000010100110
1111111001100110
1111101110011111
0000000111011010
0000000110000100
1111101110010110
1111110100010010
1111101111110001
0000001110101110
0000001100110001
0000011011001110
0000000111100101
1111111111111100
0000000000101001
1111111111111111
1111111111100100
0000000000010101
1111111110111110
1111110000001011
1111110010000011
1111101001011100
1111101001100111
1111110000010000
0000010000011111
0000010000110010
0000010100011101
0000010100101011
0000001101111101
1111111010000010
1111111010110000
1111101010100110
1111110110000001
0000001001110011
0000000000001001
1111110100001100
1111110000101111
0000000000010011
0000001111111100
0000011000010011
0000000100111000
0000000000111111
1111111111100000
1111111111010110
1111111111000110
1111111111111001
1111111110010111
1111101111000111
1111101101100011
1111100110110101
1111110001011010
0000001110100100
0000010100110111
0000000100001111
0000110100101011
0000001101100111
0000000110010001
0000001100101100
0000000101000110
1111111100100011
1111111001010100
0000001110101111
0000000011001011
1111111011010100
1111111100110100
0000001001010010
0000010011100111
0000001110100100
0000000000100111
0000000000111000
0000000000010001
1111111111011001
1111111110000101
1111111110100110
1111111100111010
1111101101001101
1111100111111101
1111100001101101
1111100101100010
0000001100110110
0000010111010110
0000101110001100
0000011110011011
0000011110000100
1111111001111100
0000000001110011
1111111101011000
0000001000101000
0000000011001110
1111111110111101
0000000010111010
1111110111010010
1111110111111001
0000000010100110
0000000001000001
0000000100010101
0000000001101010
0000000000010001
0000000000001001
0000000000000000
1111111111110101
0000000001111010
1111111100010011
1111110000010110
1111101010010011
1111010111010111
1111011010100010
0000001011011000
0000011110101010
0000010110010010
0000101011101110
0000001010101110
1111111010000100
0000000101111100
1111111010111101
0000000101000100
0000001001010110
1111110010100100
1111111010100000
1111110010010110
1111100111110111
1111110101010001
1111111010010000
1111111101110111
0000000001010011
0000000000111010
1111111111100101
0000000001000000
0000000000000001
0000000001100000
1111111111101110
1111111011000101
1111101110010100
1111010111111011
1111100110010011
0000100000011010
0000011100000001
0000011001101000
0000010111010111
0000010111011001
0000000011001110
1111111111100100
1111110011100000
0000001000111101
0000001111110000
0000001000010001
1111110100011010
1111110001010001
0000000100001000
0000000110011101
1111111000100000
1111111111101001
0000000001101101
0000000000000011
1111111111100000
1111111111100001
1111111111111111
0000000000111111
0000000001101011
0000000000100011
1111101110000110
1111100100111100
1111110001100000
1111111110011001
0000001000111001
0000001110110100
0000001101000000
1111111100010111
0000010001011001
0000001101010111
1111111000110110
1111110001101100
0000000000001000
0000000111000000
0000000001101000
0000000010111101
0000000001010101
0000001011011001
0000000000111011
0000000011100110
1111111110111111
0000000000011111
0000000000010010
0000000001000100
0000000000001011
1111111110001011
1111111110001111
1111111011110011
1111111000001101
1111100110101110
1111101001101110
1111110001100100
1111111100000111
0000010110000010
0000100101111000
0000010100111111
0000101010100010
0000001101000100
0000010110011010
0000000011001111
0000000101101110
0000010000010010
0000001001010110
0000001100100001
0000000111011110
0000000000011001
1111110111000110
0000000101011001
0000000000011101
1111111111111110
0000000000111010
0000000000101101
0000000000010111
1111111100010011
1111111011100110
1111111001110110
1111110010011100
1111011110000111
1111100011101010
1111101011011110
1111101001100110
0000001100110011
0000001110001011
0000001001101010
0000010011110110
0000001000100010
0000010110100110
1111110110010010
1111111011010101
1111111000101110
1111111011001011
0000000001111100
0000000000011111
1111111101110001
0000000000101111
0000000010101110
1111111111111000
1111111111101110
0000000000000000
1111111111100101
1111111111011010
1111111111011011
1111111101110110
1111111001011001
1111111101001011
1111110110011011
1111101010010100
1111100111000000
1111110100101001
0000000001011110
0000000100011111
0000000011011101
0000001101110001
0000000110110011
1111111110100100
1111111011011100
1111101110111111
1111100110101010
1111101110000010
1111111001100100
1111111011101100
1111111110001001
1111111111010111
0000000000010001
0000000000010001
1111111111111000
0000000000001110
0000000000111010
1111111110101101
1111111111111000
1111111110000001
1111111101110000
1111111001101111
1111111001011100
1111111000010110
1111110010100001
1111110000000100
1111110110000010
1111110010110000
1111110001111111
1111110100010101
1111111011110010
1111110111001001
1111110101110000
1111110100111101
1111111001000000
1111111001110100
1111111100101111
1111111110100101
0000000000100111
0000000000100010
1111111111110000
0000000000001111
0000000000101011
1111111111101101
0000000000000000
0000000000011001
1111111111101010
1111111111100001
0000000000100001
0000000000100011
1111111111010101
1111111110010111
1111111111011110
1111111110001001
1111111111010011
1111111100110110
1111111110101110
1111111101110111
1111111111101010
0000000000001001
1111111111000010
1111111101011001
0000000000001011
1111111111011101
1111111111101101
0000000000000000
0000000000100000
1111111111111000
0000000000011011
0000000000000011
0000000000011100
