11111111111111111011101000000100
00000000000000001011100111110100
11111111111111101111110011110010
11111111111111110011111110101101
11111111111111110000000100111011
00000000000000000110101110100111
11111111111111101010001110100010
11111111111111111010111000001100
11111111111111111001010110001010
00000000000000000110001001111100
00000000000000001010110101111101
11111111111111110101011011101101
11111111111111111100001010001110
11111111111111101000111000111001
00000000000000001000011110010110
11111111111111111000001001110011
11111111111111110011010101001000
11111111111111100111101001111110
11111111111111101100000101110110
11111111111111110110000001110011
00000000000000100101111100111111
00000000000000000000110101110001
00000000000000101011011110111111
00000000000000000101010001001010
11111111111111011110011000001001
00000000000000000010111100110000
00000000000000011000111111110000
00000000000000001100011001110000
11111111111111110101011010001001
11111111111111011000101110100110
