11111111111111110001111111100100
11111111111111111110000101110001
00000000000000001010110111010001
11111111111111101111001000111010
00000000000000000011000111001101
00000000000000000010001011101110
00000000000000000001111001111011
11111111111111111011111000001011
00000000000000011000001111010011
11111111111111111001011101000110
00000000000000010100111010111111
00000000000000001011111101100111
11111111111111110010001000001101
11111111111111100011100010110000
11111111111111111000011011000111
11111111111111011111111110101010
11111111111111100011011101110110
00000000000000001010011000010001
00000000000000001101001110110010
00000000000000000000100000010011
11111111111111110110000010111101
00000000000000011000001110000101
11111111111111101101100110100100
11111111111111110011000011111010
11111111111111100111100011101000
11111111111111111110101110101011
11111111111111101111100100011001
11111111111111101000011110100101
11111111111111100111000010000100
11111111111111110010010001111100
