11111111111111111111100100000011
11111111111111100101110101010000
11111111111111100010110011101110
00000000000000100010100100101000
00000000000000001110110110110011
00000000000000000000001010001000
00000000000000001110101101011001
11111111111111110000001000100001
00000000000000000011111101011001
11111111111111110011110110001000
00000000000000011100111000010101
11111111111111100110010101001000
11111111111111101111001100001001
11111111111111110100011001001101
00000000000000011000101010010010
00000000000000000101001010000010
00000000000000011001110011001111
00000000000000010100101100001000
00000000000000000011000101111011
11111111111111011110000001110000
11111111111111110000100011101011
00000000000000001100111101100000
11111111111111010111000110100101
00000000000000000010110101000001
11111111111111011100111001100110
00000000000000011011001101101111
00000000000000010000101100000011
00000000000000100011001010011101
00000000000000000011100010101000
00000000000000000100101001001110
