11111111111111100000010000111001
11111111111111111001110011111011
11111111111111101011101001000111
00000000000000101000111111100100
00000000000000001111000010001010
11111111111111111101011011101000
00000000000000010110101110110001
00000000000000000001001110000011
11111111111111111100110010010000
00000000000000001110101010011110
11111111111111110011000001001010
00000000000000000100100101101100
00000000000000000010100111001100
11111111111111110100010001000010
00000000000000010010111110011111
00000000000000001001101100110100
11111111111111110100101011011000
00000000000000001000101001111011
11111111111111111010100101001111
11111111111111111000011011001001
11111111111111101110111000110010
11111111111111101110101110101000
00000000000000010100111010011010
11111111111111101100100010011010
11111111111111110000001010101100
00000000000000000001000010011111
11111111111111110110111011011111
11111111111111110101011100000000
00000000000000001000010100111011
00000000000000000000010010010010
