11111111111111110001011011110001
00000000000000010011111000100101
00000000000000010011011111001000
00000000000000000001100010111001
11111111111111111000011111110010
00000000000000001100110010001000
00000000000000010010010011011001
00000000000000001001001100100111
00000000000000000110001101111001
00000000000000100101111010111001
11111111111111011010111000111101
11111111111111110101111110000000
00000000000000011100010010010100
11111111111111101111001010010010
00000000000000001010010101101101
00000000000000010010001011000110
11111111111111111001110110111010
11111111111111101011110010010011
11111111111111111001001100100110
00000000000000010000101011110010
11111111111111110101101010100011
00000000000000011100111001000100
11111111111111101010101000111010
11111111111111010111101011111100
11111111111111111110011110100111
11111111111111110110000010000101
00000000000000001110111110010011
00000000000000000001011111101010
11111111111111110011100001110010
00000000000000011000011000111110
