1110101001111110
1110100100000100
0001001011101010
0000001111000111
0001000001100110
0001110101010001
1111111010010110
0001001000110100
1111001001011000
0000011011010111
0000010000011111
0000001010001110
0000010110101010
1101110111110001
0001101011101110
1110011001111110
1111110010100010
1110100111110000
1111111001001110
1111110100101011
1101111110011001
0010000011110111
1110000110001101
1110011000101101
0000011010101110
0000000111101101
1111010110110111
1110101010110101
1100010010100000
0001100000011110
