00000000000000100000010100010000
11111111111111111011010000001101
00000000000000001101000101001100
00000000000000001110100111100101
11111111111111111011010011010011
00000000000000010101010000101110
11111111111111110111111101001010
11111111111111101001000111010011
11111111111111111011000100101010
11111111111111111011100111110000
00000000000000010000000001011100
00000000000000011110101100100001
11111111111111111101101110010001
11111111111111111000100000001111
00000000000000000110101101011001
11111111111111100111110010001000
11111111111111100100100000000011
11111111111111111000111110000111
00000000000000001010001101001101
00000000000000000100000001101011
00000000000000001010000000001011
11111111111111111100110000011011
00000000000000000110001010001000
00000000000000011001101110010111
00000000000000000111101111001111
00000000000000001000110001010100
00000000000000010111001010110101
11111111111111111010011100011101
00000000000000001100001100101011
11111111111111111000110001111011
