00000000000000001011111001000111
00000000000000000110001111111110
00000000000000001001001010101011
00000000000000001001001100101000
00000000000000001011100010000101
00000000000000000101010000001110
00000000000000011110000001011101
11111111111111111000101100111010
00000000000000010001011000110111
11111111111111111110110101100110
00000000000000001000110010111010
00000000000000000111011011101010
11111111111111110001001011110011
11111111111111111001111000101011
00000000000000000110001100000010
11111111111111101100011010101100
11111111111111101110010110010101
11111111111111111111110011100110
11111111111111111100011001011010
00000000000000000011100101100011
11111111111111111010000100001011
11111111111111110011000100111110
00000000000000001000011000101011
00000000000000000001110100011110
00000000000000001101010111000111
11111111111111110010000000100001
00000000000000001001110000000100
00000000000000001101001001000110
00000000000000000001100100101101
11111111111111011100111010001110
