00000000000000001000101100000011
00000000000000000100011111100000
11111111111111010001100010010010
11111111111111110111110010101100
00000000000000000100100010111000
00000000000000011011111101011011
00000000000000000101011111001000
11111111111111110111001001010110
11111111111111100111101001101101
00000000000000000111111011111111
11111111111111111001011010101110
11111111111111110011110001010111
00000000000000010010001110101101
00000000000000000010000001000110
00000000000000010000101101011001
00000000000000000110000101101111
11111111111111110010100110000010
00000000000000101100100101000001
11111111111111111101001011100011
00000000000000001011110010110101
11111111111111110010110100000001
11111111111111101111101101000000
00000000000000000001010000011110
00000000000000000001001011101001
11111111111111100001101011110111
00000000000000011010010001001001
11111111111111110010001010001000
00000000000000010001111010110011
11111111111111100111011010010010
00000000000000001100001110011000
