00000000000000000010100010001100
00000000000000000000111001101000
00000000000000000000100111101011
11111111111111111011100001100011
11111111111111110111101100000111
00000000000000010000011110110110
11111111111111100111100101000000
11111111111111111101110100111000
11111111111111111001000110101111
11111111111111110111110110011001
00000000000000000010010100101110
00000000000000010010100010101111
00000000000000010111001010110000
00000000000000010100110000011010
00000000000000001011110011011010
11111111111111110001101010110010
11111111111111111010011101100000
11111111111111111110010111101010
00000000000000000000110111010100
00000000000000001100111101011101
00000000000000001011101110010111
00000000000000000101110001110001
11111111111111110000101100100101
00000000000000000100010001110100
11111111111111111010001001011001
00000000000000001001100001111101
11111111111111110111101011010001
11111111111111110001111101111101
11111111111111111100001110011010
00000000000000001111000111111100
