00000000000000100000001001001100
11111111111111111000100000100000
00000000000000000001001111011011
11111111111111101101110000101111
00000000000000001010010101101000
00000000000000010101001000001000
11111111111111011100101010000011
00000000000000000110001010111001
11111111111111111110010101010010
11111111111111101010010110001100
00000000000000011100110111110001
11111111111111111101111110110011
11111111111111111010100011110110
00000000000000001101111010111101
11111111111111111010010110101011
11111111111111111110011100010010
00000000000000011011010100101111
00000000000000000101110011111011
11111111111111100100111011001001
00000000000000001001110000000110
00000000000000000110000001100001
11111111111111101011100110000010
11111111111111111000101000110101
00000000000000110010011001000110
00000000000000001001110010010001
00000000000000010011011011010110
11111111111111101111110111011101
00000000000000000011101111111110
11111111111111111111010001000110
11111111111111100101010111011111
