0000010111000001
0000000001011100
1111011100000001
0000110100011110
1111000101000111
1111110110011000
1110001011100010
1111000010100100
0000000001100010
1111111001000000
1111100010110011
1101100110001100
0001010100000011
0000110001111011
1110001010110101
0001110010111010
0000011011001000
0001010000110000
1101100111111100
0001010000000000
0000010101111010
0000010101000110
0000011011010000
0001011010110111
0001000100011110
0000011001010011
1110101001100110
0001000010100110
0001111011010111
1111010110011000
