11111111111111001110000011000000
00000000000000011011011101010011
11111111111111011101100111101001
00000000000000011011101101101010
11111111111110110010000000101100
00000000000000011101111110111101
11111111111111110100100111001011
00000000000000001000101011111110
11111111111111100111000100110000
00000000000000010000010100000011
11111111111111100100111110000010
11111111111111001101010001001101
11111111111111100101001010010001
00000000000000011011111001010110
00000000000000101100100010111100
11111111111111111111000111011011
00000000000000000001111010000010
00000000000000001000111000010100
11111111111110111010110101000000
11111111111110111111011101011000
