1101011110011100
1101010010011000
1110100100000011
0001101000100001
0001101000110110
1111010101110101
1110010100000011
1100011000000101
0010111000001111
1011110001010101
1101100001100100
1110110111100101
0001001101010000
0000010110000100
1101100111111100
0010001101010110
0010001101010100
1110111101101010
0000110000010000
1110110110101110
