1101011011010010
1101011000110000
1111100010101100
1100100111011110
0000010010111101
1101010010100110
0010000011010001
0001100101100110
0010010110100001
1101110011011001
0001000010111001
1101000010110110
1110110101000011
1101101111111110
1111011111011001
1111101000110011
1101110101110001
1100111101101110
0001100010100101
0000111101101001
