11111110110001101001011110011101
11111110111111111010001111100111
11111111101000001111111011111110
11111110101101011000010001001100
11111101110000010100000100101001
11111110001001111100100001110011
11111111001111110010110001101001
11111111111011110000010010010101
11111111010100011100000011111010
11111111010101100110110101011010
00000001100001111001010000000011
11111110010111001011100110011000
00000000011011010000111011011110
00000001100100011111110001111010
11111111010001111010000101101000
11111111010000100010110111010011
00000001010100101101000001010100
11111110111000110110010010001001
11111110010101011011101111011101
11111111000110001000010000011011
00000000111101011101010110011011
00000000101011010001110001111111
00000000011000000010001111111100
11111110110000010110011100011010
11111111101000101100001011110011
11111110101101110000100111000000
11111111101101111001010000110000
11111111110011011011100101010010
00000001111000011001000111011111
00000000101010101111011011111011
00000000011100100110000000011011
11111111110110100001000000100011
11111111110010001101001010011111
00000000100111001100111110100111
00000000000111010100100100010011
11111110111111100000011000010011
11111111011000110000001001011010
11111111111111011100000111011011
00000000110011100000100001100001
00000010000011001110110011001100
00000000011110101010111000010110
00000000001111100001011101101111
11111110001011100101011011000000
11111110101110110111111010111111
00000001101000111001001000100011
00000000101111100010100100010001
11111111011001110100100001011011
00000000000101001011000111111111
11111101110111011101011101110011
11111110011010011000111100100010
00000001110111000001010100100101
11111111101001101110001010101110
00000000010011101011010100001101
00000000000100100100110110000000
11111111000000101110010000110111
00000000110011000101001101000100
00000000010010001000100011001010
11111111001001010001110111110000
11111111000010010010000100010110
11111111010001100100011010101000
11111111111010001110100000100000
00000001111011100000101010100001
11111111111101111111001111111010
00000000111011110011101001011000
11111111011011111100011110111111
11111111100100000001010110100101
00000000101011000001011001101100
00000001100100000111011100100001
00000000101010111011101111001001
11111110111110100000101011110110
00000010010110011100010010110011
00000001000011000011010011110101
00000010011110110101000110111101
11111111111100101000100111011110
00000000011111001000000011001110
00000010010001000000001110000000
00000000010001100111101010101001
00000001010011011101111001001111
11111111111001110000011101110001
00000000010010110111010011011111
00000000000111000001011001110111
11111110100111110000101011001111
00000001111100010001101011110010
00000001001111110110110011111000
11111110110011111001010010010100
11111110101000110001000100101010
11111110110110110001001001010101
11111111011001110100101010101010
00000000011100100011101010101000
11111111100000111011000110001111
11111111011101110001001001110000
00000001010011111001111001010001
00000000111000010001110000010001
00000001110001110111001010100001
11111110110100000010100110010000
11111111011000110011001100000100
11111110010011011101000110000010
00000001011100100111001101001001
00000000010001011110001111000111
00000010011100001111111100111110
00000001011001110111100100011101
00000011010010000001110100011001
00000011111001101100100111010011
00000100101010001010011111101001
00000010010011011100011001001101
00000000111110011100110110001100
00000001110001010001111000100101
00000000010011101001100001010000
00000001101001000011100000001100
00000000101001010011010110001111
00000011101000110100111101000000
11111111001100000110100010100011
11111111001100001000011010101100
00000000101101111000011110100011
00000000100010011100001010010101
00000001011101001000011011001010
00000000101001011110010110111001
00000000011101011100101011111110
00000001110011010011010010011000
00000000011001000010001000001001
00000000101100111101010100010111
11111111111100101111011101110010
11111111110101010101010100100111
00000000000111100000010010100111
00000000101110100000110000000111
00000000010110010010001011001001
11111110111100001101011111111011
11111110111001010001011000001010
00000010001111011011101000001101
00000001111001010111001001010101
00000001100000011001101111110010
00000001010011010111110011010101
00000010100100010011000000110011
00000000100110000001100010001111
00000000001111110111101110000110
00000001011011010100100111010110
00000001100101001010100000111010
00000000011100101011011010101010
00000000101010010100010100100111
00000010010000010100010000110101
00000000110100111100110101011001
00000011110110001100010010011010
00000010001011001100111100010111
00000000001101011001010110011010
11111111101100110111101001110101
00000000011010001110110110010011
11111111011000001000000110101000
00000000110011010111101100111101
00000010010001001011111010111100
00000000100101011001110001010100
11111111101101101000110011111101
11111110000011010001000110101100
11111111010101110101100111001010
11111101101100001111001000001000
11111100100111100011110001100110
11111100010000100110111010001100
11111110111100010100111101111111
00000000001001011111101100000110
11111111010110101010101101101001
00000000100010011101001000010100
00000000010011111010011000001010
00000001011111001011100000000101
11111110010000100101000101000001
00000000010001111111110001111010
11111111001011010010010110110000
00000000010001000000110000100100
11111101101011010001010100010010
00000000101001011110001011001000
00000000111010111010110110010011
00000001110110100110100011001010
00000000011111111111011001110100
11111111000100010100010000010011
00000000011101101000100111010010
11111111001110101111000110100110
00000001111000111100011001000100
11111111100001111111001100101011
11111110011100101100001110001100
11111110010011100010011101001010
11111110111011011010101010010010
11111110001100110000101000001001
11111100111101000111011110001001
11111100110101000001010001011110
11111110111001000011100011010010
11111111111111011101101110010100
11111111101111000010010110000001
11111101111001100111111010111011
11111111001011100011101111000100
11111101111111111100000100110101
11111100001010001010111000101101
11111111011010000011100101111110
00000000000111011000001010010010
00000000001011101001001111010000
11111111000100000110001100111101
00000000110011110111010011001101
11111111100010000010100100001011
11111111001000100011100111001101
00000001100000011011111000000101
11111110010001110101000000110111
00000000101001110011111001011000
00000000001001010000110111111111
11111110011100001101011001111111
11111111010000100001001110010000
00000000100100101100111011110101
11111111011001010010110001110010
00000000111000101111101011011110
11111111010101110001010111100000
11111101101011010011010001011101
11111110101111010010100101010100
11111101010111010101110101001101
11111100010110011011001100001111
11111110010010000000010011010001
11111101011001101101100110011100
11111100010100111101000101111000
11111100101111100000101011110011
11111011111001100001100110100011
11111101000011101011001001110100
11111101001111000001101000001001
11111100111011110010010001011001
11111101000110001100001100010110
11111100101111110110011010011011
11111110010000101100101001010011
11111111000011110011011010110011
00000000110000000100101111010101
00000000110111001111110100111010
11111101011110000100101110111011
11111110010101110111010101001111
00000001110101110101011111101110
00000000011110001101110011011111
00000001010000100110110011100010
11111101111101010100111101100110
11111101111011011011010101001101
11111111000011100000010011011011
11111110010100001100110011001110
11111111111100111101100100111010
00000000011100101010000010001110
11111111001110101010111000011101
11111110011101011001000111001101
11111101110101010101011010001011
11111111101010110011111100000110
11111011110101010001000000000000
11111010001101010100101101111011
11111100001011101000100011000111
11111101010111010101101110010000
11111011100011100010111010011001
11111101000010111110000011111100
11111011101000001011001101010110
11111101110111101010111110000110
11111011001110000000001011101011
11111100011001001100101001101100
11111110111000011000100001100101
11111110001001101011111001110100
00000000111111111111011010110010
11111111101111000001111000111110
11111111011010010100000011000110
11111101111001101011001110001101
00000000010100100000010101101001
00000000001011110100100011101100
11111101000100001100011001101101
11111110001110010011001100000000
11111111110000001110111011011011
11111111001010101100101011101000
11111110001111110111011010101001
11111101100101011100010111010001
11111111100111101111100110110111
11111100011101010110000001110110
11111100111000011110100000000001
11111100101100101100111100011111
11111001101000111000000100000111
11111101101110000010110001100111
11111010111011010010100110000101
11111011011000100110001001010001
11111011001101001000100100100011
11111100110000011110001011000110
11111100101111001010110110101100
11111010011000000100001110110101
11111100000001010111100000100001
11111110100100111000000101010001
00000000101001110111101101101100
11111101111001110010000111001001
00000000010001011011110101110001
11111110100010100011101000000010
11111110001111100111100110000110
11111111111111001011011110101111
00000000101000000110111100101100
00000000000011000110100001110100
11111111100111010111111101110111
11111111111011111110000110100000
11111100111011001010110000001000
00000000001100111110010111110000
11111111010110101100111001010000
11111111010110111001001010010111
11111110101000000101101111100110
11111111001010001000111101110101
11111101001101001110100011101110
11111010111110111001100100101000
11111010010110111101010001000011
11111011010111101011011001000000
11111110101101000110000000001000
11111100100111010000100001001001
11111100111001011011001001011101
11111011101100011110011010000010
11111101001001100100101001000111
11111101001110001010110100011101
11111110011111011011101011000010
11111110000000001100011001010001
11111101111010000110101010100101
00000000110100100110110001111111
00000001010001010100111101101100
00000010011111111010001001110101
00000000001000110101000100010001
11111111011101110011000101111100
11111110100011011011101011001000
11111111110111001111111000000001
00000000110100101111001010101101
00000000101100110000100101000010
00000001010010100111010101001011
11111111100011101111110000011101
11111111101001100000011000011001
11111110110011000010010101100010
00000000010111000111111100100010
11111110000011100101010001100111
11111100000101110010111011111000
11111011000100000100111110001001
11111011110100101001010011110000
00000000000101110110110110010011
00000000011001101101110001000011
11111110111110111100110101001110
11111111010001000110101110101101
11111101111100100001111111011000
11111110001001001100011000000010
11111110110100111001011101011001
11111100010010000110011100000111
11111110000101010010010010001111
00000001000001110110001010100111
00000000001001000010101111101001
11111110011000010010110100101010
00000000101101110100001000001010
00000001111011000110010010010110
11111110111101001101001011100001
00000000011001010011010001101001
00000000111001000001001111111100
00000001110101110001111001001100
00000001010010000110110000001111
00000000011100100001101001100110
00000001010000110011011100101100
11111110010110110110110010000001
11111110110110101110011000001010
00000000110011100000000101111101
11111110111100011010000011011100
11111100111001010110110011110111
11111011010101111000100000101011
11111111101110100111101101000101
00000011000110000101000100001110
00000011001000011111011101110101
00000001010101100010001001010010
00000001111110010100001100101110
00000001011000100111011111011111
00000000111011100101010000110101
11111101110100011110101100011100
11111110000100011101010100011110
11111100110001011011011101001110
11111110111010000100001000100001
00000001000001001000011000001000
11111111111001011010010010101100
00000000010110010001010001111011
00000000001100000010011110010110
00000010001111111011101011001000
00000000000001100101000101100010
00000001001100011111011110111010
11111111011101100110111000001100
11111110101101011011101011100111
00000001000111011011101110101011
11111111111010001100011100100111
11111111011010110000001011101001
00000001001011000111011011000000
00000000010101101000100111100010
11111111111001000010100001110001
11111101110000000100100011111000
11111110101101011011101101000000
11111111111010010100011110100101
00000100000011010001111001001010
00000011100110001001111011101011
00000100011000011110110010111011
00000010011001101101111111110000
00000010100011111110001001000011
00000010001101000111111111100000
00000000111100111000100010111100
11111111110010010000010110111100
00000000001010000000111000001101
00000001010111011100001010011010
11111111001000001000000011101110
11111110101100111000010010011011
11111110010100011001100110010111
00000000100100101001100010011111
11111110000000011101100001010111
11111111110110001110011100001110
11111111001001110110100011100101
00000001001001100111111110010010
00000100010111101110100101001011
00000001100100110110011111101011
00000000110111111100100000101001
00000000010110000110101011000101
00000010111010110000000001000010
00000001001000000100100101110111
00000010001010111101110010101010
11111110101010010010011100110111
11111101111110010010110000000000
00000011100010110011001001101010
00000101001100011010111011000110
00000101111110001100111010000101
00000010001010100110100011011011
00000010100001010001111010110110
00000000100000011100100101000100
00000000110011110010010011110111
00000000010100000101110000111101
00000000000011111111000111001011
00000000001100001001111101000011
00000000010000001101110011001110
00000000111001100000001101111000
11111110101110101010110111000010
11111111100111111110100001100010
00000001000001011101101011110011
11111110001000001101001111011110
00000001100100010110001111101101
11111111000111011011111010000000
00000001001101101111010010001011
00000010010110101010010111010100
00000000010001110011100101010011
00000010100110110100100011110000
00000001010111010001100111000010
00000001101111001011011011000111
00000001101001111101100010111100
00000001001000100011000000010001
00000000000000100110010101011101
00000001111010101101011010010000
00000100101100010001110101111011
00000110101110100010111000011101
00000100010000111001110011111001
00000010101000001001001000111000
11111111011010111101010011101011
00000001100101010101100101110011
00000001001111000110001100111110
00000001000010111110010111111110
11111110100101111011011010000111
00000001010110001001100010000011
00000001001000000011001000000000
11111111010010111100100111110100
11111111101011111000001111100000
00000000011011111100001011010111
00000000001010010000111111001101
11111111110100010100011101001011
11111111001100001010010100000110
11111110001010011000011101101000
00000001001011111101100001010000
00000000100110000100100100110010
00000010101000010001100001111000
00000011010111100111001110001101
00000100100000100111000010100000
00000101100010010011100101101100
00000101011111001110010010111110
00000001000001101111011011010100
00000010001101111100100010110010
00000010000000011110010110000100
00000101101000000100111100010110
00000011110001010100110000110011
00000010111100011101011011111100
00000010001011101011101000111110
00000000011101010101011011100000
11111111001111110100001010110100
00000001000110100111001111011101
00000000100110100011001110011101
11111110110111011011101110000101
11111111101001000000011001100111
00000010101011010100110001101010
11111111000001110101010110110101
00000011010110110011111001010100
00000001000111110110100010001000
00000001001101011111101111110101
00000000111000100000111110010001
00000000110011101110101000110110
00000010000001010010010001101010
00000000011000011010100111011000
00000000000110101001101010001000
00000010101010011011011001110110
00000011100110101111000111000011
00000011110000001110010101100101
00000101100000111101010011010001
00000011100100111010101001001111
00000100001111101001110111100001
00000010001111000111111000101001
00000101001101100011010000111111
00000100001100111001001011001100
00000011111111000010011111100111
00000000110011100000101101010001
11111111001001001000010000010101
00000000000101011000001011101110
11111111010101100011111011000000
00000001111001000010110001011011
11111110111010110001000111111011
11111111011010111111011111000101
11111111010100011111000000110101
00000011000110000011010011011101
11111111111110110010011100111000
00000000011100100011001100001011
11111110100100100110001010001110
11111111101111100010011101100011
00000000111100001111101011111011
11111111000110001101010010011010
11111110111000100110111000110111
11111100110001011011101100100011
11111110001001100001110110000011
00000000110111010011110011001101
00000001000110001111101000111010
00000001111000110100001010110101
00000010010101101001001101001000
00000100100000101011011000111010
00000011100010110001110001111110
00000000111111111111110000111100
00000010001000011000001000001011
00000011000110001101100101011100
00000001011001110001000010101101
11111111001111001110000010100000
11111111111111101000001010010001
00000001101100000010000110001010
00000010100010000001000011111100
11111111001011100011110001000110
11111110111011010001110111000000
00000010001000010001100110111001
11111111101001100101100010110101
00000000101000101001011100011100
00000000010100001100111111001011
00000000111011100000001100001000
00000000010000101110001010001110
00000000011001110001111000000110
11111101111011001001001100110001
11111101100010101100001010001000
11111110101010101101101010010100
11111101111111010110111100110000
11111101111101000110110010111101
11111110110011100000111010101111
11111110010010010001111110001100
11111111001101101010111111110100
00000000111010110110011011101101
00000000000010100101100010111101
00000010000110100011101101000110
00000010001110101110010111110000
00000000001010101011101011010101
00000000110111010100000100110111
11111111111111101001011100001111
00000000101111110100111101111110
11111111011101111110011010010011
00000001001101000011101010110100
11111110010100010100111010010100
00000000101111011000101001110011
00000000000011100000001010110001
11111111100111000000111100000001
00000000000110100111111111010011
00000001001010000100000100110001
11111111000001111010111101100011
11111111100111110011010111010011
11111110111010010010010000000110
00000000100011000000000010011000
11111101111111000100110101010000
00000001110011101101010111000000
11111110000010000100010001000100
11111111100000001011100101101011
11111110111010101000011010100011
11111011000011010011011101010110
11111100010100000101010100001110
11111101001011000010101101000100
00000000010100000110111010110101
11111110110010111010110001110101
11111111111001001010101011000111
00000000010101011000110000011001
00000010010010101000110110011011
00000010101110101111000001111000
00000001011101111110001111100000
00000000001111010111100011011010
00000000011011110000001101111100
00000000000100101101000000001100
11111110010100001000011010101000
11111111001011000010100000111111
11111111100001001000010101101001
00000000111010001001100000011101
00000000101111111100011100011010
00000000011001001000111111100011
11111111110111101100000010001111
00000001100111100111100111001001
11111111010110101100110111111010
11111111110111010001001101101100
11111110110100011001110101001010
00000000010111100100110000000111
11111111111001000001111101010000
11111101100000010111000100011010
11111100100010101011111110001011
11111110011110011110101101001000
11111101011100010000110101101100
11111100000010110101010000110110
11111110011010000000101101010001
11111110010110011011010011010000
11111111111010011011111011101001
00000001100001001111011111001100
00000000010011100101010100010001
00000000001011000111001001000000
11111110100111111110110001110010
11111101011000001000100001110110
11111101111001011111101110001101
11111110001100100101011000000111
11111111000000100101111110110111
11111110010000010001110101000110
11111110101111111010001011010100
11111101011111101100011011000101
11111111001000101111000111010110
00000000001101011011011101111111
11111111111010101100001001011010
00000000110110111111101101000010
11111111100101010101100011111001
00000000110110010100110010010001
00000000010001000010101100110001
00000001011001111100111100111101
11111111001110011111110111011001
11111110001001000010111011010101
11111011101011100101100000101011
11111110100011111001000100011100
11111101000100101101001011100111
11111100001000000010101001111100
11111010111000000010110100110101
11111011010000100000011110101101
11111010111111110000001110111111
11111100100000001011010110001100
11111000100011011010000011110100
11111001101011010111001110100011
11111100111111001100010101001111
11111101110111110011010011100010
11111101110110111100010010011100
11111110011110110001010111110110
11111111100011010010110001101000
11111110011110100000000010111000
00000001101100100011111100111111
00000000100000000101011110110100
11111111000010011011001010101110
00000000110000100110000011100000
11111111101101011110001000101010
00000000001100011111001010001100
00000001101011111110010000000100
11111111100010001010101001110110
00000001001000101000001100111000
11111111101010011000111110110001
00000000000001111100110101011000
11111110100110010101011001110001
11111111001010011011100001110111
00000000001010101011100111110001
11111011110000111011111100111111
11111011101001110011010011111011
11111011011101101010010000101000
11111000111010010101111000010100
11111000000000011111110011100110
11111000111010000001111001001000
11111000100011000100011011010011
11111010011100101110011010110100
11111010111000000110101011111010
11111101001011000001000011100001
00000000000001100111101110001010
00000001010110000010100111100101
00000000100111100001000000010110
00000001100111010001110011110011
00000000101110111000110010110000
00000001011001001000000000001001
00000000110100011011011110100001
11111110000011101011000011011011
11111111111110100101000000011000
11111111110000000100111111111000
00000001011100000001101010010110
00000000000001010111100110100100
11111111100101100010101110001110
00000000110000100101001111010011
11111111100001101111001011111011
11111111010110111101010010010101
00000000010101000010010100011101
11111111110000101100011110001010
11111111001110011111010000001101
00000000001000111100111001111011
11111110010111010111000100100110
11111010110011110100000011110011
11111101001100010010111100111110
11111101000011111001011000010001
11111100000000000100100010100001
11111111000000101001101100010100
11111110011111000100001001111010
11111111111101000001011001011000
00000010110011100010101011010111
00000000111110010001000101101011
11111111110111101111010111111111
11111111110110100100000101000010
00000000011010011000011000111011
00000000000110101000101000110100
11111110111001101111001010001001
11111110000001110101100011111101
00000001100100110101001111101110
11111111000011111111100111100100
00000001001100101110101111111011
00000001100101101101001010001001
11111111010110110111110100000111
00000001001110100101111011011001
00000000000100011100101001010011
11111111111001100000011010100011
00000000010010111111101000110010
00000000001001101000010011011010
11111111100101011101000110111000
00000000100110010011011110001010
00000000111001010001010000111111
00000000111000010011000110011000
11111110111011001110000000001001
00000000000101111000110011100101
11111111010100000010011100100101
00000000100101111100011010111111
00000000010111010010001100001111
11111111000000111010010101110100
00000010111100011001111001100011
00000001000010101001001110101000
11111111110110011001000101100010
11111111100111001011011111000100
00000001011110000100110111111100
11111111101010110001101000000011
00000000110110001100100000001010
11111111001111110111000000101011
11111111000110111101000011110110
11111111000011001100110111010010
00000000100111000110010001111011
11111111100101101101001101010100
11111111111000010101000100010100
00000001101100001011101011111011
00000010010101100001101011011100
00000000001111001111011001000100
11111110000101110001101001111000
11111111111101010111011101000100
00000000011111000101001001001101
11111111011111001110010001010110
11111111111110011000101101010110
00000000001101011010111010001101
00000000011111111100011010100011
11111101100000110110010100010000
00000000110111111100110011001000
11111110011110101111011010110101
11111111011010011101110011000010
11111111010110000101100000110110
11111110110110011010100001000001
00000000001111100000011101110100
00000000001110000110001110001011
00000001001010110100110111111101
11111111010010101110010010001011
00000000000100011011100110010001
00000000100110010101111001111100
11111110001101011101000100001000
00000000001110100011010110111111
11111111011011000111100001010110
11111110101000100000001010110111
00000000001101100000111000010111
11111110010110100010100001111101
00000000110000010100010111010011
11111111111001101110100110111111
11111111100011000100101100010001
00000000110010110011001001010010
11111110010000100011000011111100
00000010010010011001000011010010
00000000010111111100111010111101
11111110000110011100101100010110
11111111100110011011011000111101
00000000110011101111111011110100
11111100111000001001001010001110
00000001100000100001111101111001
11111111111101010010110010111111
00000001000010010110000000111011
00000000100011011101110101100001
11111111110110001011010011000010
11111111101001111010110010110101
00000000010111001001001001110111
11111110111010100000011000000000
00000000100000010010010100110000
11111111000010000110010001111011
11111111010010110000110100001001
00000000000001000101011000001001
00000000110100100010010100001100
00000001000100000010100101101011
