11111111100100111000010101011001
11111111001000011110010101011000
00000000001101110001100100101111
11111111110100100101100010010011
00000000101101000110100010111100
11111111000000111111110100111111
00000001000100110111110010101100
11111101100011001101010010000001
00000000100111110111101011000001
00000001110111110000000111001110
11111111100111000110101011000001
11111110111010100001110111100011
00000000011001000101000110110100
00000000011000101001111000110100
11111111010110100101100011100111
11111111111100011110001000011010
00000000000101011000100101001010
11111110010100000010010000100110
11111111101110011101100001100101
11111111001101110100100101100101
11111111000100100000010000001111
00000001011110111100101000010111
11111111011111011000100001111100
11111110011110101010100101101101
00000000010001011100100100100101
11111110010111001010111011001001
00000000110001000110000100000001
00000001111010101111101001010101
00000000100101001010001100011000
00000000101101111010111011111001
11111111110100101101010011010110
11111111110010101011110100010000
00000000001010010000101110101111
11111111100011001110111111100001
11111100110101001011110110001110
11111110101101100110011010111000
11111111101101110010111011011000
00000001000110001001100001100011
11111111001011100110110000100001
11111111011010101010101001000000
00000001001100100000001101011100
11111111101010111100101011101100
00000000010110010100110010110011
11111101001000000111100110010110
11111111111110110000001100011101
00000000111100000101110001001000
00000000011101010101001011100000
00000000110010110110000100111100
11111111011000000010000011100000
11111110111101110100010011101011
11111111010101110010001110111000
00000000010110100110101101011100
00000000010110111101101001010001
00000000000000000110010000110110
00000001010111110101001011100001
00000000001001001100101100001110
00000000111100011101000111001011
00000000001001111000000100001100
00000000110111111100000101001110
00000010011001011111001100101101
11111110100000000010111100100110
00000000010111100111111001011000
11111111100110101010000100100001
00000000100111001000110010011000
00000001011000001001100101001010
00000000101101111110001011101011
00000000100111000011111011000111
00000001000011100001100110010011
00000001000111101111000100000011
00000000110011110101100111100000
00000010101111011101000011101111
00000001010110111001011111001111
00000000000100000110000111101011
11111101110101110110011101011100
00000001011011010110001011001000
00000000001111001111010011100001
11111111111010110100110110111101
00000000011010101101101110001011
00000001110001110110010011100111
00000000011111111111100001011000
11111110001101011110100000101101
00000000111010001110110010101111
11111110001000001010111011010110
00000000110100110011101010110011
00000000101110011110100010001110
00000001101100011101010000110110
00000000010001011101110111110100
00000000000111110001101101011010
11111111111110001100001100010010
11111110111101011111000011000010
11111111111000011001110100000011
00000000011101000101010010100100
11111101101001111110001110111001
00000010111110101000101100010011
11111111011011001000000101100111
00000000110110011111110111100011
00000000001101111100110000000011
11111110010100101010001100110111
00000000101111011100100000000011
00000001111100001001111011100110
00000000110001111001010101100110
00000001010001110110011000000000
00000001100001000100111010010111
00000010101010010000110101011100
00000010001010011111100001111000
11111110110011000000101101110011
11111111000110001001011101100001
00000010000011000111110001000100
11111111100110110110011111010011
00000000000010010100100010000001
00000000000101011100100010000110
11111111000000100001001001101100
11111110011101001000100001110101
11111111101100110100111011111001
11111111001101101000100011010011
11111111110011000000110010001000
00000000110001001110110100000001
11111111010111011111100000000111
11111110011011010010001111000010
11111111111100011000001110011001
00000001001011101000111011011100
00000000100001011001011001001101
00000001000100011010111101010001
00000000001101000010000111010101
00000000110111001110101011010011
11111111111010011010100000001101
11111111100011011100011000101000
11111111011101110010100001001110
00000001011010100011011000111000
00000001101110011101101011100011
00000000101001100011000101100110
11111111000001001010011011110010
11111110111001111110111111001101
11111111011001011000000110000101
11111110010110110111001110111001
00000000111110110110011011010110
00000000101000001000101011001000
11111110011011101110100101111100
11111111111000001001010101111111
11111111001110111101100110001100
11111111000011000001111001101101
00000000011110011110000111110000
11111111110011100110010001010010
00000000001101011101000001111101
11111111000011010000101011010011
00000000111010101001010010111101
00000000000110110000011101000111
11111111000001100000111100010111
00000001011011000010110110101110
00000001101100101111001000011010
00000011111100011100011010000001
00000000001101000111001110101101
00000001001011101000000100100100
00000001101010100001011001011010
00000001001100011111001110110110
00000000111110111111110111011000
00000001001101010001001000111001
00000010010011100011011111110100
00000000001101011010101110011100
11111111000101110000111111110111
11111111101001101100101100011110
11111110110001110001001101101101
11111111010010110001100110101100
00000000101101111100101110100110
00000000100011001010001000101011
00000001001001011101101100010000
11111111101011100101101011111101
00000000010001010111100100001110
00000000000001010001100010110110
11111111100110010110111001111110
00000001111100101000011011001000
00000010000110110010011100000101
11111111011101011101000010000101
11111111101110100110000010110101
11111110000000110010100101001011
11111110001011001100011101001111
11111111001000101111111011001100
00000010000000001100110111011101
00000001101110000111011111111100
00000001010001001100001000111100
00000000111001010110000010000101
00000011110110011101000111001111
00000010101010111110100010111100
00000010110010110001111010100100
00000110101011001010101010011000
00000011010001001001000100101011
11111111101111010010100101000100
00000000000001100100001100100011
11111101000011011110011001111111
11111111111010001110111010111000
11111110011100010011010110110111
11111111011100111011101011010101
00000000100010111101011100110001
11111111111001111101100001001010
00000000011000011100001011000111
11111110000001110110100101010111
00000000100101111101000111001111
11111111111110100100111011110110
11111110111010011100000000010001
11111111100111111011000101110101
00000001010101010100001101111010
11111111010010110011001000001101
11111111001000101001010111110100
00000000101110100011110001111011
11111111000000100100101111111111
00000001101100110111001000110001
00000000110110111001100110110110
00000010110011110001111000010110
00000000101111001111101010011001
00000001000110011111001111101010
00000000100000110101011110110100
00000011100110101000100000011101
00000010010101011100111100010111
00000001101111111001111001101001
11111111001100110000111001111011
11111111010011100011111010010110
11111110111011110010011111010010
11111111111101101111011101011010
00000010111110001111100101011101
11111111101011011100101010110101
00000001100010110001000001001001
11111111101000111110101011010110
11111110100001110100000110000010
11111110101110101101001001100000
00000000110000110110100100000101
11111110111011000011101000100001
11111111011101010011000110000011
11111111110111001100101011111011
11111111011101110001110110111111
11111110100010011101001100101000
11111101101110111010111000011001
11111111101001100001111100000001
00000001111010001101101101101100
00000001110100011101011000001010
00000001001100001011011000001101
11111111111110101100110001111000
00000010101011010010011110001101
11111111101110011100100111111011
00000000011000011001100110001100
11111111001001101001010101101110
11111101101000001011010100001000
11111110001010110000110111110100
11111101011101100111111110001010
11111100111101001111011011111001
11111110101111100000000011001110
11111111100001000010010101110000
00000000110100110001000010110011
11111111001111111001011110110001
11111111001010110011011110010111
11111111111110101001010111001000
11111111010001110111001100011000
11111111010100000001110110100000
00000010001011100101101001111100
00000000000010000110100100000000
11111111111101111110101111111000
11111101101000100001000010101100
11111111000000101011100011110101
00000000010111001011011101111011
00000001000010110001001001010000
00000001110110110100110011111000
11111111011101000001000010010000
11111101110010101001001101111101
00000000111000001011011000010111
00000010100111001110001111001000
00000001011000011100111000111000
11111101010000000010010001001111
11111011000101001111101011111011
11111001100000100100000010100100
11111100001010010010011101111111
11111100101100011111111001001011
11111110111000000001111110101101
11111111111000101001110001111100
11111101101111111001010110000010
00000010100011001101011001110001
00000001101110110110100111101011
00000000101100010111010100000001
11111111010110111001011100001110
11111111011100111110111000110101
11111111100011000111101011000010
00000010010000101111100000010011
11111111111010010010111000010111
00000001101011100100010001111000
11111101011101011101000011010010
11111111010101111100100100011110
11111101110011000101100110001110
11111111100110011100110100111000
11111111011100101000011000011011
11111111001101110101110100011100
11111110011010011000111111110110
00000010010010101110010101011111
00000010010101110110000010010011
00000001000101100010011000000000
11111110001000110101100101101001
11111100111111101111110011000000
11111001111110001000011010110100
11111001100111100111010110100110
11111101011000111001011110001101
11111111001011001111011010000010
11111101010111111011001000000000
11111111010001110101100110010111
00000001001111101011101101010011
00000000011101100001111011000001
00000000000010100101111001111100
00000001101010000101001110110110
11111111001000010110010100010100
11111101100111000110001101101000
11111101010110110110000001100000
00000000001111100010100001000010
11111101011110010110011010011011
11111111101000000001111101000011
11111111100110100001001001011100
11111111000010001100111001101011
11111100100001111101011111111000
11111110010101000000101110110110
11111111010110001101011110001100
00000000100101111100011110000010
11111111001101011001101001001101
00000001001000100110101100000010
00000001001011000110001011000111
00000011011101110101001111001111
00000010111110100010011010011001
11111100000010011001101100001100
11110110010110011101101011001001
11111001001010101100010001001000
11111100010011000011111010011111
00000000111111111000011010000110
11111111110111100100111001100000
11111101111011011010101011100100
11111111001000110001011111010100
00000010011001000000001111011110
00000000001000101000111101011001
11111111011001011000001110101011
11111111110111110110010110110111
11111111111011100110101001110111
00000000011111100110011111000101
11111111101101010011101011101110
00000001110011111000110010011101
00000000100111010111100110101110
00000001010101110100010110110100
11111110111101000011101101001100
00000000100100000010000101111010
11111110111101100111111110111011
00000000111010011111101010100001
00000010011100111111111110011110
00000000100100110010001000001110
00000010000101100101001011101001
00000011011001011000000011100001
00000100110010100011010000010010
00000011000010111110111011110001
11111101010111100110100100111111
11111011101000011000100001011111
11111100000001110100100100100010
00000011010111100010011111011001
00000010001111101011101111101100
00000000111111000100100110111110
00000000000011001010001000000000
00000001010000001101001010101001
00000000101110001111101001000101
00000001101011110110111101011100
00000010011100000010100101001000
00000000110100001000100000011010
00000010001010111110111010001100
00000001000101100101000011000100
11111111110001101100101000011000
00000001000101000010000001111101
00000001111101101100000010110010
11111110000011000001000100010111
00000001000001101101011001011101
00000000111000000100001110110011
11111111101001110011111001111101
00000010011001000100111010001001
00000010000011000110001111110111
00000001110110101110111101111111
00000011101100001110001001100010
00000011001100100110100101111100
00000101000111000101100100111001
00000011011100000010100000010101
11111111010101001000101000011101
11111011101110110100100100111111
11111111001111010111100010100100
00000010100000000110111001110100
00000001111000010001001001101111
00000000001101000010110000111101
11111111010011001011101010110101
00000001010101010101100110010001
00000001001101110010111110111011
00000011111110011100100010110111
00000000111110101000001001011101
11111111111100011001101101000101
11111110011011010111100100011111
11111111110101100100000000001010
00000001000110001101011001011001
00000001010110010011001111000110
00000001111000001110001010000110
00000000100011111011101110011010
11111111010001111111100001100110
11111110110100000100100011001010
00000000111000110000110000110011
00000000001111000001011110100100
00000011000101111100011110011001
00000010011000010000110001100010
00000001110010110000101011001011
00000100001110110000101110010001
00000100100101000101011110101010
00000011100111101111001111100000
11111111100110001000110101011110
11111011011101000101011001010111
00000010010111101111111111100010
00000100011010100000000010001111
00000010111000110101000010110111
11111111110010100110110011010110
11111110111011011001110000101101
00000001111111110111101101010110
00000000000010000010000110100101
00000000011010001111001110100110
00000001000111011010111110100101
00000001011001111101101011111001
11111111110111000011111111001011
00000000010110100110111110111011
00000001000100110100000101111001
00000001010011010111000011010111
11111111110100010000101101011010
11111111111111001011010010000110
11111111100101101010110100100101
00000001000000001110000111011110
11111111110111000001101011011101
00000001111110110010000011111000
00000100011001111001000100011001
00000011010011100100011101101011
00000100001110101001100110011111
00000101111101101100100011111101
00000110110010011110100001010011
00000011101100010011101001011101
11111111111010001010100101101010
11111111101100010011001011100000
00000010101100010101010110000100
00000001011111001100010001010101
00000011101000001000010110000001
00000000111100000001011011110101
00000000101101001111100111100100
00000001000011001110110010000100
00000001010010000101010011011001
00000001100011110100010001110000
00000010000100010000100111010011
00000000101100100000110111110111
11111111000101000001111110011101
00000000100010011101011001010110
00000001001110100001000101101111
11111110011110011101110101101101
00000000101100111011000011001001
11111111101000100000011000001001
00000000010011101000100000011000
11111111110011011000000100011100
00000011011100101100111101000101
00000011101111001111001010110110
00000011010101001001101110000100
00000011010101100000110100100011
00000110000100100111011111111001
00000101110001100010101001010100
00000111010000010111011111010111
00000010011011110000101110101001
00000000101000110010101101010000
00000001100010111111111001000101
00000010001101010100010010011100
00000001011101101010010111000011
00000011001101100011111001100111
00000001100101101001001110000000
00000000111110000000011000100110
00000010001011101000111101010001
00000000111101010110010111110011
00000001101110100000101100101110
00000000010110011001101001001001
11111111111010101001100011001100
00000010000001000000011000001101
00000001101100101010101111001011
11111101111001011000001110001101
11111111001001011001000111000111
11111110111010010101011110001111
00000000010100111110010001100001
11111110111011100010110111110101
11111110101001011101100000001100
00000010100111101100101110101101
11111111011011111111101011110110
00000010100000100100001000100110
00000100011011000110100100100110
00000111010011100100011000111000
00000100100011100011000000101110
00000110001101100000010011110010
00000011101010110011110001111101
11111111101010000111011110111111
11111111110111010101110011000000
00000001101010011111100101000010
00000010101001000100111111111010
00000010010110011010101101001011
00000000111000001110010000011011
00000010011001000000100000000100
11111110110010011011000010101011
00000000111101110011000010101110
00000000001101011110010111010110
00000010010010011011100000011001
11111111100111111010011101010111
11111110111010000010100001000011
00000001010000010010001100110010
00000001100000100000110011101001
00000001010110111110011111001000
00000000101101101000110001011111
00000000000111101100000110110110
11111110011110110110100100011011
11111111011001001000111110010010
11111111011010110101001001001101
00000001101000000011110001111111
00000010101010011110010011011111
00000011001101011111010011000111
00000100000111110001111001000010
00000110101000001001101000100010
00000110100001110111001011100110
00000001011100010011001001101000
11111111011110101110001110001001
00000000111000111111000010010010
00000010000110100010000111000111
00000010011111100101100000011010
00000010000111000000000010100100
00000000100110110100010100110000
00000000010010011010100100001010
11111111000100110111110100111101
00000001010111001000111110101011
00000000101100110110011111110010
00000001111001110100111000011011
00000001110010010011000111011111
11111111010011101011001011000111
00000001010100010100001000110110
00000010011101110100001110000100
00000001010000111010001010101100
00000000000011011100100111001001
00000000000011111111101011010011
11111111001011010101001111010001
00000010100110011011010111010011
11111101111010101001100110001111
11111111110010000100101101100111
00000010010001111010000000010111
00000001100111010001101111111111
00000011101011101101001000001101
00000011000111101111011011000001
00000100111010101110110000000001
00000011001010111100001101001001
00000000111101101001010011111001
11111111011110100000100010110010
00000000110000011011010101101010
00000000101101110011011100000110
00000010110001001100110000011000
00000011101000100000001001100000
00000000101100011001111111100100
00000010110110100011011010001001
00000001110110110010011011100001
00000001110101000111010101111011
00000001000101010110100001011110
00000001101000110001010101110100
00000001100000011010010100011100
11111111101110001000111001010111
00000001001100011000011101000010
00000000011000010101111011001001
00000000100010111000111111100011
11111101110111111000101011100000
11111101111110110100001010101101
11111111011100000100001000100001
11111111010110011000011001000110
00000001000011101101100001111011
00000000010011001100000011011111
00000001000011110100001100001011
11111110101100111100011011001001
00000100100111111000010010010100
00000010111110011011110000111101
00000011100100101011110001110111
00000000000110101111010111011111
00000000001100101011100000001001
00000010011101011101111111100011
00000010110001101101110110101111
00000010011111110001100111001001
00000010000011111011011000111100
00000001111101001011101101111110
00000010111101100101111011100111
00000001010101001001101111011001
00000001101111011100101111001100
00000000001100110001111010111001
11111111101101001100000110101100
11111111100111101110010000101101
00000001111011000100110010100000
11111111110000010101111011110111
11111111100110000011111101000010
00000001011011101111011001011110
11111111011111011001100010111110
11111111010100001000010000011100
11111101011110010001100001011001
11111110111011111111101100100100
11111110110101111101000000101111
11111101100010011011110101001111
11111111010101001101010111000001
11111111010101000100000111100110
00000001111111100000111010010110
00000011101111101101110101110100
00000010011101111011001010001000
00000000010101001011111000110101
00000010010110111010010101100100
11111110110010010000001000110001
00000000011101110001001110001001
00000010000100010101101101110011
11111111101011110100111100110001
00000010101100011101010001111010
00000011010111001100101100001011
00000001010110101111010111011001
00000000001100101101010111000010
00000010010111010111111010001110
11111111111011100001100110010100
00000000111001010000101111000111
00000000010011110111010001100111
11111111001111011000001100101010
11111111101010010101001000001010
11111101100100000011111000001011
11111111000110101011011001011010
11111110001101110110100111100001
11111110010101000010001110000011
11111111100100010101110011100001
11111110011001101010011101011001
11111101110000000010000110000000
11111111010010011101100011100111
11111110100000100010101100101001
00000000100011010000110110001111
11111111110011110011011110011101
00000010010100010000110011111101
00000000101100110010101001110001
00000000001100001001111000001001
11111110110010110110010001100111
11111110110101101000100110101110
11111110001101110111111010111000
00000000111101100010001110001111
00000000110010000001110110001111
00000001010001010110101111010000
00000000100010111110110111110001
11111111111010011011010011011011
00000001011111101110011111111100
11111111100101010101101010011001
00000000010011101011110101101010
11111111001100001010001110001111
00000001110001010101001011100100
00000000101010011010000111100110
00000001011100101111110000001011
11111110110100000101001110111001
00000010001001110111101011101000
11111110111100111101001101111110
11111111000110011000010000000110
11111101100010110011100000000001
11111101111111010111101101101001
11111100101110000001000100000111
11111110111111100000101111100011
11111111010010001001000100000011
11111111000000110100001011010001
11111111001010111110101001111101
11111111101001100100011110100100
11111111100000101110010101011011
00000000101101010101011011000011
11111110111000100001100101110110
00000000001011101000001100000101
00000001101001011011111011101011
00000010110011101010000110111111
00000000110010111011000101010011
11111110100110101111000100000001
00000000001000100011101101100010
00000000011011001111110001100000
00000001101100100110011010001110
11111101001011000110110110011110
00000001100110110011111101101100
00000000000100000111011111000001
11111111110001010100000000011100
11111110011111010001001000100000
00000001000000001101001000100000
00000001001000111110100001111111
11111111110001100100111010001001
11111110111011111101111101101101
00000001101101110010011001001000
11111110101011100100011001010000
00000000010110000001000010011001
00000000111010111110110100110110
11111111010101100011101101111011
00000000101011100010101000101010
00000001011111010011100011110101
11111111100100110101111000100000
11111111000011000010100011111100
00000000000111101100101100000100
11111111010100001011001011101101
11111110010110101111111000000110
00000001101110110100111111100001
00000000110001111101111001110111
00000000001100010111001001100100
00000001110100110100010110011010
11111111110111000100011111110100
11111111110111111011100011000101
00000000111011100001000100010100
11111111100100110001000010101111
11111111011111110101111110000111
00000000101100100100111101001010
11111111001000110010111001000101
00000000110001100010101011010101
11111111111001000110000010000011
11111111101011100011100000000000
00000000111100100110111110100100
11111111101000010001100101001010
11111110001010100100110100011110
00000000001001111001000110110101
11111110101010000111010100101100
11111101011000110001111011011100
11111110110101111101001101000100
11111111011010010100010010111011
11111110110001100011101010010010
11111110101000010100100111111111
11111111000111011110000001110010
11111110011100010011111000001100
00000000010100000010011111010001
00000000001110100100001010000010
00000000001100110110000100101010
11111111100100100011011010101000
11111111001110001011010011000100
11111111110010110010111000111010
00000001001111010111101111110100
00000000000000001100011110101101
00000000111010111110100001011110
00000001000010101100000001010111
11111111000001010111111111011001
11111111010000100101101101001001
00000001000000110011001001110001
00000010011011101100101101101010
11111111011001001100111111111100
11111111000110100110100100111111
11111111110110100011101001000101
11111110001101100100101000111000
11111111100011100110111100000100
11111111001001100011000111011101
11111111010111010110110010011101
11111110111110001010100011011111
11111111001100110111010111110101
11111111101101101111010000100111
11111111001111010111100000010011
11111110000110111010110010010101
11111111010011011110001000001000
11111110110111110011110011000111
11111101100011011011000100101101
11111111101100100100010111101100
11111111010100100010111100011011
00000001101110111100010111101111
00000000001111011110011000100111
11111111110010001110100110000010
11111110011010010010100000000001
11111111010011110100100000111100
11111111011001111100011110011000
11111111101101110101110001100100
11111111100101110011111011111010
00000000011010010111010001001011
00000000101111100101110010010110
00000000000001101110100101010111
11111110101011111010011000010010
11111111000101100100101110111100
00000000100001001110000101101101
11111111100010110000100110100111
11111110111110111110001000100010
00000010111111001100010101001111
11111111000111101010100001101111
11111111010110000011001111010101
00000001011011010001100100100001
00000000011111101011110001100011
00000000000101001011110101011010
00000000011000001011111001110111
11111111110100111010111110110101
11111111011000011011110110111011
11111101000101010010101000011100
00000010011010011110000100100110
00000000000000100000010001111101
00000000111100011001111100011001
00000001000010110101011000101110
11111110010100100110001001010001
11111111010000010000001001100000
00000001001000010000101100000111
00000000111011011010011011001000
11111111101110001111010100001100
00000000010100110101000110011000
00000000001010101000011101000100
