00000000111010001011111111001010
00000000000001100000001101110011
11111111001111011101001111010110
00000001011101101100100110011001
00000001001001000100010101001101
11111111101111011110100011101110
00000001010100001001011110011101
00000000101110010110100001101000
11111110011100100001010101010111
11111111010100000100011111011001
11111111000010010001010011100101
11111111010110000000000111100010
00000000001000111101110000011011
11111111100100001100001111011101
00000000110000101100110001011000
00000000110000001101010010010110
11111111101100100100000111010111
11111110100010000001100000100011
00000000001010100101010001001110
11111110111100000000011000011000
11111110101011010000011100001010
00000000111111001001000101100010
11111111100000101000001011100100
11111111111111101011000010111000
11111111001000001100101111001100
00000000101101100001001101110101
11111111110000101010001101011011
00000000110101100101110110001001
00000000011100001111010000001110
00000000011001111010011100010111
00000000101011011111100110001101
00000000000111111111111010111101
11111111001101000010110111110011
11111110011010010010001111010000
11111111110000010011011110010001
11111101101010010011001111100001
11111111100010101011011111101101
11111111001110011100010010001101
11111101111011000010001100100010
11111111111110101011000111111000
00000010000010010000101010111111
11111111101101101001001011110011
00000000001101100011011000110000
11111111111111110100101000001110
00000000001110101010000001110001
00000000000110111110011001011011
11111110000001110100010100111011
11111111101000001010000111100000
11111111111001000011011010101001
11111111011010100100111110101111
00000001110100100010101001010111
11111111000011110000011100111011
00000001000110100101011100001101
00000000010001001000010010101101
00000001010110100001101011011000
11111111110111110011110100011111
00000001001010000100100011111001
00000000110111000011001111111100
11111111011111010111110010111101
00000001011000001010010011010010
11111111001010110111101001011000
00000000000001001010001000111110
00000001111011111101101100101010
00000001000000000010010100010000
00000000001101011001100101000001
00000001011111101110100011011101
00000000010111011111111001000001
11111110010111101000111000100100
00000000001101011010001101101110
11111101101011111100000010110110
11111111101101101011110011010101
11111111011010111010111101110100
00000000001100110000001010010001
00000000110111001110110101011111
11111111000101111011001101100000
11111111001110110011111011100110
11111110100110001011011101010110
11111111100101100001101001000010
11111111001000110101011000111101
00000000011001001100010100101110
00000000011101000100100011001101
11111111001111110101010111111110
11111111110101010101010001110000
11111110011000010000011011010011
00000000000000111010111011101011
11111111010000011101101001100111
00000001001010111011001000110101
11111111010000101010001010111010
00000001011100100011011101111011
00000010011110000110011101101111
00000000011101111010111110001111
00000000000111001110010000101010
00000000000101111001110110101100
11111110001001111011000101000111
00000000011000110100110001011000
11111101101001001110110101110101
11111101001100111001111001011000
11111101001011011001010011101000
11111111101000111100001100011111
11111101100010001101101101001010
11111111100011001001110111101101
11111111111110110111001110011100
11111111010110100100001011010001
11111111001101101010000101100101
00000000001100001010011010110110
00000000100100100111011100010001
11111110101100100101011111000110
00000000000100010010010000101100
11111111110101111001100110111000
00000000011100011100001010010101
11111111011000110110000011000000
11111110011001000111100011001001
00000001000110110001011101100011
00000000111101100000010001110000
11111111110011100011010011100011
00000001001011001101001100010011
11111111000000000001011000111000
00000000011000110100111010010011
11111111101011001111001110110010
00000000000100110000111001010101
11111111011111011101000010101101
11111110101010011101000011101110
11111110001110010010100100100100
11111100100110101000111111010011
11111100010101001111111101011100
11111110111100100001010001011011
11111110001011001001011011000010
11111111011000000101000010100011
11111111101100111111110111011011
11111111100110011101001000011110
00000000100011001010101110111101
00000011000010010001010000000011
00000001001011010000111010100101
11111111111110100000001101001100
00000001111100101111111100000100
11111110100100011000011000010111
11111111001010100101010110111110
11111111100110111000110011000101
00000001101001110000010100000101
00000001111000101001011001100111
11111110000010000110011010011101
11111111010110011001110100110111
11111111101010110010011100100001
11111110100010110001011110011101
00000000101111010111001010111111
11111111010111100101111111111101
00000000001010111111111110010101
11111111010101110001000011010000
11111101111101010000100110110100
11111101001110101111100111000101
11111011100101000010011100011100
11111110111001100001100100110110
11111011101100000011011001000101
11111010110010100001010001110111
11111110000101110101001100100011
11111011110010110000101110010010
11111100110110000111100101000100
11111100100011100010101110001111
11111111010011110100101101010001
11111111000111111110111010001100
11111111100100111110010001011001
00000000010101011000011110110100
11111111011110110001001110001011
00000000110010011001011010101000
11111111101100110010000110101111
11111111110010000101000000100001
11111111010111100110011010111010
11111111111010111100000000101111
00000000111010110011011110101011
00000010001000111011100101101101
00000000001000100110011111100001
11111110001000011110011001111111
00000000100011101001001111101000
00000000100001100110100101000110
11111110101010111000011011100110
11111110011001010110110001011000
11111101101100110111111010111001
11111101101101110110101100111101
11111010111110001100101001011001
11111100100010001111101010111000
11111101001110110101001100110101
11111110111111101000100100011000
11111111000010111011100010000000
11111110010110100111110100100011
11111110000011101010100000010111
11111110110100011001101101100010
11111110000100011011011100011110
11111111011011010011010000011101
00000000101111011001000001010111
00000000101001011011111111101111
11111110000101010110000000011011
11111110111100111101010110100111
00000000000011010010010111111101
00000010110000110000011110110100
00000001001001110100001100010101
00000000101000101100101011100010
00000010011110011011010101010110
11111111101011101011111000011001
11111111010000011010111110100100
11111111010011010000100111011011
11111110111110011010100000011001
00000001000010100000111100110111
11111111001101001000110111011000
11111101111000001100111110001111
11111101011010111010100101100100
11111101111010000100111000000000
11111111011011010101000000100110
11111101110111000110000111011100
00000001111001101110101100111110
00000000110100011001100001101010
00000010010000010011101100110010
00000011010110110110110001111110
00000100110111000001110111011100
00000001110110011001011010010100
00000001010111001011000010001100
00000001010001011010010010110010
00000000011110111101000001000010
00000000000000110000111001011110
11111110001110000011000101101100
11111111100000110110011011101100
00000000001111011011101001001011
11111110110001011001011011110101
11111111000111101100011001001111
00000010001100010000111011100111
11111111111001111101000101110010
11111110010110110010001000011100
11111110101101000000111110001101
00000000000011110101010111001010
11111111010001101100010001010100
11111111110000110000000010111111
11111111001000000000011000001010
00000000100111011011011110110001
00000000000100100001011110110111
00000000010000111111100011110010
11111111110100000010010001010001
00000000010000010100111001101100
00000000011100100110100010011111
00000010000010111110101011000100
00000011010001111111100010100000
00000111000101101001110010001001
00000011011010000101110101110000
00000011111111110100001110110001
00000010100010011000100001010101
00000000011101011111011000101100
00000001101000001101000100011101
11111111010011101100010001011110
11111111101001111000100011001110
11111111101001111001010001111011
11111111100011000001000001001110
00000000101011011010000010110111
11111111000101111011000011101000
00000000000000100000111001010101
11111111110000000010100100000000
11111111110110111101000110010101
11111110110111100100001100110101
00000001101101111110111101010100
00000001000100001010001101110010
00000000011110010000011100111101
00000000100101111101010011000110
11111111001110101001011011001101
11111111110010010100001100111110
11111111000011001011100011111110
00000000001100000100001100100101
00000010011111100101110000111000
00000011010111010000011011011101
00000010110001110111001011111010
00000111010010111000010001011110
00000101100100011000100111111011
00000011111000001010000101100010
00000010110000010110100100000111
00000010101111000100100011111101
00000000001011011101110100010111
11111111101000010110010110100100
11111101100000011001110110010111
00000000110011010001111100000101
11111111101100010010000000101111
11111110111010110000100111000110
00000000100011011001111011010111
00000001000100100011010011010101
00000000011000001000011010010101
00000000101000110101011100110111
11111110111011110110010000001110
00000001000111111100100000011001
11111111101100100100101110111100
11111111100110011110111101000110
11111111101100000111100110010010
00000000100100101100111110110110
00000001110100100100101010001010
00000000010111111001111110101101
00000010011110101010011110100100
00000010011000111001011010000111
00000010010111010001001001110001
00000001100111010010111110110011
00000011111000101011111000101100
00000100111111111000000100100110
00000110001100000111100111111011
00000011011000101101100010110111
00000001010101001000111100011101
11111110110000111100010000010100
11111110101000010101010100101111
00000000111110001111011111110001
00000001000011101100000010110010
00000001000010111111110010101010
00000000100110011101101101101011
11111111011011001110110010000011
11111111011111010110011110000111
11111111100100110101111111100101
11111111111010010101100011010100
11111111100010100000001011100011
11111111110100000100010111111001
00000000011111111100010010100011
00000000101101001001011001011000
00000000111100101001111011111011
00000000101010011111001101111101
11111111111101100111010010000110
00000000000011001011100110111000
00000010101000100100111010101111
00000010001000000011001110110010
00000010001111111111000110110011
11111110111001010101101100010000
11111101110101111101010101111000
00000001011010011110000100010010
00000001101100101110101100110101
00000100110001111010101111111011
11111111111000110110010010110000
11111111100111010110101111000011
11111111111010001010011111000011
11111110010101111101010111011000
00000010100110101110101110010100
00000000110000001000110111001000
00000100010100001010011000110110
00000010011000010000011110010100
11111111011101110000000110010010
11111111111100111101110010000100
11111110111000100000110110111100
00000000101100010101100010110111
11111111000101100010000000001111
00000000110100011001010100010001
00000000010110100001111000001101
00000001100111100111100000011010
11111111001111000000100110110001
11111111011111001110111001011001
00000010001100011001110110111010
00000011101100100110111001101010
00000010011111011111100000000100
00000001110000100111100101010011
00000010001001111100010110100100
00000000111011100001010111001000
11111011111010100100101011101110
11111111010100111101100100111011
00000010000100010111001100011001
00000001111100101000110001000010
11111110010110100000010000011101
11111011111110000010001010111010
11111100111000110000110111111010
11111110001111011101010110011110
11111111011101101100111101011100
00000000111110100000001100011001
00000010111001101000011010101100
00000000110010110111101000101100
00000000101101111010111000011001
00000000001111000001111110011001
00000000011001111010100100110110
11111110000101001001100010001100
00000001100101011010010111010101
00000000000011110101000101111001
11111101110100101011001110001111
00000001000101011101111111110000
11111111000101101001011101011111
00000001000111101101111011110100
00000001111111111100010001110111
00000010100101110110010101001101
00000010010001001001001110111001
00000010100101111100010100110010
00000010011000010110111111111000
11111011100110000111000001100001
11111010101110010010011111001111
11111101110001011001001011001000
00000000000010111101110011110101
11111110001010001100110101100011
11111011011010000110110010000010
11111011110111111110010100010011
11111100010010110001001110101011
11111110011010101000000110100110
00000000011000111101111010000000
11111110110010111000111011101100
00000001011011100101011010110101
11111101110101010110100000100001
00000001001100100000010011001010
11111110101100100110111110101001
11111110100101001010110110011100
11111110000001010110101000011110
00000000101001101110110001011000
00000000100010001011111110110001
00000000101011111100101111001001
11111111100101011001101100001010
00000000011111011110100101100101
00000000101100010001110110111010
00000000111010100110111000110110
00000001000001010011010110100100
00000010010110001011000011010000
11111111111111011011100100100110
11111100100001010000010011000010
11111010010110101011011100001100
11111010010010000000000110000000
11111100001100110111010111001001
00000000001111000100111010000011
11111111100100001101001010101111
11111011110100011011101001100000
11111011100111111101010111001010
11111100101000111001101011111101
00000000000010110110100011001110
00000001011011100111111001011000
00000010100110000001010111010111
00000000011100111011000001111001
00000001110100101001100110001101
11111111011100000011001100110111
00000000000100000000000111001000
00000000111111010001111001010010
00000001011110010100110001010000
11111111000010101110000000100010
11111111010111010001011011111010
00000000001111100010111000001010
11111111101000100110001110000110
00000000110001101010101101111111
00000001011110011100111100001001
00000010010100010110010011111000
00000001110101011100110000000000
00000010000111001011010110101001
00000000011000111111000100001110
11111110010110011010111010011010
11111000111100011111010001000100
11111010000010010000011011010110
11111100001000101010011110001000
11111101001011010011100101000100
11111101011010110000111000110001
11111010110000111011010011010010
11111101010111011011010100010000
11111110000010010001101001000000
11111110100111010111010101001110
00000001100101011100000100110010
00000010101101101100010101000011
00000001001101000001001110011100
00000001000010011111011001110110
11111111010111011110010000101001
00000000000001110100001100001001
11111111100010011100000001011101
11111111001011000000111011100110
00000000010100101101101011001101
00000000001000011001101110011010
11111111101111001110100100001010
11111110110100010011010111001000
11111111001111010111100001100010
00000000011101110011101110100110
00000000000010110000001010010111
11111111110001000111110100000000
00000000011111110100010110000001
11111110000101101010100001101110
11111011011000000111110101111110
11111010101010101100000010010100
11111000111101100000000101110110
11111111110001000110001110111011
11111111101010010111001011000011
11111101111100100000100011001110
11111100011110001101001000101110
11111111100000010101100100111110
11111111000111110010010101100000
11111111010010111001011010100001
00000001000100111110111011000100
00000000111010110101011001100000
00000010110011111011110010011101
00000001000100010011000000010011
11111110000010001001011101000011
11111110101010010111000110100101
11111101111101101010101000000011
11111110111111010010011011110010
11111111000011001000111110110100
00000001101011110111111011111111
11111111111001110011001000011100
11111111110011011011110111101110
00000000010111110110100001001010
11111111011001000111101100001000
00000010000001110111100110101101
00000000101011011111100111111011
00000001111000111000010001101001
11111101111110001000010100111000
11111100001001000100111010010001
11111100111001000000000110010111
11111011010110001001001001100011
11111111001001110001010011111101
11111111101100111010101101111111
11111111000000011000110000010001
11111101011110110010110100000110
11111100010000100001110111101111
11111110010000100001010100011011
11111111000011101100110100000001
00000000101010001001000110001111
11111110011001001011010100000111
11111111010011100001101100011010
00000001000111101101100111011000
11111110101001101000010100011110
11111110000111010000010110101000
11111110101001001000100010001000
00000001101001110101111110101100
00000000111010000111101110010011
11111110111110100100001100101100
11111111001111010100000111001001
00000000011001000111100010110000
11111111001011010111100100011011
00000000000111010111000110101110
00000000110101100000000111101101
11111110110010111101011000010110
11111101001001101010010011000010
11111100111101110111000000011110
11111010100010100110100101011010
11111101001010001111010100010001
11111100011000001001100100100000
00000000111110111101100110010101
11111111111101101101010001111111
11111101111001000110001010010110
11111101011110000101101110000110
11111101100001001001110100110011
11111011100011011010000001101000
11111101110010010110010001100000
11111110010010111100111001001100
00000000011010110010101000101001
11111100011000101111000010100000
11111111111000101000100001000110
11111110000111000000010100010001
00000000101111100110001000100001
11111111110111011000110111010110
11111100111101110011010110110111
00000000011001010010011010011010
11111111111101101110010001000010
11111101011011000000111000100111
00000000101001001110011110100110
11111111010000101000000100010000
11111110111101110100110100100111
11111111101110101010001011011110
00000000001010010101011110100101
11111111000110001101101111001000
11111110111001111101110000001010
11111110010011100110000100111101
11111011110111000011100101110100
11111111111101001111111010011110
00000001100000000111100111110110
00000001101001111000010111110001
11111111110100110010100110100111
11111110001111001000101001010111
11111101101011010101010001000011
11111100110101011000110010011101
11111101100000011010111111101101
11111010001100001111101100000001
11111110000111011110000111000100
11111110010000111110010010100000
11111101111110011111011011011110
11111111001101000011001111100001
11111110010111101110110011000011
11111111000000101101110010000001
00000011010000011000101110110100
11111110111111101011001001010000
00000001111010011010011100000101
11111111000101110010000011000111
11111111101000001011001110111111
11111110000001100111011010101101
11111100110011011000101011011110
11111110001001010110101010110001
11111110010001111011000011100100
11111100101010110001110000101110
11111110110010100011010011000111
11111111010100000000010110111100
11111111001101010010000010111011
00000001101001000101001101010111
00000001001111000000010000110100
11111111000111000100000000011111
11111101010000010110110011100000
11111100001010110100110000000000
11111101000010101011000111011000
11111101001001001011011100011010
11111101101101010101011111001011
11111110000001001101000100100010
11111101000000001010011100111100
11111110001100000010001000111010
00000000000110101011001001001100
11111110111100101101110110011110
11111111000111011000100011010001
11111111100100000001101010010111
11111111111110110000100110110011
11111111010001100101010101001001
11111111011001000111100100101001
00000010011000110110001101100101
11111111111010001010100011111111
11111101010111000001010110001010
11111110011010001101001001010001
11111100111100010001110101100100
11111101100100000010110100010110
11111110010100111001011000011101
00000000000000011111101111110101
00000001111111010101101100111110
00000000110101111001010011110101
11111110100001011010100010001001
00000000110000101111001010100000
11111111101101101001010101101111
11111111011111001110101101010010
00000000010000110011111000011110
11111100111111001101101000100011
11111101000011011000100010111111
11111101000111000010101110001101
11111011111111010100111101100101
11111101011101011011110100010001
11111110001011101001110100101111
00000000000110001000101011010100
00000010000010010110001001000011
00000000000101100010101101100010
00000001100110001010111000101110
11111100101110111001000000111001
00000010001111100010011010111100
00000001110011100101110101001010
11111110110100111110000110001000
00000001010010001110110101101000
11111110100001100011011110010111
11111111001011011000000101111010
11111101011111000100101110001001
11111110101010110011001001100110
11111110011111001110010101101101
00000001011100001011110111000010
00000010110111100001100001101011
11111111111110000000001101011011
00000001000100100101101101011110
00000010011111001011100111000001
00000001000001000101111000101000
00000000100001000011001110100011
11111111101111100101010001111111
00000000100111101100110001010010
11111110010010110110111101101011
11111110011101010010101101001110
11111110100000010111100100011110
11111101000111010110101101011001
11111110100010111101100111111100
00000000000000011111010010010000
11111110000110010100110010000010
00000000011011000011010011101011
00000000101011011111101111101100
11111111100000001011100001100010
11111110110001111000100110110100
11111111001101110110110100100000
00000001000011001111001100011110
11111110100101000010000100010110
11111111101011100000111100101110
00000010010100111100000111110011
11111110110011111000011001100110
11111110011110011100100011010001
00000000110000010100101111111111
11111111101001001000000100010110
00000001010000011001011010011100
00000001000111010110101100000001
00000000011110111011011010111001
11111110110011010000001010110001
00000000100011001001011001001001
11111111110000001111110100000011
00000000110111110000001111000000
11111110111111011101100011110111
11111111001110101001100010010110
11111110111111000100010001111100
00000000010101000101011010000011
00000000001001010100011011110000
11111111011111100111001010011101
11111101010001010000110010010101
00000001111110001001101001011110
11111111010010010111101001010100
00000000111101010010111001001001
11111111010010001010101010001000
11111110111011110001110001110100
11111110101110101010111111010000
00000000011101001010000010110000
11111111100011001010001100001010
00000000000111000010101100000011
11111111110111001010101010100010
00000000010100000100100000110110
00000001101101001001010011110011
00000000100111110001111110011011
11111110110000111101111101110011
00000000101110000101101011000110
11111110011000000001101100101011
11111110110001100110001100101111
11111100000100100110100010101000
00000001000110010001000101011010
11111111101001111001010110001110
11111111010101100011100100110101
11111111101011111111100011101000
00000000001000000101110010100101
00000001100101011010100111001101
11111111101110110001100010111011
00000001001101001101110000111101
00000000000010100110000111001111
00000000111111001110110100101001
00000000010010010011001110101000
11111110111100111110111010010011
11111101011101001010101111100101
11111110011001010111100101011011
00000000100110111001010100001001
11111111100111101110111110000110
11111111000001001000011001110001
00000000001001000000110011111101
11111110100010110110000010011011
00000000011011000100100000011001
00000001101011101101111100011101
11111110100111100000110101010010
00000000111101011000111100011001
00000001110011000011110001001110
00000001111100010100100011111000
00000001100110011010011011001001
00000000010010001110011001110100
00000001110101110110000100101101
00000011000000001110000110111001
00000010000000000101111111101010
00000011010011110001010010010110
11111111011100111000100101111111
00000010001100000000110100100100
00000000010000001010110101111010
00000000100001111100011000111110
00000001011000000100100011011101
00000000000010111011001001100110
00000000000110000010111100001111
00000001101110010000111101010010
11111110100100010111111001010111
00000000110010010011001001100011
11111111111010111001010001001111
00000000101010010001001100011000
00000000000101101101010010111100
00000001111010011010111100100110
11111111011111100011011100011101
00000000001011011010110001111111
00000010010111001100101101000100
11111111110101010011100101101110
11111111110001101100110101001110
00000000010100110100011110111011
00000001000110111010011100100111
11111111101110000000111101100100
00000001110110010001100001000011
11111111100010001101011101101010
00000010101110000110001101001110
11111111101111110100000000101100
00000001000101110110000100110111
00000000111001100101100101100100
11111111110001100010001001001011
11111110110111000101110111000001
00000000001101001110100100011111
00000000110110011111011111110100
00000000011101001001100100101010
00000000001100110001101011011010
00000000010010110111101100111111
00000000010010101100100001111001
11111111011110101001100101101000
11111111011101010110000101011101
00000000111010000110101101101001
00000000000010000001100000110011
11111111100010111001001110111101
11111111110101011100110110000001
11111110011010010011000111111011
11111111011010000110101011010000
11111111111100110011111100010001
00000010001101000000011101000101
00000001101101110011001011101110
11111111101011001000110110100011
11111111111110010011110000111100
11111111101001010111110110001100
11111111000000100010111010101011
11111111110111111101011011011000
11111111110010010111001010111001
00000000110100100011011100110011
11111110101111111101111001001110
11111111100101100000000000010100
11111111000001111110001000000001
11111111001100101001000010111101
11111111000011011011111000010000
11111111101100111100100101111000
11111111101011101101000100011111
11111101100111000110010011110011
00000000011000101010001011001010
00000001001100110100100110011000
11111100010110011110000110100100
11111110110110001011010001111011
11111111101010101001000100110010
