11111111110001001000011010001001
11111111010000000110111110010100
00000000000111011101100010010011
00000000000101011101101100001111
11111110111100100111011111110001
00000000011011110111111001111011
11111111111010011001110000011011
11111111111001011001110100100010
00000000110101100110110100100010
11111111000011010110111101001010
11111111000001011000110100111110
11111110100010000100001101101101
00000000111101110000101101000000
00000010001001010110111001001011
11111110110110000010111011110010
11111111100101111011110000001010
11111110010010001000111010100101
11111111110000010000111011011110
00000000100100001111110000100001
11111111001011111111100010100001
11111111110101000011111100110110
11111111101101111000001101011110
11111111111001000111110000100110
00000000001010001100001111101011
11111111110000011000000110110101
11111111011011101010011100001000
11111111101100100101001110000001
11111111011100011111001010010100
00000001110000100111010010111100
00000000101101110010101011000011
11111110111000000000110011001011
11111110101111001110001010100001
11111111111110000101011111100000
11111111111110001001100101101111
00000001010110101111010011000101
11111111111010111001110110000011
00000000001100001011010100111100
11111111010011000110110001000000
11111101111010001111111000000010
00000001000000001111111111000010
00000000000001100010010001100000
00000000000110001011000000101111
00000000000010010000011010001001
00000001000001101101010101010000
11111111100110000010100111110010
11111110011111110000111110011001
11111111101010010110010111111101
00000000111001100001000111101011
11111110011000011000100110100100
00000001000100001001110000010100
00000000111111111001111100000011
00000011010100011111010100000100
11111111001001110000110100101000
11111111100111000101010000100111
00000010000000111000001001000010
11111111011001101010101010111010
00000000011000010011101100100001
00000001000110010100011101000111
11111110110100111101110001010101
11111110011001000001000001100000
11111111111010011000101101011000
11111101101110011111010100111011
00000000001001110011010111010010
11111111110010001000001011100100
11111110101110010101001001100001
11111111110111000100110101101110
11111110101000010110100000000000
11111110001010001110111100011001
11111111001110001100000100101111
00000000011100001111110100000000
11111111000001010110110011010000
11111110111111010011000011010011
00000000100111011101011100001111
11111111010001000101010111110011
00000000010010001111111110010010
11111101101010011111111100011111
11111111000111100110100100110000
11111110111110001111110101100110
00000000110001011001000001011110
11111111000001000111000111110000
11111110001100111000010100000110
11111110110111100101001001111110
11111110110001000110110100001110
11111111110110101000011010010000
00000000100011100000100001001110
00000001011000011000010111101100
00000000111001101110100110111011
00000000110000110000100011011000
00000000111101010001010001111001
11111111100010101011000110010001
00000000010001011001000110001011
11111111000111111010010010000000
00000000101001110000110101000110
11111101111110100011001001010000
00000001010100001001000000100001
00000000100100110111010001010001
00000010001101001101001011101000
11111111001000011011010110010111
11111111100001111001100000100110
00000000001100111000000100100011
11111111001110001000011100000001
11111010011101010000100101001100
11111011110101101101001110101100
11111100001111001110000111101110
11111110010000000000111111101010
11111100101000011001111001000000
00000000010000100001011011000010
00000000001000011001101010001110
11111111100111111000100000000101
11111111011110010001011010011111
11111110100100111011110100011111
00000001000000000111111011110110
11111101100111101100110100011010
11111101101110011111111000111011
00000010011111011110101000000001
00000000100001101001110110100010
11111110110110100011111000010011
11111110011100001001011001110110
11111111000100110111111100110001
00000000011110111101110100011011
00000001100001000101011010010010
00000001110110000010010110100001
00000000101101000100011000110000
00000011011011010100010001010000
00000011111001000000001000010110
00000100100101110010000110100110
00000011011100000100110110001001
00000001100001111111001111001001
00000001111001111100001111000111
00000000001011100111010000010100
11111101110010000100000101011011
11111100000100000000001000010101
11111011101010000101110010011110
11111101110010001100101000010110
11111110001111111110001010000111
11111111010111011001000111010011
00000000101001000111011101101001
11111110001100001000110000010101
00000010000111101100000010011101
00000000100110011000001110010111
00000000110011000001101011000000
00000000101000010110101110000010
11111110110110001100010001001101
11111111011010100100011111111001
11111110110000011010000000110011
00000001000000100011000010111111
00000001110101100000111010011000
11111111111101101100000011101000
00000000111111011110110111011111
00000010000101000010111000001110
00000010110001010010011001101011
00000011000110110101010001011011
00000100110110110000110010001111
00000100010101010101110111101110
00000100001101110001110001010001
00000100111110110111101111001011
00000011111000111101011011011101
00000000101110010110101000010011
11111111110111011111111101111000
11111110100010100100101001111001
00000000110100110111100000110001
00000000111000001000100011111000
11111100111100011000100100101110
11111101001010011010001011010111
11111111111011011110110111010111
00000001011111101010101110001101
11111101100100101111110110010011
00000000001110110010000100001100
11111101101000010110000011100001
00000010001001101100000010001011
11111110100100100010011011010100
11111111101111100110100110100110
00000000110100000001011100110101
11111111001010000100100000011011
00000010100010000100011110110000
00000000111001110101100010100111
00000011011100000100111100100001
00000011000001101110110001000000
00000011001100100000011111001000
00000100011011100001100110001101
00000011011011010100001100001000
00000101111101010011111000100011
00000110010110100110010111000000
00000110110111011101111001100011
00000011001011110111010001101110
00000011000010111001010000110110
00000010101111100010000011011100
00000010011011010111011001110101
00000010101100010100111111011111
11111111101110111110100000100000
00000001001000100000110110101111
00000000011101011110001010111100
00000001100011101111100001110101
00000001001110011110101011010110
00000001010111010000100101000001
11111111110110000001110100111011
00000001001001100011011011001011
00000010001011001110011101110010
11111111010000101101000110101101
00000000011101011010011111000111
11111111000100000111010001010111
11111111100101000100111110000011
00000000111110011001000010111011
11111111110011001001100101110000
00000000000110010111000111100100
00000010001001011010100000000101
00000001011001010100000001001111
00000011110001111010000000000111
00000100010100111010000100110110
00000100111011000110010000010110
00000101010001010111110110100110
00000011001110001010011100011001
00000100110001111011100111111011
00000110110101010101000001010101
00000101110010001010011001101010
00000100011000000000001011110011
00000101100100101001011110011101
00000001100100100101011010100100
00000010100110001000010111100100
11111111100100001000111101000010
00000001010100100000001010011100
00000000110101011000001100001011
11111110101101111000000000111110
11111110010001010010110101001011
11111111001010101101010101111010
11111111010001010100011001011011
11111111110101000010011000110110
00000000111110010111100011110000
00000010001111110000111111010110
00000000011000010110000110100011
11111111101010001011111000111001
11111101111111110111010010001000
11111111111000010001001001011010
00000000011101101111000000110101
00000001100001101001110111110001
00000001100011100010001110111110
00000100101101011000100100111011
00000100010000110110011000000011
00000100011010010001011001010011
00000100100111000111010011100001
00000011101001101101010000111000
00000101110101000101001011010100
00000101101001011000010000001011
00000100001101011101111110111010
00000100111010011010011011110011
00000110000001111101011100000101
00000100111110000100111011001001
00000001111101101110110110110011
00000011100110101011100000111110
00000010110101010001001011000010
11111111110000101011010011100000
11111111100101010100101110111000
00000000010100000111101010100001
11111110111001010011111001101000
00000000000010100101010101100110
00000001110000101110010001001111
11111110011111000000110111000011
00000000010001010000101111100110
11111111001100011011011011110011
11111111110100101001110000011001
11111111001000001100001000011001
11111111001011000100011011000010
11111101011100001100111100100111
11111111110101101010001010101010
00000000111011001110001010100101
00000010011101011110111111011011
11111110111011111111001110001110
00000010111010100001000100000011
00000011110101000000100101011110
00000011001100111000110100011110
00000011101000001100100100010100
00000100110010111100100101110111
00000100011100110011000110010001
00000011000011111101110000011001
00000100011101010111110000110101
00000011010001010001011110100110
00000011101001011100110000101111
00000000111111010000101111100100
00000000101111001010111000101100
00000000001011110101000100011010
11111101110010000011001101100001
11111111100111101001111001101000
11111110110111100010000000010010
00000010100100110111111111001001
11111110100100010101101101101010
11111110111010110011001010010101
11111111111100000101110010011011
11111111000100000111011001100011
11111110001110010001010001010000
11111111101000010101101111110111
11111111000100011110010100110110
11111110010111100101101000101011
11111100111110100010000111100000
11111101000111100100100110001110
00000010011001100010101101111011
00000010000100100110111111101001
00000011010111101110011010011100
00000001011101000000011100111001
00000001111011101101111001001010
00000010111101011011000001101100
00000011011011011011100110000111
00000001010000110010101111001100
00000010110101011011110011010100
00000010001100110101100101010111
00000001001010100100000110011110
00000000011000000010110101011100
11111111010011100111011000001011
11111111011110101010100111011110
00000000110110001001101111000011
00000000010101111101011110010101
00000001100010100100010010000101
00000001000101101110110011001000
11111111001010011010110111111110
11111110100111110100000001100000
11111111100000010000010000100101
11111110000010000000101101001010
11111110010000101011011100000010
11111110011101000101111010010010
11111110010101101010001011110110
11111011111011010001000001010100
11111010010010011100101111110001
11111101010100010101000011100001
00000000011110011100001101111001
00000010000000011100101100110110
11111110010101110100010111100000
00000000010111010110111010010010
00000001011101110101000010001101
00000010101100111000011101100010
00000001001011100101001011110011
00000001010111101000001110011110
00000001000010110100101100100101
00000001001011010110010101000110
00000000011011001110110110101111
00000000111100111000101011110100
11111111111101110110001110100110
11111110001100011100011100010101
00000000001100100100010110011110
11111101110011101001010000111001
00000000000110001101000011110100
00000000000110110101001100111100
11111111001011001000101100000010
11111111010010111001111000010111
11111101111000101110010100111111
11111110000100011001001110100000
11111101001111100010001101011110
11111110101011011110101010001100
11111011101000001110001111100111
11111010011010100100101100010110
11111011011001111011111111100111
00000000011101001001011110011001
00000001101110111010001001101010
11111110110111001011001100011010
11111110010010001101011001001100
11111110110110101110110011000011
11111110110011011010011110111110
00000001110010100010100001010010
11111101100011101110100101101100
11111110110010111110011100110111
11111101111110100011110110100100
00000000000001011100011011100100
11111110111001011110001100010111
11111101101000111000110111001011
11111110010101100001101000110011
00000000011101101010111101101011
00000000100111100111110001110000
00000000101111100011100100110000
11111111110101000010000001100001
00000001000111111111101100001011
11111101110111111111101010101100
11111111010011001010110111011001
11111101101011111010111001001111
11111110000110010000100011000110
11111011100101110100111101011110
11111110100110110001111001111000
11111011001010011001111110010001
11111100000010111100100010000100
11111100011101101011001011110100
11111111011000110010000001110110
00000010111100011000011011110100
11111100010111000110001101100101
11111011011100010000100010000100
11111100100111001111110111010010
11111110000110100111011101111011
11111101011111010011101000010010
11111100111000111101100111100001
11111100100101111101010001001011
11111110101010010000100111111000
11111111001110001011001110111110
00000001010000100011100100010100
00000000000101011101101101010011
00000000111101100000111110110100
00000000011000001001100001010101
11111111010101010001110010100110
11111100001000111101101101101110
00000000011110011000101101101111
11111111010100011100010111000100
11111101010000101100010100000111
11111110110101010000110000101111
11111011010101101001100111000111
11111101010110010100111000110110
11111100110111011000000111000000
11111011101000110011001000100100
11111010110011000111110100001011
11111100011010010001100111001010
11111110010110011111110000010101
00000010100001000000110000010101
00000010000001100111110111010000
11111100110010010010100000011110
11111011110000101000000011011110
11111101000000011101101011111001
11111100001010110010101010110000
11111101010111101001100000111000
11111010010010111000100111100001
11111011101110011000001000001111
11111110001111101110010101001100
11111111000001011000011001111101
11111111000010011000010010101010
00000010001001011011001101100010
11111110010101101000100110010000
00000000011001001110011010110001
00000001011111110010111001111110
00000000100011100010111100010110
11111111111101110101001010010110
11111111000000111110011011111111
00000001000110110100110111110111
11111111110100101011100101011111
11111110000010000111100001110111
11111011001111110111100011100100
11111101100100110111101000101010
11111100111110000101100001111101
11111111110101010011010010001111
11111110110101001101010100001010
00000001100010110001100101100110
00000011001110111001001100001100
00000001101111100001110100010110
11111100111000010110001101011101
11111011010011111011000001100010
11111110100010011001101001111010
11111101001101000101101010010001
11111101101010000111111100101110
11111011101001100010011110110100
11111100001001000011110010111010
11111011010000100010001110011011
11111111111111000100001110101001
11111111101100010011010000111001
00000001111110101111101100110100
00000000111111100011011100000001
11111110111010111001101011010011
11111111010110011100100011011101
11111111100100100111011110100011
11111111010110000111111100110111
11111111011010000110011111000010
11111111010101011001101010110111
00000001010111101110000010001101
11111111000001010000110110010101
11111101001000101100100001100101
11111110110111111110110110100001
11111111000000110110001011111001
11111110000011111101111110011010
11111111001111001111001110001110
00000001101111010010101011111101
00000010000101001110111111111000
11111111100001000001011000100101
11111100110011001011111000001110
11111100000101111110001001001011
11111110001100100000110011010100
11111101000010001101010110001001
11111100101100100111101101111010
11111101000101100111010001011101
11111101110011000101101110011110
11111111111000111011001000011111
11111111101001100100111000010011
11111111010110000011110100100100
00000001001111101000111000111111
00000000110000001110000010100101
00000000111011100001010010111001
11111111101110010000101100101010
00000000010011011000100111111001
11111111001111001111011101110001
00000000001101100001001010001000
00000011000010111110001010110101
00000011001011011101001011100111
00000010000101011000011011000001
11111110111110110011000100001011
11111110001100111100010000111001
11111110100100011010100111000001
11111110010000010101011010001010
11111111111110100010001110011001
11111110011011111110011001101011
11111110000110110100010010100010
11111100010100010101010110000110
11111110010110000011111011111101
00000000011001111101011001010000
00000000011111011101111001111100
11111110000011110110011101101110
11111111001110011000110110001111
00000000000111010010100001100011
00000000001010110001110001100010
00000001011011001101100000111010
00000010011000001011011011110000
00000001110000101011000001011011
00000001110110010011110101011010
11111110110010111010001000010001
11111111111101000100111101111110
11111110111110001100000111010100
00000001001011010100010111100000
11111111111111010100111010100010
00000000100010100000100111101000
00000010101001111111100110011010
00000100110000000111101101111100
00000100000010001011100010010001
00000010110011111101010101110100
00000000101111011010110010000000
00000000110100001110100010100100
11111101100010110000100101110100
11111101110001111001000100101001
11111111111001011100001010111100
11111111100101110110000110111100
11111101000011101110011111011011
11111111010000101110100010100111
00000000101100101111011100001101
11111111001100001110100001110111
00000000000000011100100110110001
11111110000100100010100101100100
11111111111101100010101000111101
00000010111000000011111001101110
00000010110001101000110010010011
00000011110010111010100010011001
00000000011010110011011001101000
00000000011011000001101011111111
00000001011010101100011111000000
11111110011100110011110111000000
00000001111010111100011001110111
00000000101000101100101100100101
11111111100011011111111010000101
11111111111100101110000111101101
00000001001010110101010000000111
00000100000111101100001111000010
00000100001110100111011000100100
00000101001111010101001001101111
00000011000110001000010110001010
00000001110010111101101100110111
00000001111110010101011110011001
00000001000011100001100111011101
11111101001100010100000110111011
11111101000011110001001011100111
00000000000000111100010010001111
11111100111101111111001011000000
11111110101111000111010100011111
11111101101000001111111111100011
11111111110000010111111001110011
00000000000110101100100110101011
00000001001000000010011000010110
00000010010011010101111111000000
00000001101001111110101010000100
00000100000100100011000001100100
11111110111110001111010001001101
11111111111001001010110101100100
00000001100001111001111110111010
11111111101111101100001001110000
00000000000011100110010100001001
11111111101011001111010100010011
00000001001011101101011101011001
11111111100101101011010001000101
00000010100100010010101100000010
00000100111010010010100100000000
00000110010101100110100001000001
00000110011101100101101100100100
00000111001010011001010011000010
00000101001011010001101110111110
00000011100010100000001001000110
11111110000001110110001110110010
11111100101001111110011001010010
11111001111011010001010001011010
11111011110001111111111001011000
11111101110110010110111011010101
11111101001101010101010001001111
11111110010001101001011110100111
11111111010000000110011001000100
00000001010100100001100011110111
00000011100101000111000010100111
00000100110100110100010001110000
00000000110010101110110100100001
00000001100100001110011011000010
00000010101000000100011100100000
00000000010001010011010001011000
11111111111010010111110100001011
00000010101100000101101100001110
00000000110110010101010011110010
00000000101101001001010010000101
00000001101110001000011000110010
11111111111010010111101011111001
00000011001111110001010010110010
00000011001100111101000001100111
00000110010010000010001011011111
00000111101101010001101111100001
00000101110110100111110111110000
00000101110011010100111001001001
00000011101101101100101110000011
00000000110010100111111111100000
11111100101011010000111110110010
11111011110010011100100110000000
11111101101101011001001001100001
11111101010110111011111110101111
11111110101101000101000100101000
00000000110101101000010111001000
00000010001000001010111011000011
00000010100111010110100000001100
00000001000101001110111100011100
00000000010111100100000000010101
00000100010010110110110001011111
00000000111111000111000011011101
00000000111001111101111010111010
11111111011011111111101001000001
11111110100010000100010110011011
11111111011111011000001001000010
00000001000110010000110101100111
11111101000000011011001111100110
11111111100000000010001110000011
00000000100101110100101011111101
11111111001111010010000010100110
00000010011001011110001010100111
00000100100111110100110100101010
00000101100110111111010010101001
00000011100101000000110010001100
00000101101000011111101010011100
00000011011111010010100001001100
00000011101001101110011001111101
00000000100110100111011001010101
00000011101111101100001001010011
00000001000001010111011011001000
00000010001001011001000001000001
00000010100111110000110010010101
00000100110111011000110101001010
00000011111101110100010110010011
00000010110100011010010010101010
00000011101001100100000001010001
00000000111110010110111101100100
00000000001101110110111001011111
00000000001011111010100110101010
00000000010100101111011101100000
11111111001111110011100011010001
11111111100010101010111001101101
00000000110110111011001001111100
11111111101001101000111101000010
11111111111110100011110001011111
11111111101010111011111011100001
11111111010011011000111001111010
11111111110011011001100101000010
11111111101000111101101101110100
00000100011001111001011111101000
00000010010110101101011000011100
00000011101111001110101110001110
00000010110010100100101011110100
00000010111010001110100000111110
00000101001001000110001101110101
00000110110111011101111010010010
00000110001000101111110000110110
00000011000111000001000001010011
00000100100110100011011100001100
00000010001010101101001011000110
00000010011111100001010110011011
00000001001101101101001010000110
00000001100010000101101110111110
11111111110101011010100100011101
11111111111010011011000100100101
00000000010101110101001101011110
00000001001111010010100001001111
00000001110101010101111111100010
11111100111100010011010101010100
11111111011101101011101100011000
11111111111100001011101001011011
00000001001111101110110111100011
11111110011000010001000100101111
11111111111100000001111011110000
11111110001100010101010010101110
11111111111000111000110000011101
11111111101011010110000000011110
11111111111001000000000001110011
11111111111010110110001000001011
11111110111100110001011100100101
00000010011101010000110100100101
11111111111001111101101001111011
00000010011110001111010101001110
00000011001100101001101001110011
00000010011011100001111100010001
00000010011101010110010011101111
00000011000101110101010010000001
11111111101100110001001110001000
00000001100100101111010101011010
00000000001001011011011011011110
00000000011100010000111001001110
11111111000100101010000001110110
11111110110100010001100000111000
11111110100000010010010011010100
00000000100110101001000111011101
11111111111110010010100101101011
00000000111001110000000000110110
00000000011011011010001011101010
00000000101111101101011100101011
00000001001110010000110101000000
11111110111110110000111100110000
00000001100010010110001000101110
00000000110001001000001011101100
11111111101000001001100111000100
11111111010110000001110110101100
00000000110000011001101001111110
00000000011010111001010000101101
11111110001110101110001111101010
00000000011101010010011011001111
11111111001010000011010110100101
00000001001111100100010001000010
11111111000110101011001100010000
00000010110001010101111000110000
11111111101110011000111001010111
11111110100001010010111011111101
00000001010010011101111100111011
11111111011011101100010001101101
11111110110000000101101010111000
11111110000000000000111100111000
11111111011011001000010000101111
00000000011011111000111001001010
00000000111101001000101011000101
11111111101010001100101010000101
11111111110110111111001111100000
11111111001001110000010110111011
00000010010011010000010110001101
11111111111001011100000000111100
11111111111111010101011100011000
00000000101101110111011001011010
00000000001000001001000110110001
11111111001000100000001100010110
00000000011101101010111000110110
11111111111001010100100001001100
00000000000011011110001111111110
00000001001110111100110010001101
11111110110101101011111011110110
11111110110011010111100010110011
11111111100101101011110101001001
00000000001100101110111111011111
11111111010001101101001011101001
00000000101010011101000101001001
11111110100011000111101010100111
00000001101011100110100100101110
00000000000101011000010100001110
00000001010100011110010000010110
11111110011100001101001110101101
11111101110100101000010100010110
11111111011100100111101000000101
11111111101001111100001111111000
00000001000001110011010000111000
11111111101000100110101001111110
11111111010100010100110001010010
11111111100101100001010001100011
11111111010110111001011111101011
11111111100101110000001000001010
00000010010011010101100000001100
00000010101010110000100111110101
00000000001110100000111110111010
00000000010010010100101100110011
11111111000001011010101110110011
11111111000110000111011101111001
11111111110111011000101101110011
11111111101101101101001011000100
00000000110100010110011111000010
11111111101101001010100110111100
11111111010001101010110111110011
11111111110111100110011010001111
11111111111100011101111100111010
11111110001110110000011010111011
00000000111111001001010001111000
00000001101100000100110010000011
11111111100011000011111110010011
00000000011101110001111011000110
11111110111001100100110100100001
11111111001000010011010101010110
00000001000011000100010001011010
11111111100100101011101011110001
00000010001000100110001010111000
00000000000100001001111100011000
11111110101111101110110010111000
11111111000111101101010010110111
00000000001111101010010110000000
11111101001010111101001011010001
