00010010010110001111110010101011
00011010000001000110001011110011
11111011010011010100101100110001
00000101100001100001000101101001
11101100101100111010000001101111
00001100001111100000011001100100
11110000101110010011011100101101
00000001001011011111111101000000
00000011011100000111000001011010
11110001010001011111011100110110
00001011100000000100100101011011
00010001000100011000001010111010
11010011110110101110100101000000
11110100011000100001100000101000
00000101111100100000011111111101
11101010110001111001000010001100
00000011010001001000001111101000
00011011011000100101011001010101
00000011100100110111000010001100
00001101000001011111010001010001
11111011100100110001111111100110
11111101001110011011110110010011
11111010100001011100001100001111
00000011110100101110001111001000
11111101011101000010000011011010
11110111011011001110101011010011
00001110101110001100101001100110
00001010001101110001001110111000
11110101110100111010101100100101
11111000000111111011000000001110
