11111010011101001000011101000100
11111001110000101011101010010000
11111000010101000111001001011010
00010010101101111001010010000100
11111111000100000110010010001010
11011111101100011101111101000101
11101000101001011111110101010001
00010001101110010101001111010000
11011110001100100100101000001101
00001101111100111000111100111111
11111101010101111011111101000110
00101000011111000001000001111011
00001101011111000011000010100111
00010001010100001101111000001100
11110101011111111110111100010101
00100110101110001011110010100010
00010001011010111011101010011000
00010000101101011101110110110101
00000101011100001001111010000100
00010001011100100110110000111111
11110001100000000110011001101100
11111000001010001001010110111111
11110100101010001000111001000011
11110000010111001100000110111100
00000101110010100100111110010011
11101101111001110111010101101100
00000001111010010001110110000111
00000001110010101001110000001110
00011011011111110101010111010110
11101111111101001100101111010000
