11011011011101001101011100000100
11101000001101110101001001000000
11000010111111100010010110000101
11110111111110110100100001000010
00011101010100100111010011110000
00000000001100011100000100100011
10101111110111001011111001001000
00010001101011101100101100010010
11110110100101010110110010000100
00000101101011011011110000000001
00100101000101101101110010100011
11010101101111011000110110100011
11101000100010001110000010111000
00000101010001000100101111111110
00000010011100110011011111001010
11110001111001010110101111101101
00100011011001010000111111011111
11110111100000001011101110011110
11111101110111010101101100010000
11101001001010110110100001011010
