11101101000111101011000011100010
00101010000101010010100101010001
11100100100100010011101001111011
11100010101000010100001111100000
10110011011011110100011111100000
00011011010111101111010101111011
00011001011110010111101100111010
11010101100001010010001000011001
11101000101110111110111110000100
11011001010011001010110111100011
00010101010100010010101100000011
00000100110110001010110001000010
11101100100100101111100001111111
00001100001011011011100010001000
11110010101111101000001001100010
00001101100110000101100110100110
11011100100001100001101000000100
00000010110010111101000100101111
11111101000010000000010100100001
00100011100111101000111111101111
