00000000000010000101001001010000
11111111110001010110010000010111
00000001110111000100010000111110
00000000110110100011010001100101
11111110111110110101100010100100
11111111011110010000011011111000
11111111101000100010010111011100
00000000011001100101010100001100
00000000111000100110110110111011
11111110001001100101101100111100
11111110100011001001011101101011
11111111100110100100011101111001
11111101101101101100000100010110
11111110111000010100100001001011
00000000011000111000110000010010
11111110111111000110010001110101
00000000100101101110011001011010
00000001000001101101100111000000
11111111001110100010100011010001
11111110001110001001101100011000
00000001011011011100001001100000
11111110111010010110001111011010
00000000001111101001110110001110
11111111110100110000001101100011
00000001010001101010010010110101
11111111000010101011101011100001
00000001000101110110110010010110
00000000010100101010100100000111
00000000100010000110001100101001
00000001001001111011000001000101
11111111101000001110000101101101
11111110001000101000010001011111
11111110111000110001011110111101
11111110001001100110011001111101
11111111110101001001111100101011
11111111111001000111110111000101
00000010011110110010010010001100
00000000001000100010111111001011
00000000011010101101001010000010
00000000001010101100011000001001
11111111000111101011010111001100
11111110100011010100110001001111
11111111101011011111110010100111
11111110001010101001100001011100
11111110111001111100111110110001
00000000100011111101011000001011
00000000011000101011111010101100
11111101010101111111101100000000
11111111111000100111101001101001
00000000110111101010111001111101
00000000000101110000000011100110
00000010110101001101010110001001
11111110000110110101000001111000
11111111011111110010101010111111
00000001001011101100010000010110
00000001110100001111001011100111
11111110110110011000001100101001
00000000011101001011011110111010
11111110111110110100101110000111
00000000000000100000010111011100
00000001001100111101000101000010
00000000101101011111111111010110
11111110001110110111100000001101
11111111101011100010000000011010
00000001000001100010111110000011
11111110101001001011110011011101
11111111010100011010001011000011
00000000011110011111000010101010
00000000000101101011111110011000
11111111101000010011110011111101
00000001000110111010001010100011
00000000100001010101101001111100
11111110110001101001101011110010
11111111111110100101101011011001
00000001000010100100111010000110
00000000100101111101111010001110
11111111100010010101010100101101
00000001110101111110110110110100
00000000001110000010000110000011
11111111000001101010110000100010
11111100100101110010011110010101
00000001110000010101011110101000
11111111100011111101010011101011
11111110011100000100000001011000
00000000010010111001101010111001
00000000001010111111010100100101
11111111001111000001011110111110
00000001011010111110011110001100
00000000100100010000001100010000
11111111010101010011110101010100
11111111110111101011111000001010
00000001001010111000111110100000
00000000010101000110011101111001
11111111100101101001111110111010
00000000111011000101101010100010
00000000001011101110001101010111
00000001111011001100110001010110
00000001100001101011001010101111
00000001011010111000101101011010
11111110010010010011000110001110
11111111001010010101001100000101
11111101110001010111110000000010
11111110111000010001110000101011
11111101100110101000001010100100
11111111010110110011010000000000
11111101011110100001101100001001
00000000100010001111101100001100
11111111110011000000110001011010
00000000000111101111101010100101
11111111010110000010110000101101
00000001011011000001100101111001
11111111110000110000011110010101
11111111100100101111100000101011
00000000001010101101000110101101
00000000000001010101010101001100
11111111111110111111100100001110
11111111101110000111111010010011
11111110100101110011110001110001
11111110110100110111101111111110
11111111000010000010000110100000
11111111101000110111001100001100
00000001000110001010000011011010
00000000000010010101100111110101
00000000001010101000100100110011
00000011111110001111011011101000
00000010001111010111111011111001
00000010011101010000111010101010
00000001101000111111111010100010
00000000010110111101101110000101
11111101111010110100000100110111
11111111011011010111111000110101
11111101100100000111100111010110
11111110000010011101111101110011
11111111110011000010010010100010
11111110001000110110100000101101
11111111011101111101001000101011
11111110101010010001110001011111
11111111101010111111100100100101
00000000100101100100100110001100
00000000010000100101110000110001
11111110100100010000000000100101
00000000011000000110000001011000
11111111000101011100100011111110
11111111011001010100111111000111
00000001010101011001011100011100
00000000110011101111110001000111
00000001001111110110010111111000
00000001011011001010001101111010
00000000110001100011100001110111
00000010000010001111010001011001
00000001101111011010110010011010
00000010010100111100111111101110
00000011111001101010100110011100
00000010101010000110100010001001
00000011001110001100111101111111
00000110101000000100111100000011
00000000001111001010100100110010
00000100011101010010000111011000
11111111111011001111100111100110
00000000111111110011101101011101
00000000011101110101101000000100
00000001000001001100101111011000
11111111101110010100111001000101
11111111110111010101100010101100
11111110001000010110010111100101
11111110100101110011011000010101
00000000001111011101101010100011
00000000101001101110111110000100
00000001001011111011000000100111
11111111111010101000000100110111
00000000001001100110001110001010
00000000001101110000101101101010
00000001000011101001001101110011
11111111100000010011111110100100
00000010011111110001110110001011
00000001100011001101001000100001
00000010000011101001101100111101
11111111111101000110111000010111
00000000100101011101010101110001
00000100010010001000101100000010
00000011100100111110101001011001
00000010101110110001111001101000
00000010011011110100111110010111
00000001110001011111110001111011
00000001000110110101110111110011
00000010000000101111011110111110
00000001011011111110011101000010
00000010011110010101101000111010
00000000101101101010011000001111
00000000011100000101010101101011
00000001011001011111111000100001
11111111101010011011111011110111
00000000000010111011011001111111
00000010100011101100001001011101
00000001000001011000011010101000
00000001011011001110100011110111
11111111000111111000010001000001
11111110101011111100010001010111
00000001000111010100111100000011
11111111011100101100100110011111
00000001000110010001100110011111
00000001100010000100111100010110
11111111100011010010111001101010
00000000101101010100101010000101
00000000011000100000000000000011
00000000101001100110110010011101
00000000111010001101100100001100
00000000101001001101110101011100
00000001101101011010000110010000
00000001011111011000001100010100
00000010100110110110001110000010
00000001100100100010100110000010
00000001001100011011100110011010
00000011000110111000011110001101
00000001111111110111100101111100
00000001111101101011010010100000
00000100010111100001001100001010
00000010011001100100110010011100
00000000000010000010101001110011
00000010110000000000100101000100
11111111011100010110100110110111
00000001110101101001000111000001
11111111011001010101111111000011
00000000100000001101001001011011
00000000110101100101111000011001
11111111110011000101010100111011
11111100110101111110001101001101
11111111000000100011100000011010
00000010101110010101100111100010
00000011001101010010001010011001
00000010000110010001001111001000
00000001100101000111111000111010
00000010011101000011100101111000
00000001010011101101110000000011
00000001101110110011000010011101
00000010101101000000010010000001
00000001011011101100011011011100
00000000011000110100011101001111
00000010010110001010001010111010
00000001111000011011110010100100
00000011110100000001011101010010
00000101101100011011010001000000
00000011101000101111011101100011
00000100011110110001101010011101
00000100100011100111100000000111
00000011000000111010010001111011
00000010011110110010000100110010
00000000101110011010111101000011
00000000011100101110111011111101
00000000111111010010101110101111
11111111100001011101110111001100
00000001110001101111010111100101
11111110111101100110010010100101
00000000110100110011101110010110
00000000101011001011111011000110
00000001011101000110011111110001
11111111000110001110100100111001
11111111100111010001101110010100
00000010001000011111100110101000
00000000110011011110010101100011
00000001110111110000001000101011
00000001001100110110100000110001
00000000100011010010000110111110
00000000110001100101010001111111
11111110011011001110010111100001
00000001110100001111011111110101
00000010110111111101011001100010
00000101110010110010011000100001
00000110001011010111010101100010
00000011010011110010001001101000
00000110000000001111111010010011
00000011101000111100010110100011
00000101110010111100011100000111
00000100111011101111111110110100
00000010000010100101010011011000
00000001000100110101001010110001
00000000111010001111110100110100
00000000101010110110100010111001
00000000101100000110011001001110
11111101101110010011001010001100
00000000100010000111000011101001
11111110010111110101000101001001
00000001000010100110011100000101
00000000001001000100010111011000
11111110010011011010001111000110
11111111000010101011110011011001
11111111110101101011011001100010
11111110101101110111111001010110
11111110110111011001010101101100
11111110111001110101010011100000
11111111101010111110010010010101
11111011110110010100100101011001
00000001011010100010101101100110
00000010000011001100100101000101
00000100001000111000011111101101
00000011001100001111101011111010
00000011101100010010101010111100
00000101001010111011000100111110
00000100011110000011000011111111
00000011100001010010000001000110
00000011000101000110000110001111
00000001110101001100001010101110
00000001001100100000111110010010
00000001000101110000100000100010
11111111111011001101001110100110
00000001011101010001001100101101
00000001001100100011011011010110
11111111011010010101100010000001
11111111100001000010000011111000
00000000011111101111010101000110
11111111110110000011111011000001
00000000011010110110100010011111
00000000010101101001011111010111
00000000011001001101011000000010
11111110101001110111000001100001
11111111100111011010010010001101
11111101000110011101011011111001
11111100111001100111001000000110
11111101110001001110011000110001
11111011001000110000000011101011
11111101001111010011111011110001
11111101001101000000010110000011
00000010101001011000100000111010
00000001111000101011010010111111
00000000000101101101111001110101
11111111101101110100000011100001
00000001000001100000110111011101
00000001001011110111101011000111
11111111000111111101100110001001
00000001001000000101010011010100
11111111010010111010000000101000
00000001010001011111101111011000
11111111010000101011101001010011
11111111110100000011110111111100
11111111110100010100111100010001
00000001001111010101010110010001
11111111001110000111001001000010
00000001000001101101110101101111
11111111001111110001010000010011
00000000010111100110011000001111
11111110001100101011000100000110
11111110011011101000000011011010
11111110101000111000001011010100
11111101010111101111000000111110
11111110101000001101111100010100
11111011100011110100110110010011
11111101101010001000000110111100
11111010001101101011011110010111
11111100111011001011000011101100
11111101100011010110011110101110
11111111011111100010001101011010
11111101101001110110110110101101
11111011001100111001110111001111
11111101111100110101001001010011
11111110100000100101010100000100
00000000110101110100100010000100
11111101101101001011001100111010
11111101011111100010100010000100
00000000111101010110001000011101
00000010000001011100000000110111
00000000000111110110111011001101
11111110101000001000011101011010
11111111011000010100000101110101
11111110000100011111110001101101
11111111011001110001011110101101
00000000110111110000111100010011
11111111101100010101100110001100
00000000010100110110101111110100
00000000110001010100111101100111
11111101000111101010011010110110
11111110010110010000001011001110
11111100110101000010010101010111
11111100100000000000111001010110
11111101110001000011000100011000
11111101000101011011010010110001
11111011011100010010110110010111
11111011111100100111011010110111
11111011100111010110000111110010
11111101010011101011010100001111
11111010011111001100010010001110
11111000011101110001000101100110
11111011100111000000001011101010
11111110100110011110101111010010
11111101010000110010100111000010
11111110111011010010111110100111
11111110110001111011001100110111
00000001001011001100000000111010
00000000010010101000000101010100
00000001011100100011100010111010
11111111111010100000010000111001
11111111101101100101010000100011
11111110110110010111001101100101
11111110001110110001001010100110
11111111100111011100100001111001
11111111010011000110000010011011
11111110111101101110101000001000
11111111010000101110100110101001
11111111000001011110100000110011
11111101010111111110001011000110
11111100101010100100101101010000
11111100000010001100001111111000
11111110010110001000000101001010
11111110001001100111011010011110
11111011000001010001010110000000
11111110101101111111001101000010
11111110010101110000010011111001
11111110100101010101101101100110
11111011000111110011000100001110
11111001011011010111010110100110
11111100011100000100110010010001
11111101011000100110000001001011
11111101110100001010110111011101
11111110100000111000001110001111
11111100101110110011101001101001
11111111000111000100000111001110
00000010001110110101000110001100
11111110100011101001110101110001
11111111111000111101001001111000
00000000111110011101010000010100
00000000010000100111001010011010
00000001000000001000100100101001
00000001000100101001100110100100
00000000001101110100111110101000
00000000111101100000010000001111
11111110011010011001011001011110
11111111100000001110011100111101
11111110110100101111010011110011
11111101001111010110111111100111
11111101000111111101111100100110
11111110100100101001011110111110
11111110010010111100011011000100
11111101101000110001001111111101
11111111001010011101111010000101
11111111000100101111001001011100
11111110001101101100110001000110
11111011010010101100001000001000
11111010110110111000100001111111
11111001101101100010111110110110
11111110010100010101000110011111
11111011110111110101011011000100
11111110100010111010100110010011
11111111001101001110111100110111
11111111111011000000110101111101
11111111010000111111000010101111
00000000110100111011011101010110
00000000111001001110011111010001
00000000111001100110000110110111
00000000010101010000101011001011
11111111110001100110111101111000
00000001001100010110011111011110
00000000011111011000100111000111
11111111111011110001000110101110
11111111010100111010001100100011
00000001110011101010110100001000
11111110101110111000000000011100
11111110000111010001011010011111
11111101000011100000110111010110
11111100100100000111011100110001
11111111010000001000000011111100
11111101101001010001011110010110
11111100111101111011001001010100
11111111110111110011010100001001
11111101011001010111100010101101
11111100001101010010000011100110
11111011100111100111010010100111
00000000100010110011110001011001
11111110111011011111010100000011
11111101111000100111011111011100
11111110000001111110001101010000
00000000110100011001110111100110
11111111110000101010101110101001
11111111000111010111110010111101
00000000001010111000000111110100
11111111111111111101110110101001
00000010000000101110101101011101
00000000010100101001001101111001
00000000110010011100100001111100
11111110011100101111010010101111
00000000111001101100100001110100
11111111010110100010111010001001
11111110111110110001011100000100
00000001011001111000010010110101
00000001111101110100110100000011
11111111010100010111101001111100
11111110010100010100110110100101
11111100110101000000110101100100
11111010100110010010011110110101
11111011001101111001110001010010
11111010110011011100001100111100
11111101110001101101001011000100
11111110010111000111011110001000
11111100110000111111101101110101
11111111011011001110001010000001
11111101111011111100000001100001
00000010001100010111000010111011
11111110101110100110000100011110
00000000010000000110110111000110
00000001100001001100110001011101
11111110100111100011100000110000
11111111100011000000011101011010
00000001100001101010100001101011
11111111001100010010000101011000
00000000011101001101101100000001
11111111101000010011100001001010
00000001011010000111000010011001
00000000111110111101000000111010
00000000000000001100110010100011
00000001010110111100000101111111
00000010111101000010101111101101
00000100001010101110000101001111
00000010001000110011110101010000
00000000101101100011111001100000
00000000111010001000000100100010
11111110100100010110010011110000
11111010111000001010011101010000
11111111011111101010110100010100
11111110111001011111111110010010
11111111101011111000000011011100
00000001000000100001111100011011
00000000111000011001111111100100
00000010001011100011000011110111
11111111001010100110010000011000
11111111101100010110010010101001
00000000001100000110111011101101
00000000010011111100010011001000
00000001010001111101001100110011
00000011001000101011111001101110
00000000011101000000111000110001
11111111110010100111111011011001
00000001101110010110010100010100
11111111111110010010000111001011
11111110000010101100100101010011
00000000011111101111110010011111
00000000101001001001011010010011
00000000010101010110010101011000
00000000111110010000010111111111
00000000110111000011110110010001
00000011011101100111001101010110
00000100111010011010011101100110
00000100100100101110001010010000
00000000100110001010101000110001
00000100001010001000101100100101
00000001100001011101011101110101
11111111111010001100111110110100
00000000110100100110111010000111
00000010100011010010101010000011
00000000001010011100101000001011
11111111011111001101010011100001
11111111111100010001100011101001
00000000001101010010101001110111
11111111010100001010001100001010
00000000001100010011100111101101
00000000010101101101100111011110
00000001111101010000001010010111
00000001001111011010100010010000
00000010011101000001111010010110
00000001110111011101011010010100
00000010010100001111100101110001
00000000000010110101001100110010
11111101111001000101101011010110
11111110011001010100100110011000
11111111100000110101010010100000
11111110101011111100100000011110
00000000111010010010000011010111
00000001110001000011110110011101
00000011000101000111010000101001
00000010010110111110011010111101
00000101101111100001111111010111
00000100110000111010001011100011
00000101011010101101101011101001
00000001101110111011101001111111
00000001001100100101110011101100
11111111100110001010111000101000
11111111100100010011010010110111
11111111010101001100100101010110
00000000010101101011011000000011
11111110010101001110101100000100
00000001010100010000110000011101
00000000100100110110011000001001
00000001101001011001001110011110
00000001000011100101111110010000
00000010001010000001010000011011
00000000100010111011100101000000
00000000000111100111001110111011
00000010110010100110100111101100
00000001011101001010101010101110
11111110011111111001000110101010
11111111100110000100010100100010
11111111011010010010011111011001
11111111110000111001010001000010
11111111010000010101001110011001
11111111100110100011111010100000
00000000100000110011000111001010
00000010110011100100111111111111
00000010100100001001100100110101
00000011111101010010110000101101
00000110101101011111000011011110
00000010111110000101001100001011
00000100101100110111000101100010
00000001010100111010001111111101
00000000011001110010011100010000
11111101111111100101011101000110
00000000110010011100011010011110
00000000000111001010011111110010
11111111001001000101001010111001
00000000000111011100000011110100
00000010000011010000010000110001
11111111000011001011010000111011
00000001011111100111111011101110
00000010000100110111010101001011
11111111110010000011000001001100
11111110000001111000100011100110
00000000000001011111110001101001
11111111110101010100001110000110
11111110010001111100011011011001
11111111001110100100111110011110
11111110101011111111100000111010
11111111000110101111101011110010
11111110110111110110111011100110
11111110111000011000110111110101
00000000111001011000001100010111
00000001101010100001010101110000
00000010101001010001100011101100
00000010111010110001011101000100
00000011000000010011111101010010
00000011100010011100111101101110
00000100011011111010110000111100
00000011001110000010011001111010
00000001001110001001001100100100
00000100010101111100001111101010
00000000100010001011010111001011
00000011010111100010110110101010
00000011110011100011000001111111
00000001000101000011110101001000
00000010011100101001100000000101
00000001000010100010101110000100
11111111111010101001011100010011
11111111101100011101100010000101
11111110111010011100100001111111
00000001001001010001100100111000
11111110110001010000001001110000
11111111101100000111100111000010
11111111011101101101110010011101
00000000110111110010111000001111
00000000101101100010010111100110
00000001110101011100011011011011
11111110111110010000000111101110
11111111101101111000000101011001
00000001100110101010011000100110
00000001000011010100100001110010
00000000000010111010101011001100
00000010000101101011101001110010
00000011001000001000110001011111
00000000111000010101010001111100
00000011000011101011101100001001
00000100101110100111011110011111
00000010100100100010010001001000
00000010001111001001010001111000
00000010000000111011000011101011
00000011000110010010110000001100
00000011110001011110110101001010
00000001101001010100000010110001
11111110011100011010100000011100
11111110011110111011010001110000
00000000100101011110111001010010
11111111000111001011000001110100
00000000000111001111101011101000
11111110100110010011110111000001
00000000101100101001110010010000
00000001000110011111010011100111
00000000100110110100001000000100
11111110111110111000010001111010
00000000001011010100000110110001
11111111111100100000011100100100
00000001110011011010011001001101
11111101100001110011011001111001
11111110101001010010011001000010
00000000001101001100100001111001
00000000010101001000000010000110
11111111101111001110110001101011
11111111100010100111100001001010
11111110110101001001010101100001
00000001011100100010010001000101
00000000010001000110010011001111
00000001001010011011110000000000
00000010100010011001110001011111
00000000101001011000011010010101
00000000011110001110111011100110
00000000001010100010100011110011
00000010010001011111010011100110
11111101100101010101001101011000
11111110011100000000101001001000
00000000100101000101001100110000
11111110010111010001010010000000
00000000011010010001011110101111
11111111101011000010010000110110
11111111000110111101111011111110
11111110001100010000010110001110
00000000110101101011011101111111
00000001000101101010101100011001
00000000100110110100010101101011
00000001011110110100000000110011
11111111000111100000101000110100
11111111100000000101010111011101
11111110010010100101001001011010
11111111100010111001111010011011
11111110000011101110101100110000
00000000011100111000100010001110
11111110110001001010111000011001
00000000010111100100100001111000
11111110100101010000001010111000
11111110100111010110000000110100
00000001100110111101111001110000
00000000101101110110110011110111
11111111110111110111100010101111
00000000010110001110000110000011
11111111100011010000001111110010
11111111010100001111011100110110
11111101111100011100010111011101
00000000110100111000011001011110
00000000011011011011100000110110
11111110001101111111011001001100
00000000010110101010110011000011
11111110010101100001100110100111
00000001011111010111111101001111
11111101101110110001010011010111
11111111101100000100101010111100
00000000010100101010100001001010
11111110011010001011011110001101
00000000011100001001010001101010
00000001011010010011111101010011
00000000001010010011010111000100
11111110110111111101001000101000
00000000010010001010101101101001
11111111100000010111110111011100
00000010000100011101010111111010
00000000100001100100111011100000
11111110011100011001111001100101
11111111001011001100010110110110
11111110010011011110111001100001
00000001000110110011010110111010
11111111100101111010111001011100
00000000011011010110100001011000
00000000010000011001110000011001
00000000000010100010100001010111
00000000001001101010100101110111
00000000000011110100110000111100
11111110111010001111000001010111
11111110111010000010010111001110
11111110110011110001010000000100
11111111110110111010001010101100
00000001011001111000111111111000
11111111001101100111100111111101
00000000001110001110111011010000
00000001010000100111100000110101
11111111011101011101100111110010
11111110111110100000001111111101
11111111100110100111111111000010
11111110001000101100010000100011
00000010011000011101100000100001
11111111111001100100100010101001
11111111110100001001111000100000
11111111111001111000111110011010
00000000100100100100100100101010
11111111010001010011000010011100
11111110100110011001111101001111
00000000011110101000110011011101
00000000001100000001110011101110
00000000100111110001110110011010
11111111001001111000010101001001
11111111111110001011000000101111
00000000111000010101001000001011
00000000001001001110111111000010
00000000001111001100010100011010
00000001110111001011101101100100
00000000101111010010111111101100
00000001111101101101010101011001
00000001001100000111110000011110
00000000001011010011001001111010
11111111111110101100110101000100
11111111001100000110001000101010
00000000100110111101000101110111
00000000101110010010000110111001
00000010000001010110000100011101
