11111111001001100001010100100111
00000000101001011001001010011000
11111110110101110101011111001100
00000010100010001011110111010100
00000000110000110001111110101101
11111110101011110101010001100010
00000010000110110110111000000111
11111111110010011101011011110111
00000000011000001110000111000001
11111111000010101001000010111100
00000010110100011110101110101111
11111111110100010100000101001000
11111111010100100010001000111000
11111110001000110011010100000000
00000000010100110001010101101101
11111110111100011101001001110101
11111111111000100010111111101001
11111110111011101111000011111000
00000000100000000000101001110001
00000000011010010010111011111101
00000000100111010000011110000101
00000001101010111011111011000110
00000001010011110001111010000001
00000001010010111011000001010111
11111110110110100111011100010001
00000001001110110111000101110010
00000001001011110110010010001001
00000000011100000011111001100111
11111111101010111011000011001010
00000000010011111101110101110110
00000001010001000111100110100101
00000001010011011001000000100000
00000000000001110000011101000101
00000000010011000101111011001101
00000000101000111111111000110000
11111101101001000011010010001111
00000001000111101110000001110001
00000001000001100110001101000101
11111101001100101010010110100110
00000010101001111001100101101110
11111110101001000100011100010010
11111111101010011010111110111011
11111110000111110110111100000111
11111111110011010111101010111100
11111111011110111111000010011000
00000000011010000000101111000001
11111111101100000111000000111110
00000000101100011110000101101010
00000000110110110001000010100001
11111101101111111011001101110000
00000001010101001110100001100000
11111111111010010000110100110000
00000001001101101011001010000010
11111110111011110101010010010011
11111101110101101100011101100100
11111111000010010011110111001011
00000000110010100000000001011110
00000001011100100011111100101110
00000011110010101101111111110101
00000000000111111110010010010001
11111110101110001010001010111111
11111110000011111100001001000111
11111111101011000001101011011100
00000001011001011101100001010101
00000001000001010010110111000000
11111111010110010101100100001000
00000001000110010101000100011010
11111111101001000111010101010111
11111110001101001110101010010110
00000000111101111011101110110101
00000000100011001101101010011100
00000000010010001000100100011000
00000010001111110000101111111011
00000000100111010000001100100100
00000001101001100101111011001111
11111111101001100111010001111010
00000000011110010010000010011010
00000000001000110101000000101010
11111111001000101111001011001011
11111110100000111110011111011011
11111111001110001110011000000010
11111101100110110100011110011001
11111111010101010101111101010101
11111111111111110010001001100100
11111111111010100110110100011010
11111111000101010001000111001101
11111011110001110100110101010010
00000000100110110100111111010110
00000000000011110110011000111011
00000001110001110001000010111101
11111111100100101011000001110011
11111110101111111110101100010011
00000000101101111001101011101100
00000000110000000001001001100110
00000000101000010110001010110000
00000001101000010111011010000100
11111111001000000110010000000000
11111111001110101101100111100010
00000001011001100010011011101111
00000001110101111011000010110111
11111111101110010010110001011101
00000011011000000110100111100111
00000010011101001110111011010010
00000010010110111100000011001101
00000000011100000010101000100001
00000001110011101001101100000001
00000000010101000110010101001111
11111111101101011110001001101001
00000001001000001001101010000111
00000001101000011000011001001111
00000001000000110011011100010111
11111111011000001101100100001010
11111111011101000101010001111100
11111111100100101011100101001110
00000000111010000011010110111101
11111111110011110010111101001000
00000000111011001100100111101101
00000000001110110111001011111100
00000000011101001011100001110001
00000000101111100010000001000001
11111111111111100110101101100111
00000010011111101000101010101111
00000011010111110000010101111101
00000100011000101111101110001000
00000010000000001100111111101011
00000000101100010100111111100011
11111111111010001011001111110001
11111100111110100000110010110010
00000000111000000110100001101000
11111111101101001100001101001101
00000000010101111001100001000010
00000001110001010000111011111100
00000001111110110011101100001010
00000001100101010110111101100101
00000000010010101001111011000011
00000000001011101011100010000101
00000000011111110110111100001001
00000000110110111001111110100111
11111111111101001011111100110101
00000000011011111111110110010101
00000001001011010100001111000101
00000001000111000000000011110111
00000000111000011110100100001000
11111111000000100111001101011010
11111111011101101010100010100000
00000000110100001100100100010011
00000000001001110010011100000110
00000001111000111000001100010110
00000010111100011011110100101101
00000100001110000000011110111110
00000100100001010110100000000001
00000100100101011100010110011111
00000010000011110110000111111100
11111111001111111101010010010101
00000001001101011000001110010001
11111110110001101100110111000000
00000000010001001111011001110110
11111111101100110010011110011111
11111111010111100001011011101000
00000000011000010010000100111010
11111111010011011011110100001011
00000000101001011111111110001011
11111110111111000010000110010000
00000001110101101110111010000101
11111111100000100111010100101111
00000001011110100100011100101111
00000000111000111011101000000011
11111111000011100111110011110011
00000001100111101111010000111010
11111111011000111001101011001011
11111111110001011101011011100111
00000000001111100111101111010011
00000000011111001011100110000001
00000000000110001000110111000001
00000000010110001000111001100100
00000000101001001000101110111111
00000011101111011110110000101001
00000110001110011001000111110101
00000100110110010101100100110110
00000101001000111101110110100010
00000010011100000101100011010101
00000001000010110011000111010100
11111111011100100101000001011001
11111111110011100100000011001100
00000000110110011001110100100101
11111110000001110100101000001101
11111110001010100111000101100000
11111110001010110101010000001000
11111110100101100101110011101111
00000000110101011111010010101000
00000010100010110000001111101110
00000000110000011110101001100010
00000000100100100010010111001101
00000001010000110100000010101010
00000000101001010110100001111010
11111111101011100101110001010001
00000000000011110010010110100101
00000000111110100101101010011111
00000000101111000111111011000001
11111111000001011000101110001011
00000000011110110100111111101011
00000000000110110111000011101111
00000001100100000010000001110000
00000010000111111000100110011101
00000001001111100000010111100110
00000010110010001001010100110000
11111111000000010100000101110101
00000000101001111100111110001101
00000000100101100101111111111000
00000000000101110111110101100111
11111110001010111010110110110011
11111111111111001111101100111010
11111111111100101101011100000000
11111110011111110011110101010100
11111100100001100001100111001110
11111101011010101111011010011001
00000000001101101011110101110110
11111111101100111010111101110100
00000001011111100011001000100001
00000001101111001010001100001100
00000001011100001001001101110000
11111111001011110110011001111111
00000000100000000011111000011000
00000000010101110101011100111011
11111111101101010110001110100001
00000000010011011100111111001110
11111110010010000100110110011010
11111110011111100000110100110000
00000000001011110100110011000111
11111110111101010011111100100111
00000001111111110010010101011011
11111110111110111111101110011011
00000000001011000110000000010001
11111111110010010000011101011110
11111111001110011100010011101111
11111110111000110101100111000001
11111100010101111000111100000000
11111010110111000110101100001010
11111001101001110000111100001101
11111010110110101100100111010011
11111011111001001010100000000000
11111100000001101000111010101100
11111001010110101110011100001111
11111011110001001001101000010100
11111110100000100110000011000000
00000000001010011101111111101101
00000000101001011010010000011110
00000001100001000101100110101100
11111110101001110010100001100100
11111111011101011100000101010111
11111110000011001001000110110101
00000000111001101110111001100011
11111111010011110100001000111011
00000001100100001101111110100111
00000001100101110111001010001100
11111111011100110001110111101000
11111110100110111100010011000001
00000001010001011011110111001001
11111111001010111000101100000110
00000000000011010111110100001010
11111101010010000011001101111101
11111110011101001010110100001011
11111101110011101011001001100110
11111110010010110101101111001000
11111101011101100111100001101110
11111000110100101001100010100011
11110111000010000100101111100000
11110111010001010010101011110110
11110110110101100010000101001001
11111001000110110100111111010110
11111010100000010110100010011101
11111001100110100111010000000100
11111101000011011111001110101001
11111101000101001110010011101010
11111101100101011001000110001101
11111111101110001011000010110110
11111110111100110101100001010110
00000000100000110101101001110001
11111111111010010100000001101111
00000000100101011100000010100010
00000000100010111110101101111111
11111111001010110101100100010001
00000000011100101100000111101000
11111111000101111011000100110010
11111110001101011101101101111001
11111111010101111001010110000110
11111111111011110110001011101011
11111101101110111010100011011111
11111110100001111111011000111010
11111110011101010100011010010010
11111111011010110010011111101101
11111111101100110000000110011101
11111110001100010001001011101011
11111011110000111001101101011101
11111000000010000111111110100011
11110111110100111111011010110000
11111100001011111111101010111011
11111011111001110101010111010111
11111010011001101001111001011101
11111100101111110010101111100001
11111100010011010110011111101001
11111101010110011001111011110101
11111011000011010010001101010000
11111110110110000101100111010000
11111101111101110101010101100101
11111111011010110110110101001110
00000001000100011000101001100011
11111111011000100001001110000100
11111111000100111101001110111010
11111110100110100101011101101110
00000000010001101100100111010000
11111111100110101001000101011100
00000001111101011011001111011010
11111111101111101011001000000110
00000000101001100100011101000011
11111110001011011010000010011001
11111110110000110010111110100110
00000000101010100001010000011100
00000011010111111100000111100011
00000001111001111100001010001111
00000011101100010101011001100000
11111101111011001000011000010001
11111100110101110111111100011101
11111100010001001101110001001110
00000010010010000000001110100101
00000000100101111110101111011011
11111101000011111011010011010111
11111011110010010101011010000110
11111010000011101011010001011000
11111011110100000011101010111111
11111011110011101110101010010100
11111100100000000001111100111001
00000000010000110100011100011100
11111111111100110011001000001000
00000001011011100101111010101010
00000000111111110011010101001110
00000000001000101001001101001010
11111111110111110000010000111110
11111111100010100111100000100010
11111110101010100110010001011011
11111111010001101100011011110001
00000000011011000111011111110011
11111110111000111101001110110000
00000010010000010101011001111101
00000000111100100001001101000100
00000001111010011010100100011101
00000001111110100011111110101010
00000110111000111001111010100000
00000101110110110011001110001001
00000100101010011010101011110101
00000001111101101000110000100011
00000010110110100110100111101011
00000101111101110111111101000011
00000010111011010100111010011111
00000000000000001110011011011101
00000000001001101001100111101010
11111011001100110011011011101111
11111011100011000111001100100101
11111100001010110110010000010010
11111111001010111111111010111101
00000000010100100011001111000001
11111111110001001001101001000010
00000000100011100101100101001001
00000001010001000111100111010010
11111111010110100011110001100001
00000000100001001101000010011110
11111111000110000110111000110010
00000000001001010100001001010011
00000001000001111010101011100011
11111111111000111000110111000111
00000001110111100100111110001011
00000001010000101110111011010000
00000011110101110110110101101001
00000011010111111111111100000011
00000101000000111000011110011011
00001000001010000100110011001111
00001000111001111000101000000011
00000011101101110010110010001100
00000001101111000000111111011101
00000110110100110010010101001100
00001000111011000011011001010001
00000111100110011101000110101001
00000010101111100000101100111100
11111111011111111010001100011101
11111110000111011100000010011011
11111110101000110011100001110110
11111100110110011001001111110100
11111110000100010011010001110000
11111110100100000101111110010110
11111111100110011110011111110111
11111111111000000011101010001111
00000000001010101001110101110000
00000001010101100100010100111110
00000000101001000011001110100100
00000000111010001010110110101000
00000000000011100001100011010111
00000000011111111000001010111001
00000010000110010000000101110010
00000001111011001101011001111001
00000001111101111000010100010001
00000001101010000111000000000000
00000010101000011110111110010000
00000110110101010011110010100011
00001010100000000101111110100101
00001000001110000011111011111111
00000100110110110100100010101110
00000001111000011111010100100001
00000100101110001111010010010010
00001011000001001100101010100101
00000101101001000111001010011100
00000011111010010110011100101010
00000010001010001000110111011001
11111111110100000010011100011101
11111110001010101010100010010111
11111101101001110101111001100010
11111110011110010101111111110100
00000000111001100110110100001101
00000000010010011001001010001011
00000001010011101000000001111000
00000000011101001111101101001001
11111111111100001011100010010000
00000000001110011001110111010110
11111111010011101111111101000110
00000001101000111101011101011111
00000000101100111010111110111100
00000001101001100111110011000111
00000001101011001100011000001111
00000000010100001010100100100110
11111111110011100010111000110110
00000000101000010101000101011011
00000101011110000101010001101100
00000111000100111000111110000110
00000101100011001001111001111000
00000010110101000010000000000001
00000000010001100111011011100101
00000011001100011111111010011110
00001001000101011010011010101100
00000100011010000001000101100010
00000011110010001110101111110111
11111111110101011111100111111011
11111110001001001111101011000101
00000000101110001110011010010100
11111111110000011101010110101010
11111110101111001111110001011110
11111110110111010110010000010101
11111111110010110101000011100011
00000000101010001000010111110110
00000000110001111011011010001000
11111111000111011111001011111001
11111111101100110000101010000111
11111111011111100011010010000100
00000000001011011101010101010010
11111111111001010001001010111000
11111111010101101101010111100110
00000010010010001010111110111010
11111111101000011101110000101010
00000000100010010010100000001100
11111111011101011010000101011010
00000010101110010111100111010100
00000010010110010010010100110100
00000010111111111100001111001011
00000000111000100110110101110101
11111110011110010101011111011100
00000011100011100110001001111001
00000111011001101010000110101011
00000101001000011101110010000010
00000011111111100010001101100011
00000001010011011110100101110000
00000000000011001111100101111011
00000000111000101100000010111000
00000010110010011101111111100110
11111110001111001100100101010000
11111101010010100101110101111101
11111111110011010010010000100000
11111111100011110010110001000101
11111111001010101011100110101001
11111111010110000001010001000100
00000000000010101011101110100011
00000000101000011010100010001111
00000001011111101010111100100111
11111101001001111010110001111111
00000001001011001010010011101100
11111110101100001111000010011110
11111111110110100111001011100000
11111110111010000000011011000110
11111110111100110111010101001101
00000001110011111110010100010100
00000011001100101101000001011010
00000000110011000010100001111001
11111111010101010110110010001000
11111111011011110100100101110001
00000010011001000101000101001001
00000011101011100010111111011110
00000010110111000011000111110111
00000011001011111010110110110111
00000011010011101110100111010001
00000001010100000010010001011011
00000000101001011110000001100010
11111111111000011111101011110010
00000011001001111001011011010011
00000000111011100111011011010010
00000000010100101010011010000011
00000010000100001111110110111011
11111111010110000100000000011100
00000000100010000001001100110110
00000001010101100111100011101111
00000010011010011001101001111110
00000001101111101100101110110001
00000001001011010010100011100111
11111110101000110101101110101010
11111110110100101110000111100100
11111101110011010000100010101000
11111111110000101110011111000000
11111111010011001100010111101010
11111111001101001111110011001100
00000000101001011110001000111100
11111110101001000011000010001100
00000000001010111000011111001110
11111111011110001011011100010001
11111110001001011101101000000111
11111111110110101101011101100011
00000011100101011100111001010010
00000001110011010001101101101000
00000000101011101011100111101000
00000010011010010110111110111110
00000010010001110110111010100111
00000001001011101011001001101000
00000001010010111100100001010100
00000000000100010011110001110110
00000000100111110100000100001000
11111111010100011001110100011000
11111111100001000100001011111010
00000000000001001001111001111011
00000000110110010010000001010010
11111111001110011010010111100110
11111111100001010001110110000001
00000000111101101000001010101111
11111111110110100111001100111101
00000001010101111101010001100010
11111110000000110000111101110110
11111110000110101001110011101111
11111101011010111010111110110100
11111100100110011001111001101000
11111110001110010010101010101000
11111101110000110100001011000011
11111110101000100110101001110111
11111110011111110000000101010111
11111111010101100111000001100000
00000011000100000101100100011000
00000100010011110101100111111001
00000110000100010011011101100100
00000110000000001101100101100110
00000010000110111111101111111010
00000001011110011001010111010100
00000001010100110100000110100100
00000000001111100110100001110000
11111111101100000111111110000111
00000001001000110011100110110011
00000001001001111101010001110100
11111111000000101110101101101110
00000001001101001001011100001110
11111111001101110010100101110010
00000000010110010111111010101100
11111111101110101100100111100001
00000001101100100110010000110000
11111111000000011110000101000000
00000010001101100001110010111001
11111101110101100011010100100010
11111111000010100001000101110010
11111101011010110011010010111001
11111010101010110100011000001010
11111110101110010101111011010100
11111111010011000011011000111111
11111110111011111011111100010100
11111111001111100101111010100011
00000000010011000101110101001100
00000010010000100001000011010000
00000011111111011110001000000101
00000100100011001110010010010000
00000010111010001011100101100011
00000010101100110000010111100011
00000011001011101100011001100011
00000000011001010100101101111000
00000010011101010101101100000011
00000000010111011010101010110100
11111111100110010010110011100000
00000000100111010011111010111100
00000001110110010011000000100100
00000000011110101111011000110000
11111110011110011000100101000001
11111110101101001110001000100110
00000001010100111111000000001000
00000001000011010011101000111010
00000000101010001011100001110111
00000001110001001110110001110010
00000000011011111110101001011101
00000000101011101001000001011001
11111111000010011101011001000101
11111101101011101100000010110010
11111110101001110011100110111000
11111110111100010010101010011000
00000001101111001011101011000111
11111111011000100111001011110110
11111101111001011101000001011001
11111111100010100001110101000100
00000011100110011011001001110001
00000011101100100001001001010101
00000101001100010110100101100110
00000001100110010111100001000101
00000010010001101000100010111001
00000010010111110010111101101011
00000001101111111010101001110100
11111110101000100010111001101001
11111110101100111111110100000000
11111110100100111101101001001100
00000001101111111000100111110110
00000001010011001101011000010011
11111110001100111010000010100010
00000000111001100110100101010011
00000000110101000011100011101010
00000000000101100110100100101000
00000001001111111111001110010110
00000000001101101111100101101011
00000000000101110100100100111001
11111110101010101101011011010110
11111111001101111110010110010010
11111101101111101001101101011111
11111110100100010010010111001100
11111101011001001011011001111000
11111110111100111000110100001110
11111100011100010000000000101101
11111101111111011001111010111111
11111111110110110001110100110010
00000000001000011101110001000110
00000010001111011111001111000110
00000011110001011111100111011000
00000010001110001101100101101011
00000010011111101100000111100000
00000001010000101101100111011011
11111111110111110111011010000111
11111111101101000110010001100111
00000000101110111001100000010011
11111111101110010111100000011010
00000000111001001001011100111001
11111110110001000001101000101100
11111110000000010011001110110100
11111110001011001100111101001101
00000000011011111110101110110011
11111110111100101010110110000111
00000000011101000000001101111100
11111100011001010001010100100110
00000000000000010011011111101110
11111110101010101010110110011110
11111110101110110110100100011111
11111110100101100011011011000010
11111110101101110111111100101101
11111100101010000110000011110000
11111011101100001111001010111000
11111011101111011111001110111111
11111100101011000111000100000001
11111101011110011000001111000111
11111101111000010000110101011110
11111111101001000001001111001010
00000010110010000010011101101000
00000000101011110101010100010111
00000000110111000100010010100110
00000010001100111101000111111001
11111111010000010010101001000110
00000000101110001001011100101000
11111111011001100010001010010101
00000000010101111001111010000001
00000001110111110101111010010110
00000001101101101001000001010111
11111110010000010110000010010100
00000000001100001000111100101010
11111111011101010001101101000001
11111111000001000010110000110011
00000001001101110100100110001110
00000001010100111011000000110011
11111111011000100101010110010010
00000000110101100010000101100010
00000000110111001000111111111001
11111111110101001010001011011011
00000000000111011010011111010010
11111110000101000101100110001100
11111111001011110111101010111010
11111100101000101001001110011010
00000000000111110001010000010001
11111111010111001011101101000100
11111111000110110011100000011011
11111111001111101001110101001101
00000001011011000001000101010000
00000000001010100000011101010011
00000010001011011001101001111000
00000000011000100100001000000111
00000001011010011110101111111011
00000001100111000101000101001110
00000000101000000101011110011001
00000001001100011001100100101101
11111111100010001011010110111101
00000000000100110001101000100000
11111110110001101110110111101010
00000010101101111101001011101101
00000001100011100111011011000101
00000010110010101001111110001110
11111111011001101101011000101010
00000001111101101100001100010101
11111110111011101010000011110000
00000001001100010010010111001010
00000001011100110111111110010011
11111111011000010100100011110010
11111101111100001110111100100011
11111110001110010101111000110010
11111110000000101100001001001001
11111110010001101001101000010110
11111111000110011111111010000011
11111110100010011111110111111101
11111111111000011001010010110000
11111111011000010010000110011110
11111111011110001000110011111101
00000001000101001111001011111111
11111111110101101100000010111011
00000000011110010010011111000101
00000000001001110011011000110011
00000000011000010011011111111100
11111110100101011010010110100110
00000000101011101111010101100111
00000001011100110001100110100000
00000001001100101101000011101001
11111111101111011111101100110011
11111111011111000000110111101000
11111111000100100100111011010000
00000000111110001110111100111101
00000001001001110001011010010111
00000000101111111010100110010101
00000000000011111001011111111111
11111110110111111010001101101010
11111100100010010100001100001000
11111111101101001011011100100110
11111111001101101111110001111100
11111110101011111000001000011011
11111110011010100000001010011100
11111110000001100010001101011100
11111101101000110110100111110000
11111111010010010001011010110001
00000000101100101101100011001101
11111110000011111000111111001110
00000000000110000010101001100000
00000001111000000001101010010010
11111111101001001101110001110101
00000001101101001111001101011111
11111111101110110111001110011000
11111111010111111000001000110001
11111110110001101001010110000110
00000000011111101001110110010110
11111110011101100110011110001101
11111111011100011001000000110100
11111111111010011101110111000000
00000000000100000010010011010111
00000001101110111011111100101011
00000000111111111001001101110000
11111111111000100000011111000110
11111110000101110010010000010111
11111111101001111100000111011111
11111111011000100101110001111000
11111111111010110110010101000111
11111111100100101010010111100000
11111110110111010101001011101010
00000001011011000011010011011001
11111111010101001111100010010101
11111110100101111100010100101100
00000000000101111010010101111001
00000001000000000011001110010011
00000000010011100111100001011100
11111110110111111000000001000011
00000000000110100001110000001101
11111101100001110110000000110110
00000001010101101100111101110001
00000000000010000101000000001010
00000010001110001100001111100101
11111111100011000101111110111101
00000000101101000100101101111001
11111111101101011001000100000000
00000001000000001101100110100000
