00000000011111001100110101011000
11111110111101111101000010010011
11111110111100100010001011000100
11111111001000110110010111100111
11111110100000100000010010000000
11111111101111100000011001001010
11111110010011111001001111111010
00000000000011110100010000010000
00000000110011110010101111001101
11111101001100000011101101100010
11111111111001000010000110110001
00000001100111101101001011110111
11111111010000010011011111011111
00000001001110001101010011101111
11111101111111101010011001101010
00000000110101111100110110101000
11111111100001101001001000101101
11111101001011000011111100001010
00000001111001001100101110111101
00000001000101011000001100110001
00000000011011110110011100001001
00000001101011110111011010100111
11111111101001010110001100101011
00000000011111111111111010011011
00000001011111010111000001110011
11111110111110101100000010101111
00000000101110000000100111001000
00000001000011000100001110011110
00000000111010100011011110101010
11111111110011100110011001000100
11111111110100110111100100011011
11111111101000010000101000000010
11111111010101101010111011100100
00000010011101101010100010110101
11111111101100000001011001101010
11111110010011011000000110101001
11111111010110010000010100110110
00000000000100000000001101000111
11111111011110001110011100000000
00000001111010001000111101011010
00000000101100111001110100010111
00000001000100100101100100110101
00000000010111011011101100000011
11111111111001111011110101101101
00000011011010111001011000101101
11111110100110000110011111111010
00000000001101011000110001100000
00000010000011000101001011111011
00000001000001000000010111010000
11111110111010111011101011001100
11111110111001110010010101110111
00000001011100110100101010111101
00000011011010001101011000010011
11111110010001000000111111111011
11111110100010010111010110001101
00000000010001011101101000101000
11111110110010110000101001000111
00000000001101000100100101100101
11111110101000111101011101100110
00000000011100000011010100010000
00000000111000100000010000100101
11111111101011000011000011100100
11111110000100011100010001110000
11111111011110110001000001010111
00000000011000100111000110111110
11111100110001110011011100100000
00000001001100110010011111111001
11111110101111010011110000001011
11111111000010000111101011100100
11111111000101111011010110011100
00000000001001010101111000101001
00000001010010100010110101010000
11111101111101100001010111010010
00000000000011101111011110101100
00000010110111110101011111011101
11111111110101110110010011110001
00000000111011001111010111011100
00000000001011000100001111111000
00000000101010101001000001110101
00000000111011111000000001011101
11111110100001101010110010011001
11111111000001101111011100010010
11111111101111100111000010101111
00000000011001001010010001010001
00000001101001100111010000001011
11111110100010101110001100011101
00000000111100100110001001110101
00000000100001111011001111110110
11111111111110111111100001100000
00000000100100101101011111101101
11111111010011010110001001001000
11111110101100010000101000011111
00000010001010100100010010100101
11111110100011011101110011000000
00000010000011111101110000000100
00000001110000110000111000010110
11111111011111011000100101010001
00000001111100010011001101000011
00000000010001100001110010110110
00000000101111111110001001001010
11111111110110011111110011100101
11111111110000101101101100110011
00000000100000000001000010111010
00000000011010110000010001011001
11111110110000100100111000101110
11111111100101001011000010111110
11111110001011001011001011110100
00000000101101111000100101100000
11111111100000111100010001000000
11111111011000001110100111100111
00000000101000000000100100011000
11111111010101100001100011000011
00000000100110000011101011011100
00000001010011011000110100011111
11111111101011100101001001011110
11111110111001010100101110100110
00000000110010000011100010001111
11111101101000010010101101000011
00000000010011010111100110001010
11111111111010010010110110011011
00000000011111011111110000100011
00000000010110100000111011100100
11111110110100110000000001101111
11111111111011110000101111101000
11111110100011110000010101001100
11111111101001010100000100010010
00000000000001010000000110101001
00000010011111110001011100111101
00000000001011111111110011100001
00000001110110010000111010011111
11111111100010101010010110000110
00000000000001110111110101100100
11111110110110110111000110100001
00000000011001110001011011111110
11111111011011011011111100111011
00000000000000100000001100010101
00000000100000111001001010110100
11111110110110001111000011101001
11111110111101010010011110100001
11111111100101000011111000000010
00000000101101010110011110101000
00000001011100100001000001000010
11111111110111111101011011001110
00000001001101111111111010000111
11111111001010001011110101101101
00000000111111001110001001000111
11111111110101101101101111101101
00000000100100110000101001110011
00000000101010111111100001100111
11111110000111011000000001111111
00000000100100011101110101101110
11111111111110010011101011100101
11111111001100000111011101111100
11111111101001010010011100011010
00000001110101100010010001001000
11111110000111000110000011101111
00000001010000000101000011111011
11111111001110010001101100010010
00000001011100001110000001010111
00000000100011101110010111001110
11111110100001110100101010001100
11111111101011100010111010101101
11111110101100010011100100011001
11111111111101110110010110110011
11111111100010110101010000010010
00000000000001110101111110001101
11111110111001110100001110101111
00000001111110010000011111011010
11111110111010001010001000100010
00000000111001000011001000110011
11111110011111110000110101100111
00000001000011011011001111000101
11111110101011001001111110000001
00000000101111011110010000111101
11111110111101100000110100000100
11111111100001100101100001111011
11111111101001100110010101010000
11111101011010100111111010111110
11111111011101011001000111010001
11111101111001011000001010110111
11111111010011101000011101111001
11111111001010000101110011111001
11111111101000001001111110010011
11111111010001101111111100000111
00000001000010111111010000000000
11111110111111100010000000110100
00000001000100111001011101010000
00000001100000101100010101111001
11111111001000000000110011001101
00000000111101010011100010001000
00000000010101010000011101100101
11111110110001100100101011000001
11111111001110011001001101001101
11111111011000101111100001011111
00000010000000011010100111011111
00000000111010000101111101010011
11111111100001110001101001001101
00000000000100111110011011100111
00000001111110100011101000011111
11111111101101110011011010100000
00000010010001001001100111110000
00000000011101011001010011111110
11111111001101100110000011011011
11111111100000011011100100010001
11111111010011001100110000101111
00000001011011101001011110001110
00000001001110000100001000110010
00000010100111100011010011110011
00000000111010111110111110000011
00000000001010011001001110111010
00000000100001001010001011010111
11111110100100011111000110001000
00000011000001101000011110011101
00000000110110101001101100111010
00000010111010000100111001010101
11111111111011000010110110011100
11111101111111110011110100011001
11111110011000000111000110110101
11111111001110110010001111001100
00000010100111001110101001011100
00000000001000100010111001001010
11111110110011000101001000101001
00000001001001001001101111110000
00000000011100001010011111100101
11111110111100100010100100111000
00000000100111001100010000001000
00000001101101000110010100110101
00000000110111100010111011111111
00000000000111111101101010110000
11111111111101101101111110111011
11111110000111010111100101010100
11111111010110010010010010010011
00000000100101100001110011100100
00000010100110100101111110011101
00000011000001010001111000111001
00000010011010100010000010001000
00000001001100000001110101001011
00000001001111011011000000101000
00000001001111001000000010100101
00000100000000001001011000100110
00000011000100100111000101001001
00000011011000000001001101001000
00000001101011000011010000001101
00000010101111010011010001101110
00000001011010110101010000001100
11111111001100111101100110111100
11111111100100010101010101011011
11111111110110111100010010100100
11111111011101000001010011111000
11111111010111011000100110000110
11111111011000110001111110010111
00000000101010101110111100011110
11111101111100101111101101000010
11111111001110000100101001000010
11111111100101101010110010111100
11111111101000111010001010100101
00000000010111100010010010000100
00000000110011111001000010110011
00000001000000000100100001111110
00000001100110000000001000011001
00000001011000110001111110000101
00000010011100101011000100100100
00000010110111011001000101000101
00000010101101001011111100100110
00000011010011110100101110101110
00000011011110110000110110010001
00000011010100111001001000011010
00000001100110100100000110001111
00000000010110001011110110101110
00000010111101001010111100000110
00000010111110110100011010111010
00000010100101101000101000010100
00000001011111100000001000001100
00000001001011111101001011000111
11111111111110001110101000010101
00000000010111000001010100011111
00000000110101001010111100011010
11111111101111010100110000110100
11111111100111101011101000010011
11111111010100110001110011001110
00000001100010110101000000011101
00000001101010000100110010010111
00000000011011011110011111001101
00000010000101001100111000010101
00000001100011001101010001000111
11111111100101000001101010101100
00000000101110010010011111101010
11111111111100010100100001111010
00000001100110011001111111001100
00000001101001010110001001000001
00000011010011001000001000111000
00000011100111011000010011100000
00000011001010101111101100111100
00000000100001001001111111100000
00000000111001110001110110110101
11111111111011110111111111001100
11111111000000100001011011101000
00000000101001110111001011111100
00000010111101101111101000010100
00000010001100001000101101000000
00000001001000100001010001110010
00000001100010001110001001010010
00000010111010101010010001010100
11111110001010010100111111100110
00000000010011010110100100101011
11111110110110011110011100100101
11111111100001110000010111101110
00000000010001100110110010100100
00000001001110011110101001100100
11111110111011111011101010010111
00000000011000000001010001000010
11111111011111101011001010111101
00000000001100110110111010010010
11111111010010100001110101111101
00000001000100101101110110010101
00000000011100001000010110111101
00000000011101101000011010101010
11111111101010000110000110010100
00000000000010011011001001000111
00000001010111010110011111110110
00000000001111001101001111010011
11111100111111111111110011000110
11111100000011100011110111000011
11111011111000000000110001110011
11111111110010101101100110001011
00000001110111000100010110001010
00000001110111001101010001001011
00000010110011001001101011100101
00000001011110110000011110100011
00000011000111001011100101111001
00000010101101001110001110011000
00000000111101010000110001011010
00000001001110000110011110110010
11111111110110110111111111010110
00000001101101011001110110110111
00000000001011011011100100000001
11111110011001001100111010011001
00000001010110011101011010000111
00000001001010110111111111010011
00000000100111110000111000111111
11111111111111100000111001111111
00000001101001010001101101011111
00000001101011100111001100111100
00000001001000000100000011111110
00000010101000010010101001011110
00000000011100100010100111000010
00000001000001001000000101100100
00000000001001011010111001011101
11111110000100010001011010111110
11111100100000010110110010000010
11111011000101001101111011100011
11111101100110101111100001100011
11111110101111000001101000101111
11111110011100000011101101010111
00000001101110011100101100010100
00000010111000111110101111101011
00000010100011010010111010111001
00000011011101111001001001010111
00000011100000011010110001110001
00000001100011110011011000011001
00000011011101100111001110000010
00000000101110001001000001011000
11111110001100001011011111101111
00000001100110101100001111110010
11111111110101001011000011111011
00000000000010011000101010110010
11111101100101110000101100001110
00000000011101110000101000011101
11111111100100101101111001000111
00000001010100000000111011000000
00000000111101100000100110000110
00000001010110011110100111111100
00000001001111010100101011101000
00000001101011001101011111111001
11111111011000100100101110000011
11111100011011011001111111111101
11111100100000011010111000110001
11111010100111101000111101010011
11111000111000000001111111010101
11111011011000100111110000100110
11111111100001010001110111100101
11111110000010011111000101110000
11111101110010001111010111000111
00000001001010101000011101110001
00000001100010100000011011101000
00000000100110110111010000011000
00000011110101010100001010100001
00000010110100100001111000011010
11111111111100010011011000101101
11111111100110000000110100110011
11111111010101011010100100101001
00000001000100001000001100010010
11111110001101001011001010110001
11111111010011110111110101011100
11111100110101011100110000000110
00000000000010011100011001101001
11111111000000111000110101011010
00000001100010111111100011110010
00000000011111011010101101010000
00000000110010011010111110100111
11111111101001111101000000000101
11111111101010010000010011100110
11111110111100000000000100011001
11111110010101110100011001110110
11111011000011101101000011010010
11111001011000000110000001010011
11111100001010001110001101101110
11111110100101010111111001110111
11111110101000110001111100000100
00000000011000110100011101111011
11111110111001000111100101111010
00000001001110001010101000111100
00000010001111110100010000111110
00000001100100111001100010000111
00000011010010101011001101100011
00000100011011011011111101011111
00000000010100111101000001001011
00000000100001101011100011000100
00000000101110111110010110011101
00000000110010001011100111000110
11111110100011000011111000101011
11111111110010001101101011111001
11111110101111111011000100111101
00000001101111010100001111110010
00000000110011011100010010000111
00000000010011110010101101111000
00000000001011010111100011011010
00000001010100011000110100111010
00000001100100100111001111001011
00000000000000001001101010011110
00000010011011110011101001100001
11111101101111010111010110010000
11111011011010011110011010110101
11111011011000111110001010100011
11111101110001100110010110001001
11111101100000010010010001101110
00000001111111101101000011011110
11111110101110101100111011100011
11111101110111010010111111101010
00000000110100111001101111111000
00000000011010010011101010100010
00000000110101110001010011101011
00000001010011110001001111100101
00000001100010001111100011001110
11111111001001010110101010111010
00000000100111110111111100111111
00000000000001010000110101001011
00000000110110011001100101111011
11111111110001111011000111010100
00000000011101111100100100111011
11111110100011111011110110101011
00000000101100100100110010110010
11111110011001000000001000111101
00000000100011110100101011100000
00000000011110111001001100001000
11111111111100010010000101100001
00000001111001000110001000011100
00000010111111010110110110010010
00000010010011000011100110000110
11111111110011000101011001111111
11111101101000010010000000000011
11111100100000101100000100101010
11111101100110111010100001111001
11111111100010011000110110100101
11111110111010011011111111100111
11111111110000011100100100100010
00000000101000011100101001110111
00000001001011001101110000011010
00000001110010001111000111110011
00000000111110011001100110000100
00000011101111111000110101000010
00000010011010010001100111000010
00000000100111000100111111111111
11111111100010110110001010010101
11111110110100001111011110011100
11111111100111011100001101100010
00000001101110010101001000101110
11111110000101100111101100110110
11111111000100001101110000000011
11111110110010110011011011100011
00000000010111001111001011000100
11111110100100100001110010111100
00000011000001011101110001010110
00000001011011111011000110000101
00000001000010001110100000011111
00000010011010100101101001010000
00000011000011100101001110101110
00000000111010100000101110010011
11111111010111100110010010000110
11111111110100110100001111000100
00000000000110001011001111110001
00000001010110000101111101110000
00000000110010010000101111110011
11111111011101101000110111110000
00000001011001110011100001100010
11111101010110000000001100101111
00000001110101001011011110100010
00000000011110100010101110001000
00000001000111100010001010110110
00000001100110000111100001100110
00000001010001011010001100110101
11111111101010010001101100001100
11111111101100000001010001100000
00000001100011000110000010001000
00000000100010110010001001011101
11111111111011101000110110110110
00000000010000010001000111011010
11111111110111010001011011101110
11111111001101100000000000001011
00000001010101010011011111100000
00000010000101100100110010111101
00000000010001000111101100001111
00000010010011011010000100100100
00000010010101011011010001101111
11111111100101111000001100111110
11111110010011101010011111011100
00000001101111110000100110100000
11111111010100111101110001000101
00000000110000110111110001101000
00000000100010101001110011100101
00000010110111100100111011101001
00000000111001010010001010101011
11111111000011111011111100110011
00000000000101011010100000100111
11111110111010000011010010001001
00000001110110001011110010100100
00000000010010111101111110011111
00000001110010111001100000011001
00000000100101100101110010010001
11111110010011000111101111101101
11111101101000100111111000000010
00000001110010010001010000011011
11111111110111010000111111111010
11111111110101000000111010001011
11111110010101111100010011100110
11111111111011111001110100010100
11111111001100111110101010111000
11111111111111011110100100000001
00000001011101111010000100111011
00000010010010001111011010111100
00000001001100100001111101001101
00000001100011111101110110110010
00000010100001100011001001010000
00000001100100010000000011101100
00000010001010000100001010110000
00000010000101110100010010000000
00000010111110010001111100000010
00000000111101000101010100110110
00000000011100100001101010110100
11111110000000010000110010110000
00000000000000100100110111010110
11111111110011011110001100010100
00000000111011111011110010011001
11111111110111111011011100111111
00000001001000100100000010110010
00000001111010011100100000010101
00000000011000001101001100101100
00000001001010100111111010100100
00000010001101111010110110101010
00000000000011010101010111111010
00000001101011110000100001101101
00000000000100111100001010000011
00000000101100001011110101010111
11111111010101011010110100110110
11111111010010000110101111111001
11111111101000101000101010100100
11111110110000110000110100100000
00000000100011011101100011000001
11111110001110100100010101110010
11111111111000110100001000110110
11111111101001011111010010000111
00000000111110010000011111101101
00000001000110111001111110001001
00000001101000011110110111010111
00000001011111101010011110100001
00000000110111110011110101101000
00000000010101001110000011111001
11111110001111011101000000000110
00000001000110001101011100100000
00000000100110110110110110001100
11111110000010000100101010111010
11111110110110110001010101101101
11111111011001000001001011011111
00000000010010111000111000001110
11111110110001001111110000100011
11111111110011101011110111111000
11111110110000011011010000110000
11111111001101111100011111010001
00000010000100100000101101001111
00000001001111110011001000000010
00000000101101010000110100110001
11111111100000010101100101010000
11111110110011000111010110110000
11111110011100111101000001100010
00000000110100110000011100100100
11111111101110011111011000011000
11111110001000001100111110011101
11111111111011001101010111111100
00000010000010111101111110100101
00000000110000111110111111100001
00000000110101010101000011110111
00000001011101010001110111110101
00000001110000101000111101011010
11111111101101001101100001110010
11111111101110100101111001001011
11111110011010100100001101100001
11111111000001000111000010101000
00000000001110011010101011010100
11111111000100001000010100010001
11111110001010110001100000001001
11111111001110010010010000111101
11111111101001000100001010100110
00000000011100011010000110001100
11111111011010001110011011110101
11111111111010001000000101010011
00000000100001011011011010101110
00000000000110000101100010000001
00000000010101000010011010100110
11111111100111010010010101100000
00000000111111101111101101100110
11111110001011011110111001100011
00000000111011110010101001001001
00000000110011000110100111010100
11111101111011000101010101011000
00000001010111000001101110011010
11111111101110001000010001011100
11111111111001000001110110011101
00000001001010011010010111101001
11111111101011000111010100000110
11111111010011101110101001100111
00000000010011101010100101110111
11111111110111011111010000101011
00000001001111111001110001101010
11111111100011110100010000110001
11111110111101000100101011100100
11111110101001001001100100110111
00000001001110001100110011001010
11111111110011100000101100100111
00000000100110111101101010111101
00000001011100101111100100001100
00000000010100111100110110110110
11111111111010000111010110100110
00000000111010100010011001111010
11111111011110100100000011010101
00000000010100101000011010111101
11111111011110111100010000001111
00000000111111000001110001100111
11111111000100111000110010010010
11111110110100000000110110110011
11111110011101101100111111001111
11111111101000101111011010010110
00000000000010110011100001100011
11111101110111010100000111110010
00000000100010110010111101000000
00000000001111011011100100000110
00000010010010010111100101111000
00000000011011101000001000010101
00000001000101101101010011000011
11111111111101000111000011100110
11111110001001000010011101101101
11111110011111001011100010000001
00000000001001111110011101100101
11111111111101000000000111011110
11111111011001101000101110010110
00000000001111011100001111010010
11111111000010110100011001101110
00000000101000010000111010010110
11111111010111001101001001101111
11111101111100110001111111010100
11111111101101001000110110101111
00000000101111000000001111101110
00000001000101100010110110010010
11111110101111111001100000011100
11111111100100010101100110100011
00000001101110010001010101001111
00000000010010001101111011001111
00000000001010011000101110000100
11111111111010010001110011011111
00000000001101100001111101100101
00000010000000100110100111110010
00000000101111011011101100010101
00000001000111011011000010000010
00000001000000000101100010001010
00000000111010110111000000011111
00000000010110101001010011110011
00000000011100001101101110100101
00000010110111001110010101111100
00000000111010010111000111111111
11111101110010001010001101010110
00000000000001000010110100111101
00000000000010011100011000100100
11111111010000000001100010100100
11111110000111011011010111011010
11111111101100010101001110000011
11111111011000011100111001101100
00000000100101001001010011000110
00000000001101100000100000110001
00000000111010110000110001010111
00000000011111101100001000100111
11111111010110111010111000110000
00000000110111010010001101000110
00000000100000101100101100100000
00000001011000000100010111001111
11111111101110111101111111110111
11111111100010011101000100000000
11111110111101101100101000001111
00000000100011111000011111011001
00000000101011010101100010000111
00000000001110111010111100100110
00000001111000100111100111110111
00000000101100110100100110001111
00000000101110000100100101100010
00000000010000011011000000101000
00000001111010010001110101001101
00000010111001111000000101011101
11111111100111001010011001111100
00000001011111100110001110000110
00000000001101110110100110011000
00000010011011010101111101000100
00000000010110010101111110000011
11111111110001110010001101110110
11111111010011000000011001010110
00000000101010010011011000000000
00000000000001101111011111101000
00000001010000001101001000010110
11111111001111101000000010000111
00000000101011010001111010001000
11111111100110000001100000100010
00000000110111100110000101101110
11111110101011010011011100101110
11111111111101101101110000010011
00000000010001010111111000011110
00000000010010100000110010010110
00000000110011101101010000100010
11111111010001011010000001100000
00000001010101111100111101010101
00000001001000000101100100011111
00000001011000001100101111000001
00000001101011101111101100000100
00000000111100110100011100011100
00000001111010000101110001100011
00000001100010001011011001110000
00000000101111010000001110001011
00000010000010001001101100100110
11111111111010010101110101100001
00000000100100111001001110101110
00000000010010110011100110000000
11111110001010110111000110101111
11111110101111111000111110000011
00000000110000100011011111010010
00000001011101011110001100100100
11111111010010100001010111011010
00000000110111011010110010111101
11111110101010001001111010011111
00000000100000101100110101011001
11111111101011101010111110101101
00000000000100110010101111011100
00000000010101101110100100000011
00000010011110001111110110000110
11111111000000011100001110010001
00000000101011100000001001101101
11111111100111010011011110111000
11111111001011111100001101100100
00000010010010101101111001011010
00000000101010010101011010010101
11111110111101101000000111111001
11111111001110010000001011010111
11111101100100101001010000001101
00000010000100101011101100011111
11111110100000001110000111000001
00000000010000101100010001101000
00000000011011111011001111100110
11111110110011100111011111110111
00000000011101010010011001011010
00000000000001111000011111111011
00000000101011001001100100101100
11111110111110010110110110101001
00000001000010001011111000110101
11111110011001011101011011100100
11111110111101001100101100011000
11111111000010000011110000100110
00000000110010111010111000110001
11111111001001011111111000010010
00000000011101101101101000010000
