11111100111001100100011001100010
11111101011011101111111010000101
11111101101111011010000000111000
00000001000011011011001100011110
00000010010111011101111110101101
11111111001010010010010101000110
00000001001110011011000100010111
00000000100100001011000010100000
11111111001000110010000111101101
11111110101001010000000000000110
00000000001000110001010000111011
11111110110011100110010010011011
11111110111101110100110101110100
00000000101011110011110100010100
00000000100111110001000000111001
00000000100100111101101110111111
00000000111001010101101010111100
00000001010010001011101111000010
00000000101111101111110110100000
00000010111101111000000111110101
11111110011101111010110110011010
11111110010101011001000011111001
11111111001111010011000010010111
00000000011000010111111000110011
11111110010011010001100011010100
00000000111000000010110101011000
11111111010000000010010001000101
11111110000000111011111011000000
11111111010110011101100001001010
00000001100101100101111000100010
00000000001011010100110000111110
11111111111001011010001100000111
11111111010100111111011100011001
11111111100001011001111100111101
00000000100001001100101101111011
00000000100011110010100100000001
11111111111101111110111011000110
00000000000000001100011001000001
11111110010000111111000101111011
00000000001100100101101111001101
00000000011100010111110011101100
11111110100100100111101101101111
11111111110100011111111110111010
11111111110100010000110111000010
11111110110100000011111010000100
00000001000000111101000000000000
11111111101010010110111101010100
11111111110001011011100111010111
11111111110100001000001001001000
11111110100111000110101111010101
11111110100100110110101110110001
11111110011010111100001110111111
11111110110110101011111110010001
00000000010010100011010001011000
11111111010000100001101011000001
11111110101011101100101011110100
00000000101000000010111100000010
00000001000001100111001000010110
11111111000011110110101100010010
11111111111000001011000100110011
11111111110110011100001100111010
11111110001101001111011010011100
00000000101000001101010011100110
11111110110110111110101110111010
00000000000000001111110001111111
00000000100010100010011001010110
11111111100010011100011000100100
11111111001101010111110110011001
11111110010011011011100000111101
11111111010011111111010001001110
11111111011110100101101000101101
00000000000101001001110100110011
11111110111100101111011110111100
11111111010010011101111001000001
11111110000110001011110111010010
00000000011111100011001011001111
11111111000111111101010111000011
00000001101000010101110010010011
11111111011011100100100001010100
00000000000101101101011110101010
11111111100100111110001100110000
11111101010001111011111001010011
00000000011100111001000110011001
11111111101000000110010010010000
11111111011011000011101100101100
00000001000100010001010001101001
11111110010010110011010010100011
11111110101001100100000100111010
11111111000110000100111110111011
11111111000100000001100110010111
11111111101001000010100110001011
00000000110101101000011011000111
11111110111101111111100111000011
11111111010111001100101101000000
00000000000000010000111011001001
11111110110001011011111010001010
00000000111111000101101011000011
00000000001001100000001100000100
00000001101001110011110111110011
11111111001011010101111110100011
00000000101110000100100011101001
11111110100110010111100101101110
11111110100011111011101110001010
11111110001110000011000111111011
00000001010100111101111001010111
00000000100001110110000010000011
00000001010101111111000101011101
00000010100111011101001111111010
00000000111111010111111110000100
00000000110100010110010100010100
11111100101111111111100001110111
00000000110001011011000111011000
00000000011111100011101000001001
00000010101000001110010110100111
11111110101000011101110001110011
11111110111011000110011101010001
00000010001001110011001010011000
00000001000001001100011110011111
11111111110010011011000010010000
11111111011111101011010100000110
11111111011010110010000011010001
11111110101110010101000010011000
11111111111110010010101111011110
00000000100110110111000101000110
00000000011000000110111000111001
00000001010111111100010001111101
00000001101001010110110100110011
11111111010111011100001001110110
00000000011100101111001110101111
00000000010110100111011011111001
00000000101010111010111011000100
11111111010110011010011001110111
11111110110000101010101010011000
11111111100110100011001100100110
00000010001000100011001110111010
00000000011010100100100100100000
00000000100001111001000011110001
11111111101000001110111011100111
00000000101001000100111011011011
11111111000001000001011101100111
00000000101000110000000010000101
11111111110001001000101110111101
00000000110100011111111000101101
11111111001011101000110000001011
00000000010110000001010110011111
00000000011111010010110100101101
00000000101001110011101110000001
00000001010000111010010010001111
00000001010111101010101001100000
00000011101001001110101001000111
00000001111010011100111010100010
00000010111011110011011101010110
00000010000100100000010010101011
00000010101011000110101110000111
00000010101000001001100010110111
00000001101101010101100111011001
00000001001110101010010110100001
11111111100010101111111110111101
00000001010000011000100100010000
00000000010111001011001001010010
00000000001100010101010000001011
00000000001111011111100111111010
11111111101111001111111100010001
11111110001110010001000011000001
11111111011111010100100010000000
00000000111101100011011100010110
00000000000111011010010101001100
00000001010110001001100110011101
00000000110110111100100001010001
00000001100100001001101111001001
11111111001000000011010010011000
00000000001001011111101011001010
00000001010010000011000101111001
00000000100100100001101101000000
11111111111001000101011110001010
00000010001111001110110111000010
00000010000000000011100010000100
00000000010000010001011110111011
00000010010001001011111010110011
00000010011000110110000111000001
00000001001000001110110101000011
00000011010001001010101011010010
00000001011110001001110100011011
00000010000011111110100111010100
00000010011101110110010000011001
00000000010000110010110110111000
00000000010011000000000110011001
00000001001101110001100111001001
00000001001111010110001010101000
00000000110011000010011001101000
11111110010011110111111000101000
00000000010001101011010111001010
11111111110010101111000000000111
00000010000010010101000011000000
00000000001011010101001010001010
11111111110100111000011010010110
11111111010010001100100011101011
11111111001000101100101011000010
11111111101011011100111011000100
00000000101001110110001100010110
00000001110011111111100000110111
11111111111111100100011000111010
00000001101100110011011111100111
11111111110110011110001001100010
00000001100001101001011111011000
11111111100001010110011000000100
00000000111101101000011011001010
00000000001111111001111010111010
11111111011001010100010000100010
11111111110010101101111110000000
11111111001010001011100100101100
11111111000110111000011000100110
11111111111001001010101011011100
11111111100000011100100001111011
11111110011111111000000101111010
00000000011001100010111001010110
00000010000001000001001111000000
00000001000100011101001101011000
00000001110000100100011111011000
11111111100011100010001100101111
11111111111110000110111011000110
00000010001100110001110000111001
11111110101000000001110000101110
00000001001110010111000010111110
11111111111111000101100100001010
11111111011001101001011100010011
00000001010011001110011111111000
00000011011100101010010010100010
00000000000110011001110011110101
00000010000110010001011100110101
00000010001011011000111001100111
11111111111111110110101110001110
00000010011000100110001101110111
11111111100011001110100001010100
11111111111011001111110110111010
11111111111100111001111100001101
11111111011001000111100101001001
11111110111000000111110000111111
11111110101100000100000111000000
11111101101011101000010001010001
11111101011100101010001110111011
11111110111001100001000010000010
11111110100101011100000010111010
00000000111111100100101011001101
00000001001010100101010110100110
00000010010010101010011011011111
00000010011101011001000100100100
00000010001001000001000111111100
00000000111101111101110011110000
00000000000111101110011101101001
11111110010110001100110010100101
00000000110010111101100110011111
11111110100000010110110001111010
00000000110010110101001000101010
00000001100111111111011001010010
00000000101100110001111010001111
00000001000001110101010000000000
11111111001100111110111101011011
11111111101010100110110100001100
11111111011100111011101110110001
11111110110000110101100100101110
11111101100010101011100011000111
11111100011010011000110010011000
11111011110100001101110111100111
11111101001011101100100101011011
11111101110001011110101101010001
00000000101111100011110110110011
00000010001100100111010010111000
00000000101000100001100100100000
11111111001011001111111010001011
00000000000111001101100010100000
11111110110011001110011010100010
11111110111110110011100111111000
00000001101110110000011110000001
00000010111111101001010011111110
00000000011000101001101101111001
00000000110001011001100111110111
00000010000011010011100011100101
11111111001110100010000001010111
00000010000111101010100111011101
11111110110010111011111100001101
00000000010000011000110011000000
11111111110001011001010101010111
00000001001101101110010111000100
11111110001010100000100110101000
00000000010010100011110101110001
00000010011101001000010101011001
11111100111010000111001101000001
11111100100001110000100011110001
11111101111011111000100011110011
11111110000110011001111110001101
11111101011011100000010011010111
00000000101101101100111001000011
00000010010101011001100101111011
00000010010110110000111100101100
00000010110000100011110100110011
00000001111111100110100010011101
00000000011101001000111010110000
00000000001110000111001111010010
11111111101101111000011001100110
11111111101010110101110000011111
11111110100111101011100100110100
00000000100010000000000000100101
11111111111111100000001110110101
11111110100100111010111111011110
00000001001001010100010011011011
00000000111111110101110001000101
11111111100110001100001010100101
00000001111110111000111100111100
11111111011101010100001100011010
00000010001011101000001110001111
00000000100010111101000010101111
00000000010001100011110101110010
00000000001010110101010010001111
11111110100010001010100000111011
11111111000011010000000100001001
11111110000010000100111001001100
11111101101101011110110101100100
11111101110011000011111010000011
11111111010111001110010001100111
00000000010110001101010101111111
00000010010010000110011110110111
00000100110110010100011011100000
00000101010000010011100011100010
00000010101110011001000001011011
00000001010011100101111110111111
11111111011011011110101000000010
00000000000101000011010010101101
00000000000001110110100001111100
11111100100010011110111011101010
11111111111100010100101010011101
11111111001101010100101010101011
11111111100010001000101001010001
11111111110001111010000011000011
00000001101110010001111100001110
11111111011011010101101111111000
11111111001000001110101111010000
11111110110110010000001011011100
00000000101000010001010111100001
00000000001011001010001011001111
00000000110111101001101011111001
00000000000010101010101001011111
11111101110011110101000101101111
11111111001110010000111010111101
11111110001011001100111011011010
11111110011101100111011110010010
00000000111110111110010100001101
00000000010110111000011101001100
00000011110110010010101001001101
00000100110000000100101001111110
00001000010011100110001100010010
00000110101100011100001101111011
00000011000010111101001100001101
00000001110100011100110111010000
00000001010111010100011100100100
00000000111100011100101101000010
11111111101110111100011100001000
11111101000011000010111000100111
11111100111101111000110000111111
11111111000111010000011100111100
11111110010011000111101011010100
11111111000111000101001100001000
00000001110010010100100001011000
11111111111101011011111100101001
11111110011110011100010011111010
11111110110000100010101110101110
00000000010010001001010010010011
00000000100110011000111000000000
11111111000010010101011011011000
11111111001111101000111011111101
11111100100010001101010100101101
11111100101000010001100000001001
11111100101010110010001101111010
00000000111101000010110110001111
11111101110111001111000111101011
11111111110101101010111101110011
00000100001001100110000011010011
00000110011010110010001110101011
00001000001000111100111101111100
00000101010111101001001100110101
00000010001110101000111010100110
11111111000011001110101010001010
00000000101111100011101000100011
11111111000010000010100001101110
11111111010111110111110100110111
11111100110011011110101010110111
11111110011000101011111101111111
11111110011110010000010001101011
11111111110001001110001101000100
00000000111111010111011010010100
00000000100011001110111101000011
11111111110011011000110101101011
00000000111000010001001101101011
00000001010010001110111110000000
00000001000011010011110011101000
11111111111111110010111010011011
11111110010011001101100010100101
11111101111010100110000011011010
11111101100110110101010100000010
11111100101110101011001010010011
11111101000101101100010010111110
11111101111000111001010101100001
11111111101111001011000000100010
00000001101100010011110010001111
00000011001011010111111111000011
00000110101001011010100101011011
00001000011100101111101000001100
00000011010010000110010101110110
00000001111001000001011010011101
00000001000001101000110110001001
11111111010101000000111010111001
11111101110011110101000111010010
11111110010010001000101111011010
11111101010100110011101100101101
11111100110100101100000110011010
11111111011011000011000011000001
11111110011111001100101111001100
00000000011111000101101000100100
11111111001100100001011001001010
11111110101111111110110100001001
11111111100011010011001110010001
00000001001001111101111011001011
11111111110000001000110011110100
00000000000101101000110100110100
11111110011111110110101110000011
11111101110110001000111111001101
11111110111101001011010011111001
11111100000011111110101000000111
11111100111110011001110001001101
11111011101001000000111111110110
11111101001100001111110010011110
00000000110001110110101111011111
00000011110100111011010001000101
00000110010001110100110001000100
00000111101110010010100111110001
00000100101011011100101111111001
11111100111101011111111111010111
11111110000001000101011100100001
11111110100001011001011111100100
11111111001001101000000111001110
11111111001110101111101110011010
11111101111010001111011111001110
11111110001000101001010100010010
11111101100011111001011100100001
00000001000010110010001101111000
11111111111101011001101011000110
11111110100101010111110100000110
00000000100001100011110101000100
00000000011111111100111000101000
00000010011010000111001111011011
11111110111001010000111000000100
11111111101111111001110111100000
00000000101000010110111111011111
11111101101001010011010001011000
11111101101000110111100111000000
11111101000000111111111010010000
11111100011100110100011111110010
11111011111000111101111001001101
11111101011011111011101011111101
00000001011110101000000000010000
00000010001001010101001011011000
00000100110101001101000010011110
00000010110001110001111001110000
11111110011000000001110010101010
00000000110000100001011011111011
11111100001011101100000001011110
11111101000111001111101111011101
00000001011110111000110100011000
11111111000111001100100000001011
11111110101000111011111111110110
11111111000011010110110110011010
11111111111100111110100100100110
00000000101011100111110101101001
00000000010010011010011001110011
00000000100110010000100010011000
11111111011100100101011001011101
00000000101101001010101111111001
00000000011111001001101001100111
00000000101011100000101001111000
00000001000100100000101000001011
00000001000000111001101010111010
00000000001111000100000011010110
11111111000101011000101010110101
11111110000010010011101100000010
11111101111011100001110001110101
11111100010011110101001001111010
11111110011101001011110000111110
00000001010111100011000111011000
00000011001000011101110110101001
00000000111010100000010001100011
00000011001011110101000011101111
11111100110010111111000101010001
11111111011110000100110101011011
11111110100010110110010001110010
11111111110111100110011001010010
00000001000101111001101000001000
11111110001101011000100111110100
00000000100101100110110011000110
00000000000001101010110111000001
11111101010101001111100010101111
11111110111100110101011001001101
11111111000000100100111101000000
11111111011011010000101011001111
11111111101111001110010000110010
00000001110110011110000111000000
00000001101011011000001000000101
11111111001010000110001111011111
00000000110001000010011001111100
11111111011101011010011110001101
11111111001110000111100110001011
11111110010010110010011110011010
11111101000110001101001110111000
11111111101010011111011001010001
11111110101010100101111000010101
11111111010000111101000011100000
00000000100110001011011110110000
00000011100101100010010011110111
00000001101101101111000110111110
00000001000111110101000101001010
11111110010000110111110011110010
11111111100100010101111011000010
11111101000110110011100111000101
00000000110110101011101010001111
00000000101011100001010101001111
11111110011011100101001111011011
00000000111010000000010100110110
11111110101100110101111110111011
00000001010100000010010001110010
00000000111101111101111110110010
00000000101010000111111010101010
11111111000000100100101010111000
11111110011110101011100100011001
00000001000100001111000110100101
00000000110110010010110101101110
00000001100101001010100000111101
00000001010100101001101100100110
00000000010011000010110001111110
11111111101111011010010000001111
00000010011110100111010101101111
00000001101010011000100010000110
00000000011000100001011101101001
00000000011101010000010111000000
11111111001110111111001111001010
00000000010010010101111000001011
11111110111111011110001111111010
11111110000010100100111111000010
11111110100100000111100101010001
11111110011111111000111011111001
00000000100110000101000000011011
11111111000111011100110010111100
11111110000111111000010010000011
00000000100010000111011000011100
00000000011111110100110111010100
00000000110000100111100101010101
00000010000011000000010001111000
11111110110100111010001011010000
11111110111101100000011100101000
11111111111010011110000100101101
11111111001011011111011000000011
00000001000111011010101011001000
00000000010011011010011111101101
11111100011001000000100010001101
00000000110100000101100111011110
00000000101110001011011011011000
00000000100001001110111001011110
00000001101111010110001111011101
11111111111001011010110001001100
00000000000010100010111011011000
00000000101101001010101101011100
00000011100101110000100100011000
11111110010010111000101110110010
00000000011110010101111110101100
11111011101011110111101100101010
11111111110101110100000101101000
11111111101010100101101101100110
00000001111110111000100110101000
11111111010101010011011100110000
00000001000100011010001000010001
00000001000101011001011110000110
00000000011010111010101100010110
00000000110001001010011110010111
00000001110110010010010101101011
11111111111011101001001101110010
11111111010000001101000100000001
11111111110001000101101101110001
00000010001101000100100101010111
00000000011011011111111001011011
00000010001100110001101111111100
00000000110101000011010011100010
00000000100100110100111111001011
00000000010010101010111010010010
00000000000111100011010100011100
00000010100101011101111000001000
00000001100000011011110010110110
00000001110011011110100101010000
00000011100110001100000111101001
00000001011011100010101000010110
11111111111000100010100111000000
00000001010101110000101001111101
00000000001011101011000011001100
11111111001011011110101001000100
11111111110001110000110010011101
00000000100101001100001101000110
00000001010011101100110011110111
00000000000110010111001110011001
00000001000011100011011111101110
00000001110101010111011111011010
00000001111100010000000110000010
11111111000100000001100001111101
00000000111000001001010000000101
00000000001010000111110000101011
11111110001000111101111101111100
00000000010010100101000011000000
11111111010110000100100101000100
00000000111100000111101101011011
11111110101011000001100010000110
11111111101100101111101110001111
11111111100010000110100001100011
00000001011101110110011110000100
00000000100001100000100011011111
00000000111011011111111100111010
00000001110001001011010001110001
00000000100011110111101101001101
00000001001001001100110111001111
00000001110001010111100100110100
00000001111100111101010111110110
11111111001101000101111111000101
00000010001010101010000000010011
00000000101111011010000100110010
00000010000111111000110111000000
00000010010100001000010110011010
00000011010110001110001001000000
00000001001110001100101101010110
00000001111110100110110111010001
00000001000000110011100101000001
00000000011101110111101100010110
11111110111110100010110010001111
00000000111011111000010110110011
00000000011101000011000110101011
00000000000100010101101011000111
00000001100100010010100100011011
11111111100101100011110100100010
11111111010011011100100101101111
00000001101100001001001011000000
11111111110100111010101100011011
00000000100100011101000011010010
00000000001110010101101101101110
00000000111111010111011000110100
00000000110001111101000101001111
00000000011111000110010100111001
11111111010010011100011110100011
00000010101011011000110110011100
00000001000101101111100111001100
00000000001101110100000111010100
00000000100011101010000010100100
00000001010100010010110010011100
00000001101001110000001101110110
00000001101100011110000110011110
00000011011000010000100011110010
00000011010000111000001000111111
00000010101001101010101110000000
00000000101001001110010110101000
00000000111011010001100110011100
11111111111100000001000000001111
00000001100000110100001001110110
11111111010110111000110000110000
11111111110100110000011100111100
00000000011110011100100101111000
11111111000110000110011110010001
00000001001001101000010111111001
11111111001100010100011010001100
11111111011001000110010110100101
00000001000010101110000001100101
00000000000110001111100000100111
11111111111101100000011010010111
11111110100010010011101010011001
00000000010100001101101111011001
11111110110011111101010010000010
00000000010110101100011100000100
11111111101111100101101010100111
00000001011111111001110110011011
00000001001000011101101101010110
11111111110110111110000100011110
00000000010100010111010111111110
00000000100110110101000111000011
11111111111100000001010101111000
11111111111101000011011001010100
11111111111101011100111111101111
00000001010110001101010101011001
00000000100010111011000110001101
00000001001111100101011111000001
11111111000001111011111111101101
00000000111000111010011111001111
00000001111101010001000111110001
00000000110110111110111111110010
00000000000001110100011111010100
11111111111101010010110110001110
00000000111100011001100101001111
00000010000100100001111010011111
00000001000001001100011010000100
11111111100101111000000000100100
11111110110010100000011000001110
00000010000011110001100101111111
11111111011110101010000110000001
00000001111111101000010110000011
00000001011111110001010101000101
11111101111110010011100010001100
11111110010011000001000111000000
00000000111001111111111111001001
11111110001110111011100101110001
11111101110010101001011110001100
00000000001111001110101100101100
00000000000000010110000000110001
11111101110011101100010000001010
11111110010110100110100010101000
11111111010111111101010101111000
00000000111111100001101000110111
00000000101001010010000101100110
11111101111111100001111000100100
11111111100100000101000110111110
11111110010110001101000101011111
11111111110100101111001000000110
00000010100111010110000100111110
00000000001101111001110001011110
00000000100010001001111011001000
00000001011110111001001011111111
00000000100001111111001000101101
00000000001011001110110110101110
00000001111010100001111011110110
00000000111001110001010001111001
00000000001011100011011100101011
00000000010010011101001111110101
00000001101111111100010000101011
00000000011110011001111100010111
11111111101010010100100000100000
00000000101010100110011111111000
11111111101100101101100011110001
00000000001110110110110011100010
00000000001010010101001110001110
11111110010000111010001111011110
11111110010010010011110001000111
11111101000001110001111010110000
11111110111111010101010110000011
11111111100100010101010101010000
11111110111100010100110101001101
00000001011101100011001111011100
11111110111111110011011000100100
11111110111000001110000110100110
00000000100110010101000111011111
11111111100111011110010001101010
00000010000100110101001010111001
00000000111111001011011001101001
11111111101100111001101100000100
11111111010101001110010011010001
00000001010110001000111111000000
00000000110010101001110100110100
11111111111110100011110111101011
11111110001100100100111001011010
00000000110101101010111110010101
00000000110100000101011011011101
00000000100011100111000100110001
11111110000110111101010010001100
11111111001111001000111111011111
00000000011000101011000110010111
11111110110100100011010010100000
00000000101011000000000111000011
11111111001101011100101011100001
00000000011011010101011111111110
00000000010101111100110001111011
11111111011111110001001101010110
00000000001011110111010101000010
00000010011100101101000010111100
00000000100011100010010011011000
11111110010100101001000000011011
00000000000010110110000111111000
00000000111000000000010010011000
00000000100101000001110011100000
11111111100010000110010100100000
11111101111011001110110001011010
11111110111000000111101111100101
11111111000110111100101101111010
11111111111001000100111001010001
11111111010100010000010001011011
11111110101101110000011111101100
