00000000111100101001100110100011
00000010101010111000101000010000
11111110110100111011110101110010
00000000000110000011000010110011
11111111110101010111111010110001
11111111100101001111001001100010
00000010110110111001011100010001
11111111010000111001010100011111
00000001110000000101001101111010
00000000111011000000110100000011
00000001000110100100001100000010
11111111011100011000110001000100
11111111100001111000111001110110
11111101111001011110101001110100
11111111011010010001011011010110
00000010110101110010000010111011
00000001100111111001010000101001
00000010111000011110110101001000
00000000110101111111110011010011
00000001000101000111000011110000
11111110110110001000100000010011
11111111101010100001000110110100
11111110101011011111011001010000
11111111100011010111011110010110
00000000101011000100110001111010
00000001001111110001011001111010
11111111000111100010011011011000
11111111001011010100110110110101
00000000001111000101011111000100
11111111110101101100100101011001
11111111011011010010001010011101
00000000000100110111011010001000
11111110001111010000010100110110
00000010001011001110000010100000
11111111101101011100010001110110
11111111000110111010010011010000
00000000010000011101111100100110
00000000100011000101100111111000
11111110111101010111011000010001
11111111110110100000010101010001
00000000011110010111010000110111
00000001010001010001001100110101
00000000100111010001000000100000
11111111100111100100010010011110
00000000001010011011001010101111
11111111110010000011111010010010
00000000111100001110100010001001
11111110100010001110110000000010
11111111101000101000110010100100
11111110110011101011011100100111
11111111000110110000100001011011
11111110110000111100011100100010
11111111011101110010001111000110
00000000110110100100001001001100
11111110011011110010001100001011
00000000001010110100010101111110
11111110110000001101010001000000
11111111111100011111100010111011
00000000011100110111000101111000
00000000010001100001111110010101
11111111101111011111101010010110
00000010000000101011001010011101
00000001001010111001001111011111
00000000010000111111100000000111
11111110101100100101111001101010
11111110001000001001101010010100
11111111101101110001110001111110
11111100110110001001100000100011
11111111000101101110001110000100
11111110101000111010110011101110
11111111001011101000110011011100
11111111000111001011111010010011
00000000110100111111010110011000
11111110000100011100001011111110
11111111001100001111000011111101
11111111010010000100001011111011
11111111011011000011101100100111
11111110111011111110100101110101
11111111110011110011111000101000
00000000001100010011100111001101
00000001001100101110001111010111
00000001110101010011000101111011
00000000000101100001001100011001
00000001101010011111000011001001
11111110111111100111111110010001
11111110110000111010110101010001
00000000000011000001000010101111
11111111110000110111111010001010
11111111100101110100001110100011
11111111000110000001110111010010
00000001001011111011111111110011
00000000110000010110111101100010
11111111000001010101110001101000
11111111101011010000110101101110
11111101011100100011111001001111
11111110100100110110111111001011
00000000001000011001000111101110
11111100011100111100001101111110
11111101011000000101000101101110
11111100010101101111000011000001
11111110001000001000101111111100
11111110100010101111011111110101
11111111001111000001000011001010
11111110010010101011011111100110
11111111010101011001110100110011
11111111101111011100010101001111
00000000100100100110110100100010
00000000101111110010010001011101
00000000011101111110000101100001
11111111110011100011010111110000
00000000101000001011000101011110
11111111110111110010110000001011
00000001011110101110101010010101
00000001011000110100001110100011
00000001101011001101010101110010
11111111101001010111000110110010
00000001101100110101111110001000
11111111010000010111011011000011
11111110110110000010000010110011
11111110110010011001111110111110
11111101110010110010110000001101
11111111001100011000111010110111
11111101111010010111110010100100
11111100000011110010010010010000
11111011111100111111000110110111
11111011110001110011100110001110
11111010001110000100101110101010
11111011011000011010001000010001
11111100010100010011011000101111
11111011110100000001010101010001
11111110000100111001101100001011
11111101101101110001000010101001
11111100001111110011000100011001
00000000010010110101001001011100
00000000100101101100110010000010
00000001001101100000110101001100
11111111100010101001010111111011
00000001011100111010000101111100
00000000010010000000110001001100
11111110011000110000001110011111
00000000011000100011001110110100
00000000011000011111111010110111
11111110110110100101000101111000
00000001010110100011011110101000
00000000111100011111011111000100
11111111011100111001010010111100
11111110100011111000001101001001
11111101000110010110100100110111
11111111101010111000111000101001
11111101100001101111111011000001
11111101100111110001011000001110
11111011101100111010100111001000
11111010101100011110000001111100
11111001101100100111001101111000
11111001000101010000111101010110
11110111010110111111001011001100
11111010111110111010000001010110
11111010111100000011001111110110
11111100010010001110011010100110
11111101110110101101111010010100
11111111110100101111000100101011
00000000011010011100000001111000
00000001001100010111101000001110
00000000001000001111001011101011
00000000000100001001111110110101
00000000000100101010100001101000
00000000001111000000001100001100
11111111001010101001110011011101
00000000001001011001011110000001
11111110001100100000001000111011
00000000000010001001011001100100
00000000010110100101110110110001
00000000000100010101110111100010
11111111010111000011011101010111
11111110100001001100101101011100
11111111101000101111001111000001
00000000101110000101101101000001
11111110011011000000000001100101
11111100010000010110110110011110
11111100101100111000000000101110
11111011110011110000100001000000
11111010100000010000111001100100
11111010100010000111011100110011
11111011111001001100001010100011
11111011001001101011101101011101
11111100001000111101111010010110
11111101100010001100101111100111
11111110001001101101110101100101
11111100111101011110011111111110
11111110101010001001000101000010
11111101100100101101010001100110
00000010000101011001001111011111
00000000001100110011110000101000
11111110010000011010011101011000
11111111111110010000111111100010
00000000001100001100011101010110
00000000101110011110000011100010
00000001000010111101100011001111
00000000100101011100011111000010
00000000000101111000001110111010
11111110011110101110000100100110
00000000111110000111111011011000
00000000110010111111111001000100
00000000001101110010111011101110
00000000101011010101110001011000
00000000000010110011000011000101
11111111101110001000100111011011
00000000111011001000111110100001
11111111000000100111001010001100
11111101110010100100111101010000
11111110010111011000001111011110
00000001000011110000010110111011
00000000001111110000000010010101
11111111110011100110000010000010
00000001001100000110110110010100
11111110001101110100011100001111
11111111000001011001001001100000
11111111101011000100110111101001
11111111010011110101100010000010
11111110110101100100101000101001
00000000011100010011000100111101
11111111001000111001010001111000
11111101010001101100010010011001
11111111011111101111010100000100
00000001000001100101101001110010
00000000011101100011100110110000
00000000011011011111110011100010
11111111000011100001010001010010
00000000011011010001101000011000
11111110100101001100000000111101
11111111100100111000110001111001
00000010011101000010001111001011
00000000011111111010100101001101
00000010100001100000000001010010
00000010010011111100001101001000
11111101011000000101000101000110
00000000000010111000100100000110
11111111000110011001000110101011
00000001000010101100101110101110
11111101110010010001100000010111
11111111011010001001000100100110
00000001001110001010110010100100
00000000110101010010011010101101
11111111111101011100011110000010
00000000010000110111001011100101
11111111001011111100110010111001
11111111101111011000010110000111
11111110010010100111111111110000
11111111001011101101000011010111
11111111001011000011001111111110
11111110011101011001101111111101
11111111101101001011010100111101
11111111101010010100011000111111
00000001100010000100010110001101
00000001000011101010000001111111
00000000101011001011011010001011
11111111001011001000111010001001
11111111010110100110011010011111
11111111110000100100100110110011
00000011000110010000001001011011
11111111110100100010100101000100
00000001100010111111110110110110
00000010010010110111000011011100
00000010101111100111100011100100
00000010110110110001100010110011
00000000000011011011110101100011
11111101000100000011101000001111
11111110010000101001000100111110
00000001011101101111001100111101
00000011111011001110001111010100
00000010000110100111011100110111
11111110010110010001011001010011
00000000011010000001100100100000
11111110110101001001100110101110
00000001010011000110001111011111
11111111100000101101000110100001
11111111110101110001101011101001
00000000000010010111111010010000
00000000011011011010010011111000
00000000000100110111101111011011
00000000000100101101101100001111
00000000001111101000011111010000
00000001000011000000010111000000
00000000101110101001101000100011
11111111111010010000011110110001
00000000100110011101001001000111
00000010011101000011001110011000
00000001010011100011000111000101
00000010100110011110101110100111
00000011111111011010001111110000
00000011110100011010001000001001
00000010010110011010010010000000
00000011101110101010011110100101
11111111100001000100000010010000
11111011001001000010110110000010
11111101100101100010100100011001
00000001100100000110110100010100
00000101000101010011011011111100
00000011010101011001111011111010
00000010010001011010011110000001
00000000010011010101010101000011
11111110000010101110000101110101
11111101011100101000111010111101
11111111000011000110101101001000
11111110111010111100011001011110
00000001100010010011100001001100
00000000000010010000011100011111
11111100100110001111001111111101
11111111111111100010101111011010
00000000000001010110110101101000
11111111101100010110110010100001
11111111111001011110011001101110
11111111111000111100011010010001
00000000110100011101011010011011
00000100001111101000011000001001
00000011111010011011001111100111
00000010111100010101010101000010
00000010110010000010100111010001
00000100010001100110011000000010
00000100111100110001111100110111
00000000001010101011011110011110
11111100111010011001100100111010
11111010001110000110100011010011
11111101111010100010110010011101
00000011000101111010101110111100
00000101010000100001111101111111
00000011101000111010011110011010
00000011000010101101000101010000
00000010001110011000101111100010
00000000110101000110101101100010
11111110010100111110111111011111
11111111011110110011001000000110
11111111100010100111100010010111
11111110110111001011110001010001
11111110100010000111011011011100
00000000101000110110111101111101
11111111101110100010000101101110
00000001000011001001000000100100
11111111010111000100000110100110
00000000100111011001110001100110
00000001000010110010110111110001
00000001001111111101000111011001
00000010110101100011001100111111
00000101000001101011000011000010
00000010111110010101011000001000
00000011101000100000101101011011
00000001001011010101001100011010
00000010001011000111100111100010
11111111011001111001011011000101
11111010100110111101111101111101
11111000111011110110110011101100
00000001000111100001100101000101
00000100000011100001110000000010
00000101101101010100110001111010
00000011101010111000010011100111
00000010101001011111001010010000
00000000001010100111011010101110
11111110111011000011011111101100
11111111010000011001110101001111
11111101010111110001001010100111
11111111010000111011011111100000
00000000000001100100000101100111
00000000001001000110100101011100
11111110101111010101100110101010
00000001010010101001000010011101
11111101111111011011111110111011
00000001011110111001101111001110
00000000101100110011110011100010
00000001010101101101100101000100
00000010100110000111001110111001
00000010011011011011100010110010
00000100100000010101110010000100
00000011011000001101000000011111
00000010010011110110001010010111
00000001001100111101010001100100
00000000010010110110010010101100
11111110010110001111111111100101
11111000110111111111111111010011
11111001110011001011000000111001
00000001000110011100111111100001
00000101011000000010010010100011
00001000001011011001100111001101
00000101011111101000001101010100
00000010101000011001001101000110
00000010101010100110001010111001
00000000110011100011001101001011
11111110000011100010010100101011
11111111011101000111000010100010
00000001110100011110001110111111
11111110101101100111000010100101
11111101110111011110110110111100
00000000011111011000000100100001
00000000010100110011010010000001
00000000001111100101101111011001
00000000010110011011010000100101
00000000111100101011111010011111
00000011011110110001011000110110
00000010111111011110100100001011
00000011011011000010111010001001
00000011010011010111110001001001
00000010011101001000010110010001
00000001110110110111011000110000
11111111011011110111111111101110
11111111001001110111110110111010
11111101111000100111000010110110
11111011011010101011011010001011
11111001011101111011101101010100
11111111011001110111110100100110
00000110011100100100011100110001
00000110111000111101100000101000
00000101100111001011110010001111
00000110011110100100010000110101
00000010111000111000010000110101
00000001100001010110101100111100
11111111100010111110100111001101
11111101111110010101101001111110
11111111000001100000011000010011
00000000100001111100000000111101
11111110110110000010101011000001
11111111100110001100110101111100
11111110110101101100001001110100
11111111001110110101101000101100
00000000000001011110101001110111
00000000100101001000101011000011
00000000010011010111000001100101
00000001110100110111110000101000
00000011101010101110001110100111
00000011001010100101101010101110
00000011111010100001001001111100
00000001010001101110100101001111
11111111000101110011011100100001
11111110111100110011111001010010
11111101000100001100001001010001
11111010011111000110100001100111
11111010111000111100111110010111
00000010101111010111011100111001
00001000110101110000010001101001
00001000110101001100010000100111
00000100101111011001111110100000
00000001100011001101010011111111
00000010001001000000101100011111
11111110100110110011100110010010
11111101111001001000100010001001
11111110110111100011101000111001
11111111100000011110100111010000
11111111010010010100101110100100
00000001100101111011100110100101
11111111110001000000100100000010
11111111011011001101000110000111
00000000110100111001110000100100
11111111001010100100010101101100
11111111011011010011010101100011
00000000001011010111100000000011
11111111010110010100011111010011
00000001110010000011001010011101
00000100001010101001101001011111
00000001011111000000001101000110
11111111101110000110001011000011
11111111010111100000100110010011
11111111111011101001001000110001
11111101011101100100100011100110
11111111001100001010100001100001
00000000101111100100001110101110
00000111010111001111011111000100
00001001001010001001000111010010
00000101101010100001100001110111
00000011110010110110011011000100
11111111101100000100111001110000
11111101100001000011111010100001
11111110000101000011101100100111
11111100111100111011100010001001
11111101101110001000100101111101
00000000000010010001010011000010
00000000011100110100110010010101
00000010100000111110111000111101
11111111101111010000100011100011
00000000001101001010011001110100
11111111111010110010010111100011
00000000110101111100001110001011
11111111110100001010101011111101
11111110001111001011100011011011
11111111010101011010111100000111
00000000111100101001001101111000
00000000111011010001011010000001
00000000010010010010000010010011
11111111100110100000100100011001
11111111110010101001100111010101
11111110011111100000001111110010
11111110100000100101100101110101
00000011010101010001001000110011
00000101100000001110101011100000
00000111000011110101111000111011
00000010111001110100011100010110
00000001011000000010001010101011
11111101111110000110111001001010
11111100011111010110110000101010
11111100100001100001111111110110
11111100011000011001010001001010
11111100101000011011100100110110
11111101010010011001011010000111
11111111000110110111111000011010
11111011110101011100110000110001
00000000010010000010110110010100
11111110100110111110111111010010
11111111001000111100101110101101
00000001010001000100001111001001
00000000100001000010010100001100
00000001000011000001101011011010
11111101110000101111110010010100
11111101110101011111111001111010
11111100011001010001111000101111
11111110010000100101110001101011
11111100000100010100011100101101
11111100001111011111000011111101
11111010001111111101110001100101
11111011100100100010111010111010
00000000000110110111100010001110
11111110111110110100101011011110
00000010101110100111110111110001
00000101111101100011111110100110
11111111111011000111111010001000
11111110010101100101111101001010
11111101000010110011010111000010
11111011100100010000010100111000
11111011010000110001010110010011
11111010110101111101011001110111
11111011110010110001111111101011
11111110001101010110100111011010
11111111101101001110101101101010
11111111010000010011001011000111
00000001010011000010001111111100
11111100100101111111010010011100
00000010011110010111010010011001
11111110010101111101000111001111
11111110100111101010001100010100
11111110000111111110110001100011
11111101101011000110011101011101
11111101011011110101111000000111
11111011010110110110101111001001
11111011011010110110110000111101
11110111110101100110111011001011
11111001000010101111001011110011
11110111110111110011111101011101
11111000110001101100101010001110
11111011000110011111011011111110
11111110100100010001110010100000
11111111101111010110000010001101
11111101001010001010001100100100
11111100110110111110011110101011
11111001111100111101110001110100
11111101001110000101101101111010
11111010100110101010100010011110
11111011000111100100000000011111
11111011100111010101110100111010
11111100001101010101011110000000
11111100110111100111000000001001
11111111011001000100000000101100
11111110101010001010110000111010
11111111111110111101110010010001
11111111111110101100001101110011
11111111000110011001101001101111
11111111111010001011000100010010
11111110110101010111100111010000
11111100101010001010100011100000
11111101110010001010110111101100
11111101101101100010101000110111
11111100001001000001110011100110
11111011111110100100100011110101
11111010011101101111101000111100
11110110110110100111100100101100
11110111000100011011001010010111
11111001110100110001001101001100
11111110010100101010011001011001
11111101100011000011010011111110
11111101001011101100100101100110
11111011111001111100011010010010
11111011010011100100100111011100
11111010000101110111000010111010
11111011001010100111000001000110
11111101111101111000001110000001
11111011101111011100111000100110
11111100111000010110011011001110
11111110101110011011010001010011
00000000101100101011011000011100
00000000100101011010100010011001
11111110010010001001011111001100
11111110100001011110000000011010
00000001011110010101110000101001
00000000010100100001111100100011
11111110101110011011101111001000
11111101110110000000000110111001
11111111101111111100001010001000
00000000010110011101100111011101
11111100101110001100111010110111
11111010110001101110010100000110
11111010111110111011011111011011
11111001101100110100000001001111
11111011101111011111110001010100
11111010100000101101011000011010
11111010110111001110100100101101
11111101010101010100100101010101
11111011111000010101010110101100
11111010100111011101000000011000
11111011000010011011011001110000
11111010101001010101101010111100
11111100111111011000110010100101
11111101111000111010011110110010
11111101010100101111111100001100
00000010010001111101010010100011
00000000001011000010101110111101
11111111001100110001111011011001
11111111011111001000011100100101
11111110001001011101011111010001
00000000100110111001110010100011
11111111111011000011001000010001
00000000001101101110110100101010
11111111010101010010111100010110
11111111011110100011111111111010
00000000100001101000001110100111
11111101111001011001111110101110
11111101110000111000010111011111
11111110100000110010100010001001
11111100110010111101101100001010
11111100111101100000001110111110
11111010000001011110011011100110
11111011111100011110111111011111
11111100110110010010011100000110
11111100100101111001110110111101
11111100101101011100001010101010
11111100110110111101100101101111
11111110011011001011101101100000
11111110111001101110011011001111
11111101011001101110000000110111
11111110011101010110100011111011
11111111110001000110010100111011
11111101111101111111001011101001
00000001010101110001000100001110
11111111110011110110010011100000
11111111011011101011101001101101
11111110111000110111100010101100
00000001001111011111011011010010
11111101100100001010010000110010
11111110010100100110011111111010
11111110011100011010100000101000
11111110111000110001011100011000
11111111100000001000011110101001
00000001110100000000011011110010
11111111000100101000001011110001
00000001011100101011010111000001
11111110010001001001101010111110
11111101100011010101000110010101
11111110011011011001001010001000
11111110111100011110111011111111
11111101010010101111001000111100
11111110110011011000100001110111
11111101001001001111100011011110
11111011111000101100101111111101
11111011100111001101110010010101
11111101100110101100110011001000
11111111001110010001111011011010
11111110000010100111110111100011
11111110111100101000001010001000
00000000111110011011010011001011
00000000011000011010011101111000
00000001000101001000101011110011
00000001111000000000011000111111
00000001000000110000011100000111
00000001010111100110001001101010
11111111011000111011010100101110
11111101100111110100001010000100
11111111000001111110110000011000
11111111001000100110101001101111
00000001011100111001000001100111
11111111000100010001001011000010
00000000111110011001010001110001
11111111011010110010000011001111
11111110001101000100001111000000
11111111110011101011111111011011
11111111100110111100100001000100
00000000101011011100011111101110
11111111101110110101010101100101
11111111110001100000001111011111
11111111111000100111001001010101
00000000110001100110011101101110
00000000010001001100101011010000
11111101000110010011100100111100
11111111000001110000010110100111
11111111011010011100011110010100
00000000100111101001011010110100
00000010101101000101111010101001
00000001101001010111000101011001
11111111010001100011100000000100
00000000110010001000001010111100
00000001110100101101110011001100
00000000110011100100111011010100
00000001011101100100010110110000
00000001000111101000000101000011
00000000111011011101010100111111
11111110100100101111111111001001
11111111110110001010100100011100
00000000110001001110000101101010
11111110001010100001101010110010
00000000001001111100111000101000
00000000100011001101111010010111
11111111111110010110011001010011
00000000011110001101001110101100
00000000111100110111010101111111
00000000111000111010000000100011
00000010111000010011110110111111
00000001000110110000011011011011
00000000110010000000001111101101
00000001110110010100100011011011
00000000111010101101010110101110
00000011001011010010000011111000
00000001100110000110100110111011
00000100000100100011100000010111
00000001101100010111100110111001
00000001100001111000100000101110
00000010100011001001001000101000
11111111100101101001000001100001
00000000110111011010001100111000
00000001001000110110010101110110
11111110101000011111000011000011
00000001110010001010010001000001
00000000101100100100011101010001
00000000001100001010001011101001
11111111110010011011101111010011
11111111010100111101010110101000
11111111000101101111100111100111
00000000011110010001110110111001
00000010010100111110001110001011
00000001000111110000000110000110
00000000011011011110100001000111
00000001110101001100110101110000
11111111000100011001000111001000
00000011010000010110111110101101
00000000101111111111111111111100
00000000000110001010100000010011
00000001011000000000100111011001
00000000000110100010100110111101
00000000110010001100001100110100
00000010000100000110001010100000
00000001101111000111001011010101
00000000100001001010000101100100
00000010010111101100010001101101
00000001001000100011101111101110
00000000000011111011101110101110
11111111101001110100011111010100
00000001001100000011110010111111
11111111111011101101100110010010
11111111010000000100001101111111
00000001010001011101111011100100
11111111111010111011001000011000
11111110001101110000101111101100
00000001100110001010100100111101
00000000000100111011001001001001
11111111000010100110001100100111
11111110111101101101100011111100
11111111111101111100000110101011
11111111100111110011101100111011
00000000001100111011001001101110
00000000011000000101110000001111
00000000001011110011010111111101
00000001010100101111011011001010
00000000010100111101101001110101
11111110110000101100010110001010
11111111111011011111010011101101
00000010011001111011101001101110
00000001001010000010000100111100
00000000011001101011001101111110
11111111100111100100001100100100
11111111111011110100011001010001
00000001101001001011010110110110
11111110101000110010111011100111
11111110101101000001000110100111
11111111001110000001111010110100
00000001000111111010100111101000
11111111000101111010100110010010
00000001011000111010000001000000
11111111110011101101011111001000
00000010000010010110110011010000
11111111001101001100001001110100
11111111011001100111111011110110
00000001000010111110100101111111
