11111111100111100001110100001110
00000000010001110111010011000110
00000000110001100001101111100110
00000010000011011100101110110101
00000000011101110010110011101010
11111101111101010110010111101110
00000001011010000011101011101001
11111110010110001000011110010001
00000001011000011000000110101100
00000000011001010101111111000010
11111111011101000101000100000011
11111111111111011101111000111011
00000000110011010000001010010101
00000000001001001110001001110111
11111111100110011011110000010000
11111111111100000000111100101101
11111111111100110100011001100011
00000011000010010111100001101100
11111111101110110000101010111001
00000000000011111000111000111001
11111111101100010101100000011010
11111111101111010100001000100001
00000000100110111101111101110110
00000000001101101001100110100101
11111110111101010110011000111010
00000010001111000101111010000011
11111111111010001111100011000000
11111111100000011101011111110000
11111110011000101111010001011000
00000010111101010000100111011111
00000000010011001111010000011000
11111111111000011110111110101000
00000000111000010001100100101000
11111111100100011110111010001111
00000000100010010010011101110101
11111110111100011111010111100111
00000010000101100011101100100011
00000001010110100011111001111001
00000001100001000100010000011100
11111111111110011001100101001010
11111101101100111100101000010100
11111111000110111101011111000000
11111111111110101111100110110101
11111111110011001001000000001111
00000000011010100110100001011111
00000010010101111111101110111100
11111111010010110000001100111100
00000000001110111101100001111011
11111101111000000001111110010110
11111111010100101011101001111010
11111110101000111110100010000100
00000001001111111001100111010111
11111111011010100001001000001000
11111111010011100000110000010011
11111111010101100110111011011000
00000001100110010001010111100111
00000000000100111001110001100010
00000000001010000111100001011011
11111111011110011011000001001011
00000001100001111001000100001111
11111101010100100111011011011011
11111111100111111001001011101001
11111111111001111000100011101101
00000000000010011110000011011000
11111111011001011000110010010001
00000001101100111001000111000100
00000000001011110011000110000011
00000000110110111010101111010010
00000001110111000010111110010010
11111101110111000100010101100110
00000000110111101110000001101101
00000010100110111101111110001100
00000000111110000111011101010010
00000010110010101011010110010011
00000000101011110100101001001011
00000001011100100010010000010011
00000001100101111001111100000100
11111110010110001001001101101010
11111111010010111001100101100111
00000010000011011010010111001101
11111111010000001001010010000011
11111111101011011101010011111011
11111111011010101001011110100001
11111110111001100100111101010111
00000000010011111010001011011010
00000001000110110111101110011011
00000000100010110001110101111110
00000000110000011010010010110111
00000000101101010101101010010111
11111111100100100000001101010011
11111111100100001011001001101010
00000000011111110100010010010101
00000000101001000001101000100111
11111110011011100100110010001001
00000000101111100110110101011110
00000000110100011010000110111111
00000001001000110000010101100001
11111111100001001010000001101000
00000001101101000011111000010010
00000000000000101011011110011001
11111110111111001111000011010101
00000000110110010001100110001010
00000010101011110010010001011000
11111111010110101011110010101111
00000000110101011101110000000110
00000010110100100111011100000010
00000000110011100011100011110101
00000001000010011010000111101110
00000000100001001111000011100011
00000000011111001110001110001011
00000001010010011111101101100101
00000001000010010101111001110110
11111111110100111010011001010010
00000000111101110101110000101000
00000001001111101010111101000111
11111101111000010010001010111101
11111110111101000011110000011101
00000000110100010111111001101011
11111110110001111110100000010100
11111111001001001010011101000001
11111111100101000011011000000010
00000000001000011001010111011000
11111111000100100111000100101101
11111101101101111000111100011111
11111110011000101011000001011111
11111110110111011100010010101101
00000001100100011111110110111100
11111111110010110111000110110111
00000000000010001110001111111000
00000001001001001111011011001100
00000010011101110110010111010001
00000010000000111101001001101111
11111110111011010100011011110100
11111111011100011110110010001100
00000000010001111111101111010000
11111111111110111011110100001011
11111110100000010011100101011011
11111110000100001111100010110100
00000000101001001111110011100011
00000001011001111011100110000110
11111110001111100011001010010111
11111111110110011111101001000101
11111111010011110001110011000001
00000000011111100000001100101111
00000000000001110101010001100010
11111110001110010111001000000001
00000000001001101000000101000001
11111111011010001100100111111101
00000001011011110011101111100000
11111110010101000001000011011010
11111111111111001000111111000001
11111110101000111000111111101100
11111111001111111110101110001000
11111111001100011100110000001110
11111110110010000110010101111011
00000001100101100000010000000001
00000011000001110001000000100101
00000010101101011010111011100000
00000000111101001000010010100001
11111110101001100110001000100100
11111110110001111011100001001010
00000000010011001110000100110000
00000001110001011100101000000111
00000000011110001001010001110010
00000000001111011010010110010011
00000000110111010101100010001000
00000000011011100101101111110010
11111110101111100110101010100110
00000000000000100111010011001010
00000001110011110100100101111111
11111111100011100100011100111011
11111110101010110110101010001110
11111111010100110110110000000100
11111111011101011010011000011110
11111110100001101101111010111111
11111101111010100110001011011111
11111110101000111000111101100110
11111110101101110100111100011111
11111101100000100011111010010100
11111101100111110010001010000111
11111111000011111101011011111000
11111110000000000110010111111011
11111111111110110110110000111110
00000001100000001001001101011000
00000001010010010011001010000100
00000000011101000010001010110000
00000010101110110110001001000010
11111110100011000010110111000001
11111111011011110101101000011000
11111111101111101110111111110001
00000000101000010001010011111011
11111110110000111010001111101100
00000001001000011100000100101000
11111101110010101010011110110011
11111110010101011000011011111011
11111111011001010111110100110110
11111111000010010010110010110100
11111110101101100110100110010101
00000001001001111100011000000001
11111111110101111100100111010110
11111111100111011101010111111101
11111101110010000001110010011001
11111101111011111100010101011011
11111110110010000101100001011001
11111111010101001000001010000011
00000000000010100000101111010010
11111111101101010001011110001000
00000000011111011110001101000001
11111111110010011101000111111110
00000000110101111000001000100101
11111101000010110111010111110011
11111110110110001101011101011000
11111110110101000110111101000111
11111110000111111100101110000000
11111110110101001100011101010001
11111110010001111011101000010010
00000000010011100001111110100101
11111101000011011010101110000110
00000000000000001110001111011011
11111110100111001011100001011001
11111101111110110010000101110000
00000000011110011101001100100111
11111101111011100100001101001001
00000000011110111001001000011011
00000000110000111000110111000101
00000000101101010111101110110101
11111110001000101101100010110001
11111110111100111110000001010010
11111111000110011100011010010101
11111100011110000101101101000000
11111111001001111001101101001110
11111111111100100111000011011110
11111110111100011100010110100000
11111111010000011111101010011110
00000010101011101100100110011010
00000010011001000111011001001100
11111100100111111100110100001111
11111111001101100010011100001011
11111101001010000101111101101000
11111100001011111111111110101000
11111101111101010101001010011101
11111010001010100110101110110000
11111110111011000011010100110011
11111110000111100111010111111100
11111110001000101111011011110110
00000000101010110111011111110000
11111111000101011101100101110001
11111101111010011001000111101001
11111110110011011111100001111010
00000001001001000101011110101111
00000000010001000100100010000000
11111111101011101110100100011100
00000000010001011110000000100111
00000001001101110011110101100111
11111110011010001110001101111101
00000001000001110101010010101010
00000001000111011011000111111110
11111111011111111010011100001010
00000001011111100111111100100110
11111110101110110110011100010100
00000001011010100101110011010000
00000011001111000010100111111100
00000100000101101000000110110111
00000011100000101010011110000101
00000010110111110101011010110011
11111101001111110010111111001010
11111000111001000001111101110001
11111001111101000011100110100111
11111100110100001011001100000011
11111101001111000000011001110000
11111101000100111000001100001111
11111101100101100010111110111000
11111110101110011101110110001001
11111111110000110010110010000000
00000000000011100101011101001101
00000001100000000111110010000111
00000000010110001111101111001100
11111110110111000111100110011110
11111111010100110101100100101101
11111111100000101001010010011110
00000000110000101110111000001111
11111110111010111110110100001111
00000000000010001101001111100000
11111111110011011010011001010011
00000000110101111100101001011001
11111111101101010011101100110001
11111111000101101010111101111100
00000001101001101101001011001101
00000010111101111000110111010010
00000011011001100101100111110110
00000100001101001010000111011111
00000011100001010110000010101111
00000010001110000000111100101101
11111111100110100001110001001001
11111000101110111101001010000101
11111010101110111110000110011010
11111100011101010001011100111101
00000000011110101110011111001100
00000001011110000001001001110110
00000001100011011000110111100010
00000000100010011001000110101011
00000010110111100110111001010001
00000001101000010010110000011110
00000001010010000010110111000110
00000000000110111111101100001011
11111111110110101010001000110101
00000000000110111110011001010000
00000000001011001000000011110111
00000000110101001001100100000100
00000010101001101111011001101100
11111110100110000000110111100111
11111111100010011100111000000101
11111111110010111111000111001011
00000000000010011010000110010110
00000000110100101001010011001011
00000011111010100001001000101100
00000000100100011111110101100101
00000010000001100010111101111110
00000011101000011100010111111001
00000110000110011001110111101100
00000010011001100101001111111101
11111110010110010101010001100110
11111100001111100011100100110001
11111010110100100101011100111100
11111111000100000011100101100011
00000100011110100011111101101000
00000001100010000101001100110001
00000010111111000000011011000000
00000011001010111011101011111110
00000010010010101110100011000101
00000001000001101000010100111010
11111111111100101011011010011111
00000001101101011000111110100010
11111111010010110011010001011101
00000000101110010100111000100100
00000001001111001100111010101000
11111111101011001111110111010111
11111110100111010101110100010110
11111111110100000000100100111110
11111111010100000000101110011000
11111110101111100000111110011000
00000010000001101110110001100011
11111111110100100011100100111101
00000001110100001011111000110111
00000001110111100110110011011100
00000001110001110011000001001101
00000010110100100110110101100100
00000000111000010010110111001101
00000011000011111010110110000001
11111110001101011010011100110001
11111001010110100010001111111111
00000000011011111110110100101110
00000100011111110010011010100011
00000100010010010010111001110100
00000011011100011001010000100101
00000011000000001001101001100010
00000100001000111001011101100010
00000001100110111110101001101000
00000010111010100000011111001101
11111110000111110010100001001111
11111111101111010000101111110110
11111111111100011011010101001110
00000010011001111001100101010010
11111110111000101000100100001011
00000001000100010100100001011111
11111111000010001101010100011101
00000000000010110110010110100000
11111110101100110111100001101111
11111110101000100011000000010000
00000000111010011100100000110110
00000000111010011000011100010000
00000010100010111111010101111001
00000000111101100001101110100111
11111111101110010100100001111110
11111110001000111111101011000001
00000010111100110001101010111000
00000000100001011111101001010110
11111110100110001010110011110011
11111101110011001100000011010011
11111111000000011100001100010101
00000100001010011110010110000010
00000100101001010001010100100001
00000000110010110010101011010010
00000010111011010011001010000100
00000000110011100101101100100100
00000010111100100010000011011010
00000010001101010111101111100111
00000000111101000001001111110001
11111110101011101111101001001101
00000001001000000110010000110000
00000000111111001010101111110011
11111111001111001110011011001000
00000000010111110000110010100101
00000000011111001000110111011010
11111110100100001010011101110110
00000001011011011011001110111101
11111111111001111101111011111110
00000000000001010110101100101010
00000001111010001010010001010011
11111111111001001101010110011111
00000000111110000000010111100001
00000000111111000011010000000101
11111101110100001111111100101110
00000001011100010101110010111010
00000010000010110100100011011011
11111101111110111101111111010100
11111110001011000111001111001100
00000100100011001110111101111000
00000110001111111001110000010001
00000010100010110011000000010111
00000000100100101100000011010111
00000000110011000111010011111010
11111111011011001110101001111011
00000001000010011010001101011001
11111111110010000011111010001010
00000001011101101000010000011110
00000000011000010110111101100110
11111111100110110011110010100110
00000000100010000000111100101100
11111111100111111111001110011010
11111111100010111111100100011011
00000000000011100001110010001100
11111111011011000110110101011100
00000000000011101011111101110000
00000010100000000100000101001110
00000001101101101110111110110100
00000000100110101111110110110101
00000000000101001010111100000011
00000000011110100111011101001010
00000001110101101010101001010000
00000000110001001011111000010100
00000011000110010101010111000110
00000011000100111100100000001011
00000010010101011111000110001110
00000001000000011111000011111010
00000010111011010111010000111101
00000101010100110011010000110110
00000000001010101001011000100110
11111101111010100101010010101011
11111101100100110010001110001011
11111110111110100011101010001000
11111110111001011000110000000011
11111111001010110010100000110101
00000001100000111011101001001110
11111111100110010110000101110110
11111111001110000011100101110010
00000000000001010011111100010011
11111101111101001011010010001000
00000001001111101100000100110001
11111111001111101010010100111110
00000010000111010111110001110110
00000000010001011110001100100100
11111111011110001111110101010101
00000001101000000001010011001110
11111110011001100110110101110101
00000001111000100100100110001110
00000011010100111101011100100111
00000010010101101010010111010101
00000110011011110110000111010010
00000111000111000000100000000000
00001000110011100110100111100001
00000110110010110000101101110011
00000010111110011001100001001111
00000111100111000011111010000100
00000100001111110000100111000001
11111111101010111110000100110101
11111011110001011011111111101100
11111100000010111111001100011111
11111111100001001000001001010111
11111101110101110101110100110001
11111110100011111101101111111001
00000000010000111100111111011001
11111111110110010010100111011100
00000000011111011111111000100010
00000000110011111100001110001000
00000001000010101110000111001101
00000000011010101011100100010100
11111111111110010011000010011101
00000001001001101010011111000011
00000000101110110011001111000011
11111111011000010011111111011100
00000000010001110010111000100000
11111110100110010111011100110000
00000001110011001000001110111100
00000011001011110011101010111010
00001000011001100001001010011010
00001011001011001011001101111001
00001001000010110110100100010001
00001000101000100011101001110101
00000100111001000111011011100111
00000011111110110001000110110111
00000010011101001011100100110010
00000010100111001000001011110011
11111110010010101111100110011001
11111110001001110111111011011111
11111110000000011000000100111000
11111011111001010100100111110001
11111101100000011101110011000000
11111111001011000011111110010101
11111111111111010101011100011101
00000000011100100111111101000111
00000000001010010011110001011110
00000010001011010001011111111001
11111111101110010001110011100000
00000010001101111010000111100110
00000000011100010111111100100001
11111111001001111110111100011110
11111111000110011111110111011101
11111110101010111101010110011010
11111101100101110111110011101000
11111100110011111010011011000001
11111111111111100101010010101001
00000010010100111000100101000011
00000110000111100010001110110100
00001010001001111010110111100110
00001001101001100111011100101000
00000101011001000111111010110101
00000011110000001010000101001010
00000010100101110011000010101011
00000001110010010010101101101001
11111111011010001111100110100010
11111110101001101101110000101010
11111101110011010010000100010100
11111110111101101010001000101110
11111110000111010110101100101100
11111101110010010110101100010110
11111110001100001110111101111110
11111111101001010001100001011000
11111110000111011111100100010011
11111111101001011110110111011011
00000000000000100100000110000011
00000000111001110000011100000110
00000000001101000100111010010010
00000001011010101100000110000110
00000000101101011101100000000110
11111110101100110000010111000110
11111100001001111001010111110101
11111110000001110001010001000011
11111110111101111110001110101111
00000010001000101111001101000010
00000010001100100011001100001100
00000100010101001011111100001110
00000110111101011100011100101101
00000101010011111110001011111000
00000011110100000011100111001001
11111111010011000110011101110010
00000000111011110001100111100000
11111101000010011110110100000011
11111111011001001111010010101111
11111110100111100110111100000110
11111100111101000100011000100100
11111100111011000111000100101100
11111101100010001011000011111111
11111110010001101111010100101001
00000001000101100010011111010101
11111110010100101010110100100010
00000000001000100011010101110100
11111111110110011010111110110011
11111111011101110111101001000110
00000001010010010001100110101100
11111111100011000010000001001110
11111110001101101001011101111111
00000001011110010100010000110000
11111110011000101001000100011111
11111101000110001011001011000110
11111011100100111001000001011100
11111101100001000101010100110000
11111101011101111110011101110001
00000000110010010010110001100101
00000010000001001010011110110101
11111111000011010111111010011110
00000000110110011001111111111000
00000000011101111010110110000110
11111110001101000010011000010101
11111101111001111011101011011011
11111101100001011011011010101000
11111111001111011101111011110101
11111110011001110011001010000101
00000000110101010111101000000010
00000000010110110011100101001000
11111110011100001001001111111010
00000001000111001010011011110100
11111110110100010001111010001100
00000010011011001101100111100110
00000000000101100101010101010010
00000000110010100010010111010000
11111110001101100101011011000000
00000001000000011001000100110010
00000000111000000100100100011011
00000000000110011011010010000100
00000000000011111001001100100011
11111110010010101000101000001100
11111111001110000110111010001000
11111100001101110100000000000000
11111101111010010100011011010010
11111110000011010001111010001011
11111100001101101011110001001101
11111101010001010000000000011111
11111110111100101000101111000000
11111101100101110111011000000001
11111110100010101000001011101001
11111101110110010101011110100000
11111101100110001111100101110110
11111111110110111010010100001100
11111101001110000110011010100000
11111110110001011100000001011101
11111111010011010001010111011011
11111111010101101001011101111110
00000000011101010111011000110010
00000000000100101111100111110001
11111110011000000010011000010111
00000001000100000001011110111011
00000000100010001011010001000101
00000001111001101100000100111011
00000000011001000001111010111000
11111111110111101111010101111111
00000001010001101111001001010011
11111110001011100001011110011101
00000000011010101010100011010001
11111111100001011010111001100011
11111111011110100011100111101111
11111101010000111010100111001001
11111100011110001101010001011001
11111011000110110010011000011000
11111100001010011110001010100111
11111011010110111010111011010000
11111101101011110111011111001010
00000000001010100111111101000110
00000000001100101100001110100000
11111111001010011001000010011011
11111111001110101011010011011000
11111111101011110100110100100110
00000000001001001101000100111111
11111110001000110000110010011010
11111111101010000101100001001101
00000000010000011111110011001011
11111111011100011111101011011111
11111111011100010110111011010001
00000010011111110100100001010111
00000001001110001110010111010101
00000000001010111110100010101111
00000001001100110101111110000010
11111111101011000011010111011010
00000001001111110110000110111010
00000000010101100110001100010101
11111111011110001000010100100001
11111110011000111011111010101001
00000000001000010011001010000000
11111110010110110111001011000110
11111101100010101111110111101111
11111111010011111100101100101010
11111011100100010110011011101010
11111101011001011110111010010100
11111101110011000001011000011011
11111011011100001110101001000111
11111111000110000010011001011010
00000000101001000110110110001101
00000010000011101100111010101001
11111111110110011100011101011111
00000000001101111000100101101000
11111111110001110010010111011100
00000000011001001001000010111100
11111111111101010010101100110111
00000001001111011010101011101111
00000001110100010110100011010111
00000001001010001000111111000100
11111111010001110011110111101101
00000000101001000001111011011110
11111110110101101101100111001010
11111111110110100000001001111011
00000001101010111110100001101011
11111110100101010000111110101111
11111101011111001101110011010110
11111111010010000101111101000110
11111110010111100101011010111000
00000000001110011000011001000000
11111111011010011010011111110101
00000000111001101101111101010101
11111111001100000101101010011111
11111110110000011101101100110001
11111110001101100101001000110010
11111110101000110111001111101101
11111110100101000100010010000000
11111101101001110110011100000010
11111110000011011011100100101101
00000000111110010011100010000001
00000001000111100010010110111101
00000001000011110000011100100110
00000000100111101111101111000010
11111111001110110001000000001001
00000001111100011001110110100000
00000001100101101011110111100110
00000000000000011100011110101000
11111111001101010000110010101001
00000001100011001111001110100111
11111111110100011000000100000000
00000000100011011101111011100111
00000000110110000010010101101111
00000000000110000111001100011001
00000000110111111111100001011010
11111111110101101010100001010001
00000000010111010111000111111110
00000000001000011010111111010100
11111110001011011101101110001111
11111111001001001110000010100110
00000000011010101001000010101001
11111111100110000101100100000101
00000000111000000101000100111001
11111111100000101100010100001111
11111110011100010110001001010111
00000000101000111001101101110101
11111111010010101111010100101100
11111110010011011110111001000111
11111110110011111011100001111011
11111111011100011111001110111100
00000000001111000111011100101001
00000000100110101001111011101000
00000000111011010000101001001110
00000001001110111010111010110111
00000000011100100101001010000011
11111111101111001011101111101000
00000000010111100100011110100001
00000001100000000110110101110111
11111111101111101100010101000001
00000000101111001001100001110111
11111111110010000111111100100010
00000000011011011100100100100011
00000010010010100110010100011111
00000001000011010111000100001000
00000001111010000100111100101011
00000000001100001000110110110101
11111110111011000111001001100001
00000000100101010101000111000010
00000001101011100010100111010101
11111111111010011110110010010010
11111101111001010111001101110011
00000000001110010010000001101100
11111101111001000001100010100010
11111111011101001011000000001110
11111110011000001000010010011100
11111111100110011001011011110010
11111111110011110001011011101010
11111110001110101101001110000110
00000001101110111010101001101110
11111110110110111001100111110000
00000001001110001011110010111101
11111111010110001101101010101010
00000001011010010011010101001111
11111111111001110110000100011111
00000010010100001001010110110000
00000000111010111011100100001001
00000000101000110101101110100001
11111111011000011001001111101010
11111111101011101110010111101000
11111110110010000111111011100001
11111110110000000101001011111110
00000001011111101101100010001010
11111110110011001101101000100111
00000000111010110110011011101100
00000001100100111111011000000001
11111110101011110000101011000100
00000000011001111110110101111111
00000000110001100101110001110100
11111110100101101001111000001110
11111111010001011111101100100101
00000000100111010001100101000001
11111110100010100001110110001101
00000000101111111110100100100111
11111111110000010010111110100100
11111111111100111101111000100111
00000001011111100101100000110001
11111110111100100010001001101111
00000000001000111101011001011010
11111111111110000000010111011111
11111111110111001110101001110011
00000001001111011101001010001000
00000000101011001100101011101000
11111111101011101011110111110100
11111111110101000001111110111101
11111111011010100000000011101001
00000001001111001111111010110101
00000010000001111010000111000100
11111111000011010110000110010111
00000000111100111110101100100011
