00000111101100110111001110110001
00001100100001011000101010000110
00010101011101001110011000000101
11110001011100001010001100010110
00001011101101010110001110000010
11111100111101010100001000101000
00000011100001110110010000101010
11100100011111010110000000100100
00000111011011001110110100010111
11101011001011011111111000100001
00010001101111101011010111011101
11111001000111010100110110011010
11111100011101000111110111110111
11110011011110110001001111001011
00001000111000110011000100101110
00000111100010101010111001110100
00000001100101001011001101101011
11110010000100000110101011010011
11101001111011111000010011000100
00000011111010100110000111101100
00001001001110101111000100011010
11110111101001010100101100111100
11111001100101101110101100001101
11111011111011010010000101101000
00010100111000010001000010001001
00000111011011010000010001011011
11101100011011100111100011000001
00001111110010011110011111011010
00000100111111010101100000111001
00001011001110100110110010110111
