11011001100100011100010011000000
11011011001011110010101101100101
11111100011010100011110001010000
00001110100001010101001011100101
11011011000011111101010110110111
11111100101110000110001001000000
00100000000100100010010000000000
11001011011000000011011000001100
11100111011011100010001001011101
11101010110010010100110110000100
00110001001011110000011010000011
11101001011101000110111101100101
11011000011101111110101011001001
00001011110010100111011010000101
11000101100000011011110011011111
11100110111111110111011110101000
00000000101100101001011010101000
11100000001101011000011010000001
00001001011001010010101011000001
11101101100111000110001110010111
