11101111100001100011001110010011
11111101100011000001011010011101
11111001111001000010101100010100
00110011110101001101100101011000
00100010111101001101010110100000
00100010000011110110101111110111
11011000110101111000010111111010
11010110101010100011010110010101
11110100001001110111101100000011
00000001110101010011000100011000
00011011101000001111010111001000
11001110010101110001010100101111
00101001011100011111101110111010
11011101010100100010011110001101
00000101111011101010001110111110
00010001000000011111111101000000
11111111000011110010010011000000
00000110101001100111110110111000
11000110000100000001001101111010
11110010111111001001001110000101
