11111111100001010010110001010100
11111111110001000100001100011001
00000001011111101101001100010011
00000000101011100100101100010101
11111111110010110101011010000010
00000000101101000001011000110110
00000000000011011100001111011110
11111111100000101001100100000100
11111111111000010000001111111011
11111111011111101011111111110110
00000000101000011100000111100000
11111111110110110101010110111001
00000001000111111011101100111001
11111111010011110100101010011001
11111111001110100100001001000000
11111110101111100000100100011011
11111100111011100100101011000011
11111111000000101110010001001110
00000001001001000101111010001000
00000001001110100101010100001100
00000000101100110111010001000000
11111111100100101011001011110001
00000000100010100000111101100011
00000000011000010111100000100000
11111111110100100010000101101100
00000010010100101010110011000011
11111111011100100100000101010100
00000000101110100010101001001011
00000000010000001100001111000010
00000000010101111101100111101000
00000000011011111110101001011010
00000010000011100101110110111110
00000000101110000110001110001010
11111111011001100110011000001011
11111111101011100010110110100011
11111111100101101001101000000101
11111110111010000100010100010011
00000000010011010011010111010010
00000000100110100001010011110001
00000000010000111100111000110100
00000000001111000101010100001001
00000000001000001111000001011100
00000001110001000100100011100001
00000000000110111001111110000100
11111111011101100010010001011101
11111111001011100001111111010000
11111111001110001011100010101111
00000001110110110111110000100010
00000000010010100001111011101000
00000000000110010000011000010101
00000000010110010011111001011000
00000000101111110011010001101000
11111111101001000111010001101001
11111111011011000000100110101100
00000001010101101110111011110010
00000001111010010000111000000000
00000000101010101110010100110111
11111111111100100000101100110101
00000010000111100110001110111101
11111111010000000100110010001001
11111110111111010111110110011010
11111111101011101000001011001001
11111110111000001100110111011100
00000000100100010101101111001100
00000000100101011100100010101011
11111110110010000110110010010110
11111111110110001000000111001000
00000001010001111101010001100011
00000000111011100000010011101101
11111111110110111000000011100011
11111111001101110010101000110101
11111110001000010011011111010111
11111111011110000111100111010100
00000001010011110001001000100101
00000000010111100101111111110001
00000010001110010110101001011000
11111110000001111111101111000001
00000001111000011110110010011110
11111111111111111001001101110010
00000000100011011110101010001111
11111110111011010110010101000010
00000000111111101101110010000101
11111111101011000000000011111100
11111111110110111011010111100011
00000000110011001111110101110000
11111111011110000101110110111010
00000000011100000110010100111100
11111111111101101101011000001100
00000000000001001110010111001011
11111101101100000011111011111110
00000000011111011010011010110100
11111111111110010110010110010011
11111111011011001100001111111110
00000000010011011011000110100010
00000001001100101010011100101100
11111111110110001101000011110010
11111110111001000000111010011011
00000000010101111001000010000100
11111101010110110010010001011010
11111110011101101101101100010000
11111110100011010100111100111100
11111100110001010110111011001111
00000000100101001111111001010100
11111110101011101000110011000011
00000000000011000101101011001000
00000001011000111111110110101100
00000000000101011011010101001010
00000001011101010111100111010000
11111110011110000110011001000111
00000000110100001001010110010001
11111101101011001110001001101100
00000000111101111101101000110110
00000000001101101010100111101110
00000001001111111010100110001010
00000000101101111010100111110011
00000000000011100010001000111111
00000000000001001000110000000010
11111110110010101011111011000010
11111111100010000111110001001010
00000000001010011101000110001100
11111111111111010101011000001101
11111111111010011111000000101010
11111101010111100100100101010000
11111111111010100011010101001101
11111110010111001010111100000101
11111101111001111101101110000011
11111110100011111110110011110110
11111101110000111110010101001100
11111110010000011010111101101101
00000000011111111001011000010010
11111110111001110001111011100000
11111111000001010111001111101000
11111110011101010011011000101110
11111111010100000101110011111000
00000000010111011010000111010100
00000001100000001110101000111110
00000000011011111011100011000010
11111111011001010000011011111001
00000001000111010101011111100000
00000001000000111011011000011001
11111111001001001110101100011101
00000000011100011001110010011110
00000001110101010011100101101001
00000000111101101010000101001100
11111110101010101011110010001001
00000001101011010100110110111010
11111110100111010111001100111011
11111110010101101101000010011010
11111110011001101100000000001000
11111110000100101110110111010001
11111110100001001010110100000011
11111110011110111111011111101001
11111101101011001101100111010001
11111100001111011101100111101000
11111111000001011111111100001011
11111101100101101101110110101011
11111110000111010011001011111110
11111101110001111010011101111100
11111101100111010101010000100111
00000000101001111111101101010000
11111110011100111010111101010000
11111111110000011111110011001100
00000000001110111101100011110100
00000000111010111101011111001111
11111111011110101011101000110110
11111110110001100000110000011100
00000000110011100001010000110100
11111111100110101110111100011010
11111110100111001101100100011100
00000000011000010101110111010010
11111111111010111101010010101011
00000000101100011000100110001100
11111111101010010101000110001000
11111110100001000000001001100111
11111101001000111101000101101000
11111101010010110010001111010110
11111111000101011011110010001100
11111101110001111110001000101010
11111100000010101111010011000010
11111110010100001100101011011100
11111111100101011110000001011000
00000000010110011011110000100010
00000000110101010100010011100101
00000000101101100111110011000101
00000000101001010011111010111110
00000000011101110111001110000001
00000000111010111010001010100001
11111111100100010111101110100110
00000000000111111001110010000010
11111110100010111100000110000011
00000000110110110101100101001111
11111111011011010010110000001011
11111111111000100010111101101110
00000001100110000110011000001110
00000000110101111101100001100011
11111111111011101001100001111011
11111111101010000010011010001101
00000001110100101000011111100010
00000000100111110000011000100000
11111111001100100101000110001011
11111111100111010001001011000001
11111111110011110110100111010100
11111111011001010011010001000100
11111101101101011100101100101110
11111111000011010101010010100000
11111110011111011001000110100110
11111111010111101010000111101110
00000000000001100111010110000001
00000010100010011001001111000000
00000011010010100110101100001111
00000011011011110000001110110001
00000011000001000010000101111000
00000101111000000111010011001111
00000010001010100101010001111110
00000001100110111110000111000001
00000001111010101001111010110100
00000000010010100101011110010101
11111111000100111111101011001011
00000000010001100010011000101001
00000001010111011001110010010110
00000001100100101110100000011101
00000001000011001010110100110001
11111110111011111101110011101011
11111111101010011111111000010011
11111110011110100010011000110000
11111111001101000101100101100100
00000000100010001000010100010010
11111101101000100110110011101011
11111110111000111000111001011100
11111110000111110111100000001011
11111111110110101010011010110110
11111110000100110001010001100100
11111111111010001111101001110100
00000000011011110111001101010101
11111111110000100011000000100110
00000000100000101101101011001101
00000100010100001011100000010110
00000011011000110110101000111001
00000011001000000001010101000001
00000011100111011010100111000100
00000011001100010001100111111011
00000010110001011001111010111101
11111111111001011110001110101111
11111111010101010000110111000000
00000001001110110100011010010101
00000000011011000100111000100110
00000000011111010111110101010010
00000001100100010101010010111100
00000001011100100001011110011001
00000001011110110011010100000010
11111111000001010001110110011101
00000001001110010000000000011100
00000000001011101101110010110111
00000000010111001110101010000100
00000000001000000110011110100111
00000001101000101111011110110001
11111110110001001111000001010010
11111111011001100100101101111110
00000011000110100011010010011010
00000000101100010011111100011110
00000001000100010011100001100100
00000000110000110001111110101000
00000010110101001000110010100000
00000100001101100010001101010101
00000010000011001001100100110111
00000011000111111101100010101001
00000101001001111001010111100111
00000100000010110001001000111000
00000011010100111111110000111111
00000001011101111011110000101101
00000001001011000010010100001111
00000001101100011110011111010110
11111111000000011001010001101101
11111110001101100011110110000111
00000010010111000011000111110010
11111111010000101001111010001000
11111111011010001100101110001111
00000000110010100110011011111011
00000000111100110110110101011001
00000001011011001100010010010010
00000000110111101000011100100010
11111110011001001000000000011001
00000000010111001001110110010111
00000001011100101000010011111001
00000000011101101110001110000000
11111110110000100111100111101101
11111111101100111010010010010000
00000001001000000110111101100110
00000010111000110111011010100101
00000001100110010000110011001001
00000010110100100111000011110110
00000101000100101100100100111010
00000100001100011111101110001110
00000100101010000101100010100010
00000011001100011100101011101111
00000011000000110110001111010010
11111111011001001111011011101110
11111111001000011101101011111010
11111110111111001110101111010111
11111110101001001011001111010101
00000001111110010001101101110100
00000001110101111010100111100001
11111110110110011000110111101010
11111111011010011011001010011011
00000001100010111001000011101011
00000000111101101110101110001011
11111111100110101101010011001001
11111111101110010010011111111011
00000001011100011000100000000100
00000000011010111000000001011110
00000000111110100100010010011111
11111111110000110101011110101000
00000000011000111100000100111000
11111110101010110101101111111100
00000010011011111111110011001110
11111111001100101000001110001000
00000010010001001101011010101001
00000011001000100001011111100101
00000010000011100001110111101000
00000011101001001110010011110100
00000011011010010111011110001100
00000001110000001001001011100100
00000001101110111101001101101101
11111111101110111100111101110111
11111110001111000010100100111111
11111110111111111100000010000111
11111100001111001101111110101110
11111101010111101011011101001111
11111111010010001101001011110100
00000010010000100000000000001111
00000010111100100010111010111010
00000001110100000100111001011101
00000001001101101001100010000001
11111110101000011110000001001011
00000000010010000110011100101001
00000000000001111101101110100001
00000000000110111001100010101010
00000000010001111111101101010101
11111101111100110110101000010011
00000001110001100111001100001101
11111111001010110100100111000001
00000010101111010000001001111010
00000001000100110100111111110101
00000001101000101011001111100111
00000001000011111011010111111011
00000011010101010101101111101101
00000010110010101000111101001110
00000010011010101000110100100110
00000010101010010101011111010011
00000001101000001110101110000110
11111111110111110110110010101110
11111111101001001011011101101111
11111100010000000101010100001011
11111101010101101111101011010010
11111101010111110010010010011001
11111101111010001011010101100101
00000000100110001110100010001011
11111111101110100110001110111111
00000000000100100111100110001100
00000001000010011011011101011100
00000000110100110101000001010101
00000000010001101111101101110101
00000001001101000101110010001001
11111111110101101011101010011101
11111111100101101011011011000000
00000001111110110101101111010001
00000001101000110011110110000001
11111111110101100101100001110001
11111110011010110101000110010000
00000000001101001111000111000100
00000001101111001111110010000000
00000001101010101000110010100011
00000000011101011100100101110100
00000000110101110000011101001101
00000000100110010011010001111010
00000001101111100100110011000001
11111111011111000000010111101000
11111101011111110001000111101010
11111101011001011011110111101111
11111100100010000100000101010001
11111011110001110101100011011111
11111101110111011000000010111000
11111101111010001010111001101001
11111110100011000010000101100001
11111111111101010110111010101101
00000001001010100111000110010000
00000000010100011111001111010010
00000001000101111010011001101101
00000000110010001110001011110100
11111111011110010111100000011000
00000000100110110001010001001110
11111111101000101000101010000010
00000000100111110001101010011110
00000001100000101001000111010110
00000001001001010101110111111000
11111111010100101001011001011111
00000000001000110101000001101010
11111111110100000010011001000110
00000000011010101101100001010000
11111111100000000110100111101010
00000000000011111000011000000011
11111111000101011011011000010001
11111101011100110001001010010001
11111110100000101001101001000001
11111101101011110000101001001010
11111101110101111010100110010011
11111010011011010110000111011111
11111101101000101011001110001011
11111100101001000001010110110110
11111110001001011010011010110001
11111110010101000011001010010010
00000000110101111010100101110101
00000000011000111011001111011100
00000010011100111010101000001101
11111110110001111111101110110101
11111111110110011111010111110010
00000001011011110110001010010110
11111101110000010110101001110001
00000000000100011000001000011010
00000000010000101011100011110001
11111111001111000011111101010110
11111110111110001100110110011110
11111110101101100110010110010110
00000010110001000111000011010101
00000001001110000000110010011001
00000000000011011111010110101100
00000000101101011000110101010010
00000000011001010001111010101000
11111110110011111001010000000110
11111111001111101001001000110110
11111110100101110010011000000101
11111011101111001111001011010010
11111000111101101101000011010010
11111010100100010011111100010011
11111010110101001011111001111111
11111101010011101101111100011011
11111100111010111101000101101000
11111100111010111010100011110101
11111110101011111111001011100000
11111110101111101101001011101101
11111110101101010110101001101100
00000000000011010010001010100011
00000000001110111010111000100001
11111110100100100101001101011100
00000001101001011001011101011111
11111111100101101011111100111100
00000000010101011111011101100011
11111110100100111111101111100101
11111111101011111010110101011001
00000000001111111011111011111001
11111100111100011010001100110000
00000001011110110000010001100100
11111111010001010011011110010011
00000001110111011001000101010101
11111101111110101000100111101010
11111110101110000000101001011010
11111100111110001100101101011010
11111110111001011001011011101101
11111111100000010001001111010001
11111011011111100010100100010000
11111010111111011100011110111100
11111100111110100101100101001001
11111001100101110001101011001101
11111011010011101110000010011100
11111101101000100100001110011010
11111101111110000001110000110111
11111111100100100100000010001101
11111111011000101001100110001100
11111100110100010111000111101100
11111110101101010111001010100011
11111110101101100010010011100000
11111111010011100101110000100111
11111111011001001011101010011101
11111110001111001011111001101010
11111110011000101111100001110101
00000001100001011010101110010110
00000001000100111010110011011100
11111111101110010010100001000110
00000001001101110101001000011100
11111111000100101101010100110110
11111111100011011111100011010100
00000001001000101011100011011011
11111110100010101000001101100010
11111101111111010011011011001101
11111110111110011111100101011010
11111110000111110101101011011101
11111100101001001001000100011100
11111101000110011111110111110010
11111100001011111000011001000011
11111011101111001000110100011011
11111010010010110111001011101100
11111100010111111101110000010000
11111110000111010001111111001001
11111101111010000000010111001110
11111110010011100101010101001101
11111111011111010000000000001101
11111100100100111011000011001110
11111111001010000100100110000011
11111111011011000110011111111100
00000000000000001111010100011110
11111101111111010010100101111101
11111100101010101010111011001101
11111111110100000000001001010010
00000000011000101001011100010010
11111110011110100010001011010101
11111111111110000000001100010101
11111110100000001110001001100010
11111111100001100011000101100011
11111110110011010110110100011111
00000001000101000110010100110100
00000010011110110001110100011000
00000000010011010001001010111010
11111110010110111101011110000101
11111100011100000110001001010011
11111100110010100111010110111000
11111010101100010111000001001001
11111100010101011001101110010111
11111100111101111000101010010100
11111101000001101101101001100100
11111101110000100101101001001110
11111110000000110100101100010100
11111110001100110010001001111110
11111111011011111100001010101010
11111101100001010101111110000110
11111110011011001001000000000100
11111111011001111111110100010101
11111110110000100100010111011011
11111100111000001110110001001101
11111110001100011010011100111111
11111101100000110100100111100111
00000000010001100100010001000010
11111111111111110100111001111001
11111110110111010100001111010001
11111110110011001000011000010010
11111110101110111100001101001011
11111110110100101100101101100010
11111100011010111110011001001001
00000000101101100001011110001011
11111111001101011111101001011101
00000010110001001100001000110011
11111110011011010001001111010011
00000000010100110101110111010001
00000000111010111100010001110000
11111111001000101100000111000011
11111101011101000101000111110011
11111101011110101001010101011000
11111111110111011001111010110010
11111101010111000100010001010000
11111100101000100111111011111110
11111101110100111110000111010110
11111111000110000111010011101110
11111101101110010101100101010111
11111110111111010011000011100000
11111100110001001111111111010000
11111101010101100101101001001000
11111111001010010100001011100011
11111111111001111110111010011110
11111110100101101000111000010000
00000000010011100100010111101000
00000001000000011111110100010011
00000000110000100011110110001010
00000001011001101100001010111101
11111111101011001001111100001110
11111111011100101110100010001000
11111110001001110010101111111110
11111101111000010011011101011000
00000001101101010111101110000111
11111111010110001100100011100100
11111111110100101010110011010100
00000001010010101100110001011000
11111110111101011111110011000000
11111111110001101111010010000001
11111101101100010100101000100111
11111111111000111101110010011101
11111110011111101111111010111110
11111111010111011111000000101111
11111110101101101110111110000010
11111101110010101101100100110000
11111100101111101011110010000001
11111101100001001010100010001011
11111101101011011011000110011101
11111110101111000101100000100000
11111101110000001111011000110101
11111111001010010001010101010101
11111110111110101000011010101100
11111111110100110000000001100111
00000000101000101101100010011101
00000010010000110001010100000100
00000010100111000011010111100000
11111110101011101100111101101101
00000001111101110011111001011001
11111110101010010110110111001011
00000000011001010001010010110010
11111110010110010001000011001001
11111111111100000111111111010101
00000000110101001101111110011110
11111111011001000101111110011110
00000000110000110011010110100110
00000000111101010001001010101100
00000001000010111100110111100100
00000000010001011000110101111001
11111111001011110100100001001101
00000000010111011100100111000110
11111101111010001100011111110100
00000000010111101001100101100101
11111110001010100100011111111111
11111111100010011000010100010011
11111111001111011000001100001101
11111110011011011110110100100111
11111011010110110101110100001100
11111110000010100010001111100011
11111110001111100111011101011111
11111111101001111100101010001000
00000000110110101011110110011000
11111110111110100010101001101101
11111111100111100011101110110101
00000001001010010010001110011011
00000000111100001111110000111001
11111110111010100110001011111000
11111111000000101000111001111001
11111111101100000100110110011010
11111110100110010110101101111100
11111110110010000000010001101010
00000001010111001001001101011111
00000000101100100010110011000000
11111110011000111000100110101111
00000010011010100100010010011001
00000000000000010110001111111110
00000010001011110100010010011111
00000011100001110000000000101111
00000001001110100010000001011001
00000000110100101100111101001111
00000000111100111110111010111011
11111111110000100010011001110000
11111110100001110010000101011001
11111111010111110101000011011001
11111110101101011011101000111100
11111101001110100101011010111001
11111111111000111000111110100101
11111111010101000110111111111001
11111111100001000111010110101001
11111111011000110100110101010000
00000010001101111000010010111111
11111111011110100010000011100000
11111111110000000001111000111011
00000000101101100001111010000111
00000001011100111101010010000100
11111111010100110001001110100001
00000001101001000111111110110010
11111110110111111000001000010110
11111111001011111010111101100111
11111110110111001100000100011100
00000000100110011000101010001100
11111111110000011100011111011011
00000010010101110001101011101110
00000011001000001011110111100110
00000010110001100011100110110110
00000001011010010000010100001101
00000000110110000001111001110111
00000000010011001100100110101110
11111111101011100000111001100111
11111111110011110000011011101100
00000000010010100000101100101111
11111111110000100011001111100100
11111111101100010000001100001010
11111110010100010011111010011111
11111110110110011001111110011111
11111101000001011011100100011110
00000000001101110110101110110001
00000001110101010111110000100101
11111100111110000011100111100011
11111101111000100010101100111010
00000000111001100000111101011000
11111110001100010101111111101000
00000000010010111000101011011110
00000000010010001111111001100111
11111110011110100000000101000111
11111111000111111100111001111100
11111110101010110111011101010001
00000000011000011010111000110000
00000001110110100110101100000110
00000001010100001101110110011101
00000000110111101101000010000111
11111111101010001111111101110100
00000001111001111100011000100111
00000000011000101101001011111000
00000000100011101000000000001001
00000000101100010011110001000110
00000001110101010000100111111101
00000010000010010101100010101110
00000000011101110111111001000000
11111110111000101101110110110001
11111111111110000011111110101011
11111111110010011010100001001101
00000000111000111100100000101101
11111111010001000111100010110000
00000000001011110100001010011000
00000000001010100000010011110000
00000001010001111000111011110000
00000000000100101111010110110110
00000000001010001111100001110010
00000000101000011111110111010011
00000000001011010011001000111000
00000001011111011110001011100100
00000000101111010110110010011000
00000001000110011011111000011011
00000001111010010110100110110010
00000001100011001111010110011000
11111111001101011110011001110000
00000001100100101001011001001111
11111111001011101010111101000010
11111111110010011100011010001011
00000010010101101000010110010010
00000010101111100110110000101001
00000001010110110000000000001000
00000001111100010010111010111001
00000001011101100011001101011011
00000010001101101011010010011101
00000001010100000101010010010000
00000001100100111010000011111010
00000001100000110011100010100100
00000000101100000001100000111111
11111110111000110100111000101011
11111110111000001010110110000100
00000000001010011000100110110001
00000000010001000010101111110101
00000001010101001101011100001011
00000001001010001101100110101100
00000010100010101010010010101010
11111111100110101100100111000011
11111111111011011010011110001001
00000001011101010011001101001111
11111111010000001111101011111100
00000001010010011101110110111101
11111110110100110001100101100000
00000010000000001011110011010110
00000001110010101110100100111001
11111111010101111100001101011000
00000001100010001110011001011001
00000000111100100111000100111001
00000001100000011001000110100111
00000000100011011110110001000011
11111111010100001011011101001100
00000000111000110100010101001100
00000000110100111001011111110001
00000001111010010011110110111100
11111110101110010111010111011101
11111110111011110111000000001110
00000000011100100010011001101111
11111111110111011110011100111100
00000000100100111001001101100011
00000010000101001100101010111001
11111111010001111011110101110110
11111111011011101110110110111111
11111110111010011011100010110110
11111111100110011000100101001010
00000001001111001110101010110001
11111111101101011101111101100100
00000000001001111010101011100110
00000001111000111110110010000111
11111110010000100111110110110100
11111111100010110001011101100001
11111111001001111100110111001010
11111110110111010000010101001010
11111111111010111100010000110110
11111110100000100111101110011111
00000001111110011000111010001011
00000001110010111101110100100101
00000000001110010100001100000101
11111110111100101011101000110101
00000001100011010001010110001001
11111110110010010111111011011001
11111110110110111100001001000111
11111110111110010001100010111000
00000000000111010011011110110000
11111111010110000001001110101111
00000001000001101100111001010001
11111111001100101110001110101100
00000000001001001000100111110101
00000000111000111001111000111111
00000001100100101111100000011111
11111110010010001111000010000110
00000000100011010101001001010001
00000001010110110100111110000110
