00000000101010011001101111010000
11111110010011011000001101000011
11111111111000100101101010110011
00000000101010101110100100001000
00000000110001011101010001110110
11111111111100000011110001110010
00000000110100111011001011011011
11111101011010100011100000000001
11111111111110110000010100001111
11111111010001110110110010100010
11111110110001111110100110010001
00000000001101010101010111011011
11111111110011101111011001000110
11111110101100110011011110001111
11111110010101111011010110000001
11111110111010110101110011100010
00000000110010010000100110111010
11111111101100000011101011000110
11111111100001010111110100011010
11111110010000011100010010001001
11111111010111100001011100111101
11111110011000100001000111101110
11111111100001100100101110011110
00000001000011011001111010101110
00000000110110000110011001000110
00000000001111000101011001110001
11111100101111101001110111000010
11111111110000001100010101110100
11111111010110010101110101100001
00000000100110101111101000111011
11111111111010111111100111000000
11111111100110011001110001111010
11111111001001111000101010000100
00000001010100100100000110101100
00000000110110100111010001111000
00000000001111100111000001001111
00000010011001110010001110001110
11111110111100101010101101001111
00000001001001010000011011011010
11111101001001011110011001001010
00000001010001001101100011001000
11111111110001011000111010010110
11111111100100001110101101010100
00000000100000000010101000011111
11111110001011110111100110011101
11111111001101000011101100111000
11111111110101110010001101110010
00000000011111011100111100101011
00000001011100010110001111101110
00000000110011011100100010110010
11111101110111010110010101111111
11111101001011110010001100101001
00000000110000110110011010010100
00000001110011011101001000001110
11111111001100000010001010101101
11111111011000011000101110010010
00000000000001001110111101000110
11111111111001000010100100101000
00000001101101011001011111100011
11111111101011100100010100101101
11111111010001011000011011000100
00000000111111101110011011001100
11111111001101100010000110000011
11111111110010000001001000011110
11111111110100011110000100110111
11111111010101000100000000101111
11111110110111110000001110110011
11111111111011010111110110111011
11111110111110110110101101100101
00000001111101110101101100110011
00000001101010011000001101111001
11111111111010001111000110101001
11111111111110011101010101110000
00000000110000001101110001110110
11111111000000001001011111001001
11111111000011001001101110110011
11111111110101101111000100000101
00000000100101000100000011111011
00000000010100100110001000100011
00000001000110110110111101001111
00000000111010011011111110101001
11111111110001000010010110100000
11111110101100000110011111011110
00000000011010010100100001111000
00000000100010000001010000000000
00000000000001100100100011110110
00000000010000011011011011010101
11111111111110010100000001111000
00000001101000010100111001111101
00000000011010000011001010110001
00000001100111010010101010100110
00000000011001110011010111001001
00000001001001111100011001011010
00000001100011110111111101111110
00000000001011010001111110001000
00000010011011110101000011001100
00000001110011111010001010000000
11111110011111100000101010010000
00000001011100011101111101110111
00000001101010110000101000101011
00000001100101010010101111101000
00000010101101001101100111001111
11111111101100110010111101011011
11111111011111000001111011101000
00000000000001111001100110110001
11111111111111000001101010011010
11111111001000001000111100011010
11111111001110000011100011110010
11111111110010100110111011010011
00000000000111001000100000110001
00000000101111111010011110011000
11111110011110111101100100100000
00000000100101011101001011001101
00000000111111010100000101001110
00000000001101111111010101000011
00000000111001000011001101001111
00000000010100011101001111110111
00000001011100000001110001110110
00000000000011100001001101100101
00000010011111101110101011101101
00000000100010110000101001001010
11111111010100101011101100000110
00000000001010101111110111011100
11111111010000010000000011101011
00000011101100100010011101001011
00000000010010001101101110011111
00000000100111010000111111111110
00000000001001111100100010110100
00000001101000101100000110001000
00000000000111101010110000100001
00000000101101111000001111011111
00000000010100000111000001111111
11111111111111101001110110010010
00000000011110111000001100011111
11111110111101101001111100111010
11111101010101010100011110010111
11111111110000010011101010011111
11111111100101100110000111110001
11111111101011100111100010101011
00000000101110010001011111000011
11111111011110001101011001000001
11111111111110110110000110011110
00000000000011000101001000010000
00000001000100100010011001100111
11111110100111101101101110100111
00000001101100001101101011001110
00000000000110000111011011011001
00000000000010011101101110001100
00000000011000100111011001111101
11111110111011110010011100100000
00000001010110100101110000101011
00000001011111100001110001000001
00000000110111011111000100001110
00000000001010111111010001001111
00000010001011001011111110100100
00000001011011110100011011110010
00000001101000100001000011111010
11111111111011100011111011011001
00000010001001110001001111001000
11111111111110100111111110001011
11111110101011011101101100001101
11111101000010000010100101010000
11111110101111011100111111011001
11111111101110010101110011111000
11111110111011000101100000011110
00000001001001111011101101010110
00000000010101000010111001000111
11111111000001011011110110011111
00000001100011101000010111110110
00000000010000000000110010001011
00000000101010100101001111101100
00000001000100011000000101010000
00000000110010011000000101110110
11111111111010101010111111000011
11111110101010100011001111111110
11111111110111111000000010000010
00000000111010010010001010101001
11111111010101001001010111111000
11111111000010110011110111110110
11111111011001000010110010100101
00000000100101010100010111100001
11111110111101110100100001111000
11111111100110011011011010010011
11111110000101011110001010001000
00000000011001101110011011110111
00000000010000110111111000101110
11111111110100001111010100010100
00000000100110000001110000101110
11111100001101100000101111101111
11111110000100001010011001010111
11111110101001111001010100101010
11111101010111001111110010111111
11111101011011011101001110100111
11111111010110010010100000110111
11111111001011110000000110001111
00000001010000011111010000010101
11111111100100111101001011101100
00000000001100110000111111101011
00000000000001110010110101101101
11111111000111011010100011010011
11111111000110110010101101000010
11111110100110110000101000000111
00000000001100101100001111010111
11111110100100001010000100000111
11111110100000000000111100001100
11111111111101010110110000111110
11111110000110011000010001101010
11111110010111111100111001111011
11111110001110001111010100001101
11111110100000000100111000100111
00000001000011100100110100101100
11111111001000110011111010001011
11111111101010101111011001101011
00000001011100101100011000000101
11111111011111100111110001111111
11111110100111111110000000110100
11111111001011011001101100100100
11111101010100010100110111110100
11111100001101001011110001100011
11111011011101110101101100110100
11111100010010110011011101111011
11111111100011100101110101111000
11111111111111100010101101100011
00000000101100100101011000010111
11111110101111111111110110110100
11111111101100110011110000110100
11111111111110000100011000001110
11111111101110000110101101000001
00000010100010000110011111110001
00000000010000010100001010011110
00000001100101000100100111110111
00000010100011111101001011011111
00000001010000010001110010001110
00000000100110000110110001100011
11111111010000000001011101010001
00000000110110001001010001110001
00000000000101010000110101001001
00000000101111100110100011000000
00000011000010110011010110001111
00000011011000001100101010110001
00000011101111000010111111101100
00000011100110110000000110101101
00000010100010000111001001010100
00000001111101100010001101010000
11111111010000100011100100010101
11111101101100010100110010110001
11111110000111100110111110110010
11111111000011000011011111011111
11111110100001000011011111000100
11111101111100110010111110010000
00000000011101111000001101111100
00000000101011111110011011101000
00000001001011100010000110010010
00000000010100001110011110011011
00000000100010001001000101011100
00000001010100001101010011100011
11111101011101111000110100010010
00000000001110101000101101100010
11111110110100101101011000110000
00000001011000110101010111010010
11111110111110000000000000011011
00000001111110111110000010110010
00000010001010000100011000100100
00000001111100011111100111010010
00000001101101011010100110110111
00000010011111110100000001101101
00000100101010100001100110101100
00000100001001101011110101101100
00000100011111111100101101001001
00000100011110110000010110011110
00000011111110110111101100110011
00000010001100101111100110101100
00000000101100001111101001111111
11111111101000001111111010100101
00000000011000001110110100110011
11111110001101101011111111000101
11111101011110000000101111011110
11111111010010100010111101101100
11111110000101100110101101101100
11111111111110101101101000001000
11111111100100100000101100100011
11111111111001110010010101011000
00000000100101010010000010001111
00000000100110001001101000000101
11111111000001111101001101000101
00000000110010100100110111100110
00000000111100110010110000101100
00000000101101001010111100010011
11111101101011101010101111100100
00000000100110110011101101010000
11111110011000000011110011110000
00000000001111100000100001000101
00000000000010101001000010011100
00000010010101010000001100110101
00000010000101001111100010010010
00000000100100000010000111110111
00000010000011101111110000100001
00000001111010011001110000100011
00000011000110100001101101100100
00000000111111100100011011011010
00000011111011000110101100101101
00000001011001110010001011110011
00000000011011111110101000000110
11111111110011101101110011000111
11111101010100100101000010001000
11111101110011011010101011001100
00000000100101101010011100111001
11111111001010100111110010000000
00000001011011010110010001011001
00000000101101111000100101001111
00000001110001001101001110010101
11111110100101110000001110001011
11111110010010101010011101110001
11111111101101001111011001001011
11111110001011110110100000000011
11111111000001011000101110000010
11111111011111010001101101111000
11111110101100010101011001011010
11111101110100110100010111100100
11111101011001011000011100110101
11111110100111110101101111111101
11111110110001101011111111001110
11111101010001111000000011110101
11111100010101101110110110011110
11111101011011111110011010001000
11111111011110000011101110001111
00000000010101110010011001001010
00000000011111011100011011010011
00000100000011100011110011100101
00000010011000101000101100111010
00000010011001100110110101100100
00000000111001110100001100101010
00000000011101011111100101011010
00000000010110100110010100001001
00000000001101010100001110101001
11111111011011101000001011000101
11111110010100101100111000100000
11111111111010010000011111100111
11111111000110111001111100110011
11111101001101010011110001010000
00000000010000111000110110011011
00000000001110100010111010011101
11111110100101100110000100111001
11111110001111011011101100111111
11111111111101000110010011001101
11111111011001001110111010001110
11111110101100100111100101000011
11111011100011111100010000011101
11111011010011111110100000111101
11111100001000000111100001111010
11110111110010000010011010010011
11111000011000100000110111101011
11111100111010001011100010000110
11111110001111011110011110110110
00000000010110100001001010011101
11111111000011111010011000100110
00000000000110101110010101110011
00000001001000111111111000010011
00000011001001000000000001101010
00000010010111100110000110101001
11111111001100100010101011010011
00000000110000011010111100111111
00000010011001101111011110000111
11111110111010000100101111011101
11111111101001100010110011011001
00000001001001111011111101101110
11111111110011111111000100010000
00000001010100111010011100101101
11111101000110000000111101010001
00000000001000110110101011111101
00000001100000101000110011101100
11111110010110001101101100000001
11111101011100100001101010000100
11111011110001100010000100100011
11111101100010000000010111101110
11111100001000000001010000001011
11111001100110101011011100101110
11111000111010000001010100110110
11110110000100011010110010011010
11110111011010000100111111100000
11111011101011001101011011110110
11111101010101110011110011110011
11111110010010000100000011000011
00000000000000100000010000100111
00000001001011100001010001110100
00000000101000100100001100010100
00000101000101001001001100100010
00000011110011100101101010110000
00000001110100000110010101000000
00000000010011001001101111010110
00000000010110000011101000100001
00000000101111011011101011111010
11111101101110011000111011001111
11111111010101000011010011001000
11111111110101011010100010010001
11111101000001011101001111000001
11111111010100000100110110010101
11111110101111011100111011010010
00000000100111010000010000000011
00000010000111000011111101111111
11111110101101000101110011000001
11111111111011101100100110110100
11111100011111000000110010001001
11111101000011111000001010011001
11111010001111111110000100100110
11110110001001011000000100110101
11111001000000111011000000110111
11111001011001101000111111010011
11111100111100011000010101001001
11111101010110001110101010110010
11111111100110100001001000101001
11111111110010010100111011100000
00000010010001011110111100101101
00000000001100111001110011110011
00000001100111111000001110100111
00000011110100110110100001110111
00000001010111101001101000111100
11111111110010111010110101000001
11111110101010110101010000100101
00000001001001000011111111011001
11111111111111001100000111101010
00000000011110010101101010001101
11111111011100010110100000001101
11111111100000000110101011001101
11111110100111101101100100001001
00000000100010110100111111100110
11111111001111111000000011111100
11111110110111100011111110111110
00000010000011010010000110001010
00000000101100010000000110100010
11111110101010110101101000100100
11111011010010110000001011011111
11111001000010101110100011111000
11110111010101100000010000010001
11111001010010101100110100000111
11111010110111110101010100111011
11111100011110011001011000001110
11111101100011100010001010100111
11111101011011111100010011011001
00000001110110011011000111111111
00000000110001110101011001001101
00000001011110001101110000100010
00000010010010000000101000111010
00000010001100111100100100011100
00000000101011001001111010011010
00000000000000110110111101110101
11111111011111111011110001111111
11111110100110010010100000111011
00000001110111101110101111110100
00000001110100011001000111011000
11111111011011100001010010100100
00000000110101101011101100101110
00000000110000100010011100010000
00000010011000100100110011001001
00000000001000000001001001001000
00000000110111100010000000001110
00000001000110111010101100101011
00000000111011010010001111001001
00000000101110001010100011101101
11111100101011110100101101000010
11111000101010010000101010111101
11111000000010100001100110110001
11111011100111011100010011001111
11111010111011100111010100110010
11111111110111011111100000001011
11111110001000111101000001001010
11111110010001110011000101011000
00000000011001000101101000011001
00000001010010001011111000001010
00000001100001111110001101010101
00000011100011000100001100000111
00000000010011000001110000100110
11111111101000101110011111101001
00000010010001010110000101111111
11111111111100010011110101001110
11111111111001011011010010111001
00000000001011001000100111011001
11111111110101101000000101011111
11111111101000010100001101001010
00000001100100111100001010011111
11111110100111100001111011010001
00000000100110001110111010010111
00000001100011001011110110100000
00000001001010111100101011111000
00000001100011011101100111100111
00000001001111110010010100000101
11111110110111010100101111011111
11111010111110101111101101101100
11111011010100110111000011010001
11111000110011110011110101001011
11111101001010000010111111100101
11111101011011100011000011111101
11111101110110111111111011010110
00000000010011010000010000110110
00000000100010110000011000001011
00000010001010110001001010101101
00000010111100111000111101000100
00000010000100110011001111011101
11111111110000011000111010000011
00000001101010011010010100000010
00000000101111111001000001100001
00000000001000010010011101101010
11111111111000110100000110011010
00000001101110011100001000001010
00000001100111010100101111111101
11111111001100000001111111001100
00000001011110101100001101011001
11111111000000000100000000011011
11111111001100001010110101000001
00000011001000111011000000101010
00000001100000011101111111001011
00000001000001000000010110110000
00000010010101011010011110110101
00000001111010001011010111110010
00000000110000010011100101100000
00000000000101100101001101110001
11111101011000100110100110001001
11111100111100101110101100010001
11111111100110111011110111110010
11111111011000000001011110110111
11111111110000110111101011111101
11111111010100011000011110010110
00000001011111000011100110011000
00000000010110101110000011011100
00000000001111110111001001010010
00000000111011011010010000110000
00000000101100101101111001011110
00000000010100010111010001000100
11111111001111110011100110011111
11111111100111110110111111101111
00000000000010111100100000010010
11111111100011001010111000110010
11111111111010100100100110010100
11111110110001111111100110011110
00000001001111110010101010100000
00000010000010110110110010110110
11111111111100001000011011100111
00000001000010001001110001111100
00000000011010100001001011111100
00000001000100110110011101010011
00000000011011001011111110010010
00000001101101000100000111001010
00000010110101110011000111111001
00000011110101110110001100100111
00000101010101000111000011100001
00000001101000111010011100111010
00000011000100110101110000001110
00000000111011100000110100100011
00000000111111111111011001100101
00000010010011010111111101011100
11111111110111110111111000101000
00000000000000100111001001110101
00000000110000111001011111010100
00000001000001110001011000010101
11111111110111010000010101110101
11111111110110011011101001111111
11111111101110011000001000101010
00000000111011010101101000000100
11111111001011011010110110101110
00000000101011101100000010001000
11111101010110000010000110011001
11111111110110000000110011100001
00000000100000001011011011100101
11111110000100010001000110110011
00000000001011010000111101111111
11111110111110011011010111110111
00000000011111101001000111000000
00000001110000001101100001001011
11111110110011110110111110000110
00000011001010000100100101110100
00000100010110111000010000000011
00000010100100000101111000111001
00000100011001010111111010011101
00000010110101000110101010010010
00000000110111010111110100101100
00000000111110100110111111111101
00000000001001000010110100011011
00000000110101111000111111101100
11111111100100000110111001001110
11111111011011110100111100100001
11111110110001111101000000101111
11111111011111100000011101001111
00000000001100000001011001110001
11111111011101010000110001101101
11111111111001011000111000101101
00000000010100111101100111111111
11111110111000101101011110100110
11111111000011001000011011000001
00000000101111000100010101010001
11111111001001000101100001010111
00000001111000000100100001011101
11111111000001011010011001011100
11111111111001110010101101101000
00000001101001101111010101010101
00000001110101101110000001001010
11111110011110001111010101000101
00000000010110110010011111101011
00000000000100001001111011000011
00000001001100100110101101010111
00000100001001011101000010001011
00000001001010010111101110000000
00000100010110000110011011100100
00000010010101011100101101101111
00000010001100011111100100000000
00000000011010110011010011101101
11111110000100110110000111000000
11111110000111101011100101001101
11111110110101101000010001010010
11111110100100100101010000111111
00000001000000001000011001110110
00000001000110010001111110100101
00000001010000000111011101011111
00000011011001100010101001110111
00000000110010111001011000101110
00000000100111011110100001010000
00000000010000100000000010011101
11111110111101100110101101000110
00000000110110010010110011101100
11111111100100110101100101010101
11111111110010101100111000010101
11111110110100001111111101110001
11111111011010110110000000111100
00000000100010110110101110011001
00000001101101110111101110110001
00000000000001110000000011000000
00000001111100011100011011000101
00000010010000011101011000101111
00000100000010000111111100000010
00000000111000011111100110000011
00000000110000001100110111011111
00000001010101100001100111001000
11111111101010101010100110110000
11111110001111010011011001010100
11111100101110011110111111011001
11111101110110111101111110111101
11111110100011001101011001111011
11111111001101001101101001110010
11111110001101001111111011101001
11111110010111100001000001000111
00000000000101100101111101111110
11111111110010110101000111101100
00000000011001101100010101100000
00000001000010100111100110101001
11111111111000111011000000010110
00000000000101010100011101011001
00000000011101010001100011001011
11111111110001100010010001101011
11111111011100100000010100101100
00000000001111010001011110001010
11111110101011101011010010001011
00000000111111000000110111001100
11111111011110001101110100011000
00000000100100101010100001001110
00000001111100000110011111001010
00000010010110001111101100011010
00000001111010010101000011011100
00000000001100001110001011101010
11111111001101110101110111111010
11111111010111011100111001110101
11111111011010101000110010111111
11111111000001100101110011101010
11111110000111000101100101110001
11111101100110000011100011000011
11111100001010110111101110011000
11111110011110111010001001101101
11111100111100101010101111101001
00000000100101100000001010110011
00000000010010100111101010110000
00000001000101000100001000110100
11111110111100110001110001011000
11111111000011110110000001100100
11111111001100010000101011010111
00000000111010010111011101111001
00000000001100100000001001011000
00000000001011101101100000111000
11111111001010110011001000000101
11111110110101110011111110101100
00000000011000110110101011001110
11111111110000010101110001101001
00000000100111101101110000011001
00000000000100101001110011101101
00000000001001101111101101011000
00000001010000011111100100001101
00000001100110111100001010011100
00000001011101001011010101001011
00000001010100101110101111011000
00000010011101010000100100101110
11111111011010001111001110100001
00000001100010001110111100000101
00000000011001110001110001100111
11111111001111110110100010110111
11111110011001110011101111110011
11111111000000110010100100111000
11111110001000000011001110100110
11111111010010011001010111010000
11111111100100000101110110110001
00000000011011111111110011011110
11111110100010101100101100110000
00000000100101111111000111000100
00000000101101000011010011100011
11111110101001010011111010110101
11111111000000111100011110100010
11111111001001100111100000111101
00000000110100101100110000000011
11111110100001111100000011000010
11111111100111011000000000100000
00000000000111100010011111111011
11111111101000010010111111111111
11111111110000010011111000011001
11111111100100110010101110110011
00000001000101110001011001001111
00000010111011101001110111100011
00000001001100001111000001001011
00000010001000110010000001000010
11111110111010010100101100001000
11111111111110111100100101011110
11111110101011100101101001001010
11111110010010000100100101000100
11111111010001010000011001100111
11111111111010000100111001011110
11111111010100101101011011000101
11111110001011110011001010101111
11111111001100001111100100000011
00000001010100110011010001101000
00000000000111011100111010110000
00000010100010011001011111111101
00000000001100110110111101001100
00000001000100111110010001110001
00000000001110010111111111001110
11111110101101000111011111110011
00000001000110111010111001100111
11111101010011001111000100010011
00000001001001010001100110011100
11111111011011010100111110110100
11111111011000111111011100011111
00000000110011000011100011110111
00000011000011010100010101101000
00000000011000001011011111011001
00000001011010011011000010011100
11111111110110110011101000010101
00000010001001110000000100000011
00000001111111100011110000010001
00000001000011110100100101011010
00000100001100010010010010011011
00000001111111100011001001010000
00000000010101100111000111111101
11111111000110001101010111101001
00000010101100110111000001110111
11111110101111000011000011110011
11111111010100101010010011010100
00000001110101110000001001100001
00000000101100000010111010100010
11111110011001000110011011000010
11111110110010001000000010001111
00000000001100011010011000001100
00000000101000101010111000110000
00000000001111001111100110001111
11111111111011110111000010001001
00000001010111010001110010000101
00000000001011101101111110100000
11111110001011101111101001010111
11111111101110001000010001101100
11111111110011111100111010110111
11111111001100011010100011000010
00000001110110011110111000111110
00000000010110011011101011000100
00000000111000001010001001010100
00000001101011011111010011001110
00000010111001110010010110001011
11111111101001001110100011000011
11111111100101000101001010000000
00000000110000000100111110010010
11111111100011011011111001011001
11111110010011000010010011100011
11111110110011110100001101110001
00000001001000101001001000010001
11111110111101000011011010000101
11111111001011111100001110000101
00000001101101001010011001110100
00000000111001110001111000010011
11111111011011011110010111110001
00000000001110000010010100000111
00000000110010100100110110010110
00000000101001001111111101010111
