00000000110110100001001100001111
00000001101101110111110001001100
11111100111001001101011101111010
11111111010101000001011011101110
00000001000101101110100001010100
00000000100111001000100001011111
00000000111011110100110100010100
11111101000101111011011111010101
11111111100111000110101111101000
11111110001011111010011100000010
00000000100101101010011011000110
00000000011010010001001111010011
11111111111101111011011011001000
11111111011111111101110110110110
00000000110101000111110101011010
11111111010001110101001111001110
00000000010111000111101000110001
00000001000111111010011110111111
00000000101111011001110000001100
00000001111011011001100011111110
00000000100101011101100100000001
11111111010111101000011010010001
11111110100010000010111000111001
11111111111010011110111000101101
11111110111001111110010101000111
00000001000001001010100100011110
00000000110111101011000010011100
00000010101010001111111111001111
00000000001111100110001001010011
00000001101010110001001000001111
11111111010110100101001011001100
00000000100111011100000011111101
00000000110100111011010111111001
00000000001110000110100011010101
00000000001111110110100111101000
00000001100110111001010100010110
11111111000001100110001111010100
00000000001010110110111010110011
11111110111100011001100011100110
11111110111111110011000100111101
11111111010001010011110100010110
11111111110101001101110101000011
00000000110110111100000100100111
11111111101001010111110011100000
00000000010011011011100101100001
11111110110110100001100000010000
11111111101010000001101111101111
11111111011101010000100000110001
11111110110010010011001100101101
11111111100010111000001010111011
00000000001010011110000010110111
00000000110010100111110010101100
11111111001011111010011001110011
00000000001001110001100010001100
00000000100101011110010011110111
11111110111010100100110101011100
00000000000100100101101100110000
11111110100111010000011010011111
00000000100000000110111110111110
11111111011011011011111010100111
00000001110010100101101101010111
11111111010111101101010011011001
11111111110000001010001000100011
00000001101111110101000000001000
00000001001110100011010010100000
00000000010110010100011001011111
00000000010111101100011101111101
11111101110011110000111001000111
00000000101000101011000000010001
11111101110110000101100010101000
11111101101110101111000011000010
11111110111110111001100111100110
11111101000110000000011010010011
11111111101111011000000010101011
11111101110001100001001111110101
00000000100000011110110010101101
11111111001001000111111001101010
11111111000011100011001101100100
11111111010010010010011011001010
00000010011001110001011111100101
11111111001010101100010110011001
00000001001101110000000011000101
00000000000100101010001010111011
11111111001111001101101011011011
00000000000010101001110100011011
11111110110010011111000100000010
00000001001011101100010011111110
00000000010110010000000111100101
00000000000000111010101100101110
00000001000110101000010110000111
11111111111100111000011001110010
11111110101001001110001000110110
11111111010100011100010101100110
11111111100010000011001110101001
11111110000010001101100010101110
11111110101010110100001001010011
11111110000010100101101001111000
11111011001110010111110110000010
11111100101010101010011010010100
11111101101101010101011011000101
11111011010111100101011111100000
11111110100001010100101101101011
11111101001000010001001000101011
00000000001000001111110000010000
11111101110011110000000000010110
11111110010100001011100001011001
11111111010001101000100111110011
11111111001000011010110100101011
11111111100010100101010001110011
00000001101001111001000101000100
00000000000110011010001000001100
11111110111010100111110010011110
11111111010110011011100011101001
00000001000000011101010000101011
11111111110111010000000111011010
11111110101111011100100111101011
11111111000101011100110010010001
11111101001010010000000001101001
11111111100011110100101010110110
00000000011010000101110111001100
11111111110010001100010100010010
11111111100001010110111101000011
11111101110100111101101011010100
11111110111110101011011110000100
11111100110111101011011010100100
11111110101111001011100111111000
11111011011110000000100000111101
11111100000100011110001011100011
11111100001111101100000111110111
11111101101010110000100011100011
11111111010100010001010100100001
11111110001010011100011111010001
00000001011000110011010111001110
00000000101001001100110101011110
11111111011011010011101111011101
00000010000001111000000100010001
00000000010101000000010000100001
11111111111111111000111101000000
00000000011111101110111010010001
00000000110010110000101110000001
00000000100101101111001011011000
11111110011100111011000000011101
11111111010011001110010011011111
11111110111000101111111001000000
11111110000000000000001100011111
11111111100100110110001110101111
11111111110011000010001011101001
11111110010111101001001110101110
11111111111001010001011001000001
11111101001000010110011101100010
11111101110101111001110110000101
11111101111010100111100000101000
11111101101010100100000011101010
11111110001110001011011100100110
11111011101110100000100011010000
11111100110101110010001111010000
11111011101100000110111010011001
11111100101101110110000100110110
11111101011001101101010101000110
11111111000101101100101001100100
11111111111111101100110101000111
00000010011000111100100011010010
00000010101101100110110101100000
00000010010011110100110000010010
00000001011010000000000101101111
11111110110010000011100011001111
11111111010101100100110111101110
11111101011000001011000011110000
00000000111110001110001000000101
11111111101001011110110011101100
00000000011110101010111010111111
11111101110111001001111100000011
11111111010000110011111110100111
11111111011101001100010001000111
00000001010011111111010001001001
11111110111110011010101000001101
11111101111111000000001101001110
11111101000000101000011110001110
11111111110110010011100110001011
11111111000001100111110000010111
11111111010001011001001100100011
11111111010010010101000000100101
11111111011100100000110010100000
11111111011100001010110000110010
11111111110111010011100101001001
11111111101110101110011100111101
11111111100100101110011111111001
11111111001001011011100011111010
00000001110011110010101000100011
00000011000101101110001100101011
00000010011100000111101110000101
00000010000101011111110000110101
00000001101110000111100110010010
00000000100101010110010001100111
11111111000000000101010001001110
00000000101010000101101111110000
00000010011101000111111000100111
11111111101100001101000010011001
00000000000110101100110010100101
11111111011001100001110001001010
00000000011000101101011101011110
00000000000010101101010011010000
11111101110110011000100000111100
11111111001010101111000011111010
11111111100010011011011111100001
11111100110001011010101100101100
11111111010000110010011011101001
11111111010100101111001110001010
00000001111101001001000010101111
11111111100110101110011000000011
00000000011111101101010000110111
00000000001101000001111011100100
00000001000101100100001001010101
11111101101001000010010111011001
00000001101001011100000001010011
00000010110011110000110010001111
00000001110101011111100010100010
00000011011011011001100000101110
00000011111100010110111011110101
00000010011111010001101010101111
00000010100010111011111010010000
00000000011100010001110000000100
00000001100001110100000110000100
11111110011110001111011000011100
00000001100001001000111101000110
11111110011010111101011010110110
11111111111011010010100001100100
00000000010011100111110110011000
11111110111100101100110100100000
11111111101100111101001110101101
00000001011110110110001000001001
11111111101000100001001011110101
11111111011111100100001001001001
00000010011001010001000000111111
00000001111100111110011011110111
00000000111100011000110110100111
11111110101100111101010011000110
11111110110100001100000111011000
11111110001001001001010100000110
11111101100001000110111001000100
11111110001110110001111101111011
00000001101101110000100000101000
00000000111010011010111100101100
00000010000010010101010100110110
00000010001111110101001000000010
00000011001001101111100000111100
00000100011011010101000001010100
00000010100111101100011111101110
00000011110111100101001001110101
00000010001011010000101010001110
11111111111010010011010001110111
00000000100110001111001001100101
11111111010000111101001110010111
00000001100110000110001111001000
11111111011000001010111110111100
11111111101111111010011010001000
00000010101100101111010111100011
11111111101111010110011010101011
11111110111010110011010111011011
00000010100101100101101010000101
00000000001101000000101000001000
00000010100110010000110111100100
00000000001101001010001010010110
00000000100010111101001110111100
00000000100010010000011101001000
11111101111111010010111111001010
11111101010000000100011011010100
00000010010101011110111110111010
11111111000011101010001111100101
00000010000000111100100110111011
00000001011101101000011100011101
00000000001010111110110111010111
00000000000101011111110101001110
00000010001111010100001000110111
00000011010010111100000100001011
00000010000100000001011100100100
00000011001111011001011010100101
00000011010010001101010000011101
11111111000111001011101111111110
00000001100100000010100011110111
11111110101000001011111101011100
11111111001000010001011011011101
00000000110000100011010100101111
11111111001011010010010101100001
00000010010000010011101000111101
00000010101000110111101011100110
00000001111011100001110110010011
00000010000110010001111111101100
00000010011110000111110011100011
00000100111001111101101100100101
00000010110110100110101111011000
00000011101010100110010111100000
00000001001000100010010001001111
00000001100101011001000101111011
00000000111010111111011011110000
00000001111101011111101000011110
11111110010001110010010000100111
11111110001011110011000010100110
11111110101011110100100010101110
11111111011101010011111010001110
00000010001111000010111011000111
11111111000100111100011010101001
11111111010001001101110001000110
00000001010001010111111110011000
00000010110001111101100000111110
00000010001001110001100011100011
11111110000011100100110000011001
11111110111101111100011111100110
11111110001011001000000001101000
11111111110010001000100111000111
11111110111100010001000010010101
00000001010011010100001110100101
00000000111111101100001000100111
00000000011011101111101101101100
00000001111111010001110011000001
00000010101010001110010100110110
00000100101010110100101011110101
00000100101100100100001101000101
00000110110010111101010001001101
00000100101001101000010011011010
00000010100100010110000110011110
00000110101010010011001011111100
00001000011000010110001001010101
00000100001000100101101110011010
00000010100010100111000000010100
11111110100111000010011100000001
00000000010111011111101111000111
00000001000111111010110000111111
11111111110101110000101010100001
00000001011110110100010110110100
11111110101101011001000011100101
11111111110110000001010011101111
11111111111110011100000101100110
00000000000111001011111001101110
00000000101111100011000110001000
11111111100000011100111111010001
11111111101110101000011010110011
11111110100111010111111000001000
11111111100000011110000000000101
11111111111011011001010100110110
00000001101101101110001000010110
00000010101100010011110101000011
00000001111011010111001000100000
00000001100011100111101000111010
00000101011000101010101011000111
00000101000010111110001110001001
00000110100100010011000001110111
00000100100011111001111100110001
00000101001111011110011100000001
00001000100010011011100101110110
00001011010001110010000001100111
00000101010010111111001011000000
00000100011111100001011100110011
00000000100111111101011100001010
00000000110001110110000101111011
00000001000000010110010111101010
11111110111100111101001011000001
11111110100010111101010011011010
11111101000001101001001001010011
11111101011011111010101100101100
00000001001011001010001011110111
00000001000110111101001011110110
11111111101100011000110010001100
00000001010111010111010010100101
00000010000010001011010101101010
00000000011110010101000011000011
00000000010011111110010010000001
11111111101011100011110101111101
00000000111101101001111010100110
00000000111111010000101011101000
00000001011001101100101111001111
00000010100111100101101111100101
00000011100000001000011110011011
00000010110000010100001101000011
00000010010110000010001010011010
00000100000101010001111110001110
00000101000110001000101011110011
00001000011011101001101110110110
00001011000111010101001011011011
00000101110011111110010001110000
00000100010000011101000011111100
00000010100110000000010100101101
00000011011111010100111101011000
00000010011010110011101100111001
11111111000101110101100111111100
11111011100000100000100101100011
11111100001001001100000110101101
11111110000001010010101111000110
11111100111100001110100000000010
00000000110100111110100000101100
11111111010011011010100010101010
00000000110111110000010110101111
11111111111101111110100111101100
11111110110100111010101011010101
00000000010001000111110010110000
11111110111110101011010001000001
00000000010000110010010100001010
00000010000011000010100110100010
00000000011110001000000001101001
00000001001001011110000100001110
11111110011111011001011100101100
00000001000011011000000111010000
00000000100110000111110100100101
00000010010100100001110011101100
00000100000111111110110100010110
00001001100001001010001000000000
00001000000101111100110011100101
00000101000010000100110010001010
00000000101101010100001000100110
00000001111000101000000010111100
00000011110100111100111001000110
00000000000111010100110110001011
00000000011100011101001100000011
11111011101110111001010110001101
11111100001111001010111001000111
11111010011101100110100000110101
11111110011111100000101001111111
11111110011010111111011100010001
00000000001001100111010010111000
11111111100110001001011001010100
00000001011101001110110000000011
11111111100000101111010000001101
00000000110111111000010101111101
00000001101011111001001000101101
00000000100010010110111100100101
11111111101100011101100011001001
11111101111001011001100011001000
11111100111110101100010101001010
11111110011100011011010111010010
11111110010110111010101000100111
11111101110100110001000011000010
11111011110000110101010111000101
00000010101110011110100100011101
00000110001100100011010010100010
00000110001101000111010100110111
00000011101000101110100010001000
00000001010100111001110000100100
00000010001011110110000100100110
00000011011010101100000101010101
11111110101101011001001000011100
11111100000111001010101101011101
11111110000110110000010000011100
11111101000000001001000100111100
11111101100111101001111010010110
11111101110010000111010011101011
00000000010000011100101011111100
00000000010010001101011111000101
11111101011100011110100001100110
00000000111101011110000010011001
11111111110011110000010100011100
11111101111100000111000111111011
11111111110010101011011111100101
11111110111101011000011011110100
11111100111110110000000110110011
11111101000011000001001000001111
11111010011010111001111001011101
11111101110000110110110000111001
11111010000111000100001100000111
11111100010000100011111110111101
11111111100011101100100001100010
11111111010100111001010101010100
00000010100110110101010000100101
00000010110100111000110011000100
00000011001010101010101011100110
00000001010110011001100001011000
00000001001001010111011101001011
11111111110010100011111010001110
11111100011101000111111010011011
11111101100000000101011110101101
11111101001111111000000010111001
11111100001000011100001010101000
11111010101101010100100100010011
11111111011001101010100001000100
11111101110011010100010110001110
00000000011110000100001011000001
11111110111111000001011000001111
11111111100011101000011100101001
00000000110001011000001101011000
11111100101111001100101110110010
11111111001101000011110111111110
11111110001101110010001011010110
11111110110010010111000010101100
11111101111111010001101000011000
11111011011100010100101100001100
11111010110001100001111001010011
11111001010101001011100010000110
11111011011101100100111100111101
11111100111001110001100010101100
11111110011010010101101111010011
00000001101100111101000000011011
00000001010111010101010110001111
00000000100011000110111100100100
11111110111101111011001011110101
11111110111001101110101111010101
11111111101000101001100101000111
11111101101100011101100011001101
11111100010110011000000110100011
11111101001000000000110001100110
11111100111111100000101110100100
11111101010011001011001100000100
11111111100010111001000000011000
11111111100100000011000110101101
00000000111101001011010011010000
00000001001010011010111001001001
00000001000011011100100111011000
00000000011111000111101111111111
00000001100100010100010101011100
11111110101001100110010010000001
11111110101110100001110111100010
11111010110011110110100111110010
11111011001101001010101111000000
11111010010100111011111000001001
11111001001100101010001000001011
11111100000001101101001000001111
11111011010011011000011101111100
11111010011101001011001000011100
11111101111010101011000000000001
11111110111110111010001110110101
11111101100100101010010011100101
11111110111110010110001111100100
11111110010001011001100110111001
11111100011101000010111010011001
11111100110001010010100111110001
11111101001111011100010111101101
11111100101010010110001010111111
11111011111010011110110001111110
11111101001010111110111010000111
11111101110110100110101001100100
11111110011011011110000110111111
11111111001010101001001111011101
00000001110100010110110110100001
00000010000101101100011111111110
00000000001110011000000010111100
11111101111000110110111010000101
00000010000110100111011100011011
11111111001000011001010111111010
11111111100101101101110010011011
11111110011101011101010100001000
00000000001110000000110011010101
11111101001110000111011010100100
11111011100101010101001111100100
11111010001011111111111110110000
11111000100111110011000110000111
11110110101110000011011011101000
11111000111011011010100001111110
11111100011101010111001101011000
11111101011000010100111100001111
11111110100001010000011001100101
11111101101011110011011001111000
11111100001110111101101100111111
11111100111011111111100110000100
11111101001100010111001100111101
11111101101111111010111000100001
11111110110100001000000111100001
11111101001110101111000110001100
11111100011000001001000111100000
11111110110001111000000010010001
11111111001111111101000100111001
11111110101101000111001100010000
00000000010000011111101010001100
00000001000000111101011000100010
00000000111000100101111011001110
00000000110011001001010011110100
00000000111101110000011100010001
11111101110101101111100110000111
11111100100101010110100100011010
11111111011110101000111011110110
11111101011110001011100110101110
11111111000111111000101001010100
11111101011101001011110000001101
11111101010100110010100000010001
11111001100001110001110011001100
11111001110001011001011000100010
11111100010100000010111101110100
11111011111010011001101011000111
11111100000101000110100111111000
11111101110000011100111111000011
11111100011000000100100110100110
11111110001000100011110000000110
11111101111101101011000011010011
11111110001010010001101110011010
11111100100001000101011101111110
11111110000000001001110000111110
11111101110001001000110100110100
11111111000001110011101110011010
11111111101010001001100011100100
11111110001010011001100010111011
11111111010010010010101010111011
00000001001101111001000011001000
00000011000100011100110100101110
11111110111111011010010000011000
11111111011101000011111111011111
11111110010010110001011101101100
00000000011100010100011100000011
11111101101011101011011111010010
11111111001110001010011100100110
11111111010000011100110000101001
11111110100101011100010100000110
11111111000000010111011100010001
11111100110100010011010000011101
11111101010100101000100110111010
11111011111000100000000001001000
11111111010010001111100000100100
11111101010000011001000011111001
11111110100001111100000100100011
11111111100111101110001100011100
11111111101110111000111000110000
11111110011110100100001000110110
11111111100011001011110001001111
11111110000011100010001011100010
11111100111010000000000001110001
11111110010110001111001000111101
11111111011100001101011111010101
00000001010011100010011111100110
00000000100001010011010100011111
00000001000001110000010100000010
00000000010000010110100101101110
00000000110011100101101000100000
11111111010100110111001101111111
11111111011101011010111010111100
11111110100111111111101010111010
00000000100101111010101010110011
11111110011101100011001111111101
11111111100001011100110110011100
00000001111001011001110011111111
11111110111111011111111100000010
00000000110000111000110110111100
00000000100110111110001111000100
00000000001111100001100010110011
00000010000011011001010110110011
00000010010100010100111001110011
11111111110100100010000101011001
00000010110110110111111001000110
00000000111100001110111111011110
00000010010101100001101000010001
00000000010000101000001111000100
11111111100000000100111000111101
00000000001100001101101000100010
11111111111000100101000101100101
11111111011000100010001100100000
00000000001100110100001001111000
11111110101101001100101101101011
11111111101000100101100011000111
00000000001000011000011111001111
00000000101110000100000011101100
00000000100110100111111111111110
11111110011011101101110010100111
00000000110111000001100000101010
00000000001101010001001000101011
11111110100100100001011011110000
11111111010100001111111101000000
00000000101010111101011101011111
00000000101010101011100111100010
11111111011011101001110101000010
00000000111010000000010001011001
00000010010101010000100000010001
00000000010011110011011111110101
00000011101110000100111101011011
00000010001001101101110011010101
00000101000010011110100011100101
00000011010010000110011110010111
00000010111000101111100111100110
00000010000110001100100111011000
11111111101110101010110000110010
00000010000110011101111101000110
00000001010011011010011101100100
11111111001010101011011101010100
00000000101000100000110111001001
00000010000000010010100111101100
11111111100000010010100001100110
11111111011000011010011110100010
11111111111000001010100111000010
11111111010110100001010111100100
00000000010001000010100011101010
00000000000101101001100000011011
00000000101010111110010000010011
11111110111011111010101110011100
00000001011110001110000110001011
11111101101001011110011100111110
00000001110110100000110011011001
00000000110010010000100001000101
00000001110111110010010000011110
00000001111110011011110001001011
11111111101110001100011010101101
00000010001011011001000100011000
00000010101011000000110010010101
00000001111010001110100010101111
00000011000010000111101010110000
00000011101000111011010100001011
00000010110011000101000110011011
00000010000111010001100101000100
00000010000100011001101110011001
00000011101111011100111110101110
00000000100110001111000011000001
11111111011110011101001101111101
00000000001100111010011110100101
00000000110100001000110101101000
00000000001000110101111011000010
00000000011100011101111001110111
00000000100010111010111100000100
11111110111110010100101110001101
00000000001010100011010010101011
11111111110010011011010110100010
11111111001110101001111110000011
11111111000110001101010111001011
11111111010011100111101110111110
00000000010011000011000110011010
00000000110010101010001111110110
00000001110010111100100110111000
11111101111001010011001000001000
11111111010101110110001110000011
00000010000111100111010110000001
00000000011101011010001111011011
00000000010000100110011000101011
00000001011110110100101111001010
00000010001100011110010110000001
00000010110000100011010011101110
00000010111010001011101100101000
00000010000110000101010111010010
11111111101100100010100111001111
00000010010100100100101000101011
11111111110011000011000010111101
11111111110001010110001111001100
11111110011010101011001110001010
00000000001111100101010110010110
00000001000111011110001001100000
11111110111111010101010111010101
00000001001000000000101101100000
00000010110011110111101010011010
11111110111111100101100101111110
11111110100100110011110001001110
11111111110100000000000100110100
00000001011010011101001100001111
00000000110000110010000000110111
00000001010100001101111000111010
00000010001101100111100001011011
00000000001111001110000010101010
00000000111100000110101001011110
11111110001101110100000001011101
11111110101111010011110010000100
00000001000001100111101101011000
00000000111111110000011100111011
11111111001001011010110001011100
00000000001101110011100011100111
00000010000101100111101010011001
00000000001100111001000101011011
11111111100001000001001011010111
00000001101111000001011110110011
11111111110011010001110111000111
11111111111010000100101000100100
11111111011001101101110010011111
00000000101100001000111000001011
00000010100001010111111001001001
11111101101001000000100111100001
00000000110000001111011101101101
11111111111100011000010111010101
11111110011000111110100001101001
00000000000111001101111111011100
00000001001110111011101010110100
00000000100101100100001000001000
00000000111110000010101111000001
11111111011101111001101010100111
00000000011111111011000010111100
11111110111110000100101010100101
00000001001001000111011100001000
00000000111111011100111010001011
11111110011110000111110001110001
00000000101100100101101110001011
00000000110011010001101010100110
00000000101000011011101101110010
11111111101100000011111101010000
11111111110000100111110001011000
11111111011111111111101100011011
11111110111011110100011000010111
11111110111111100111110010100111
00000010010001010011100110101101
00000001001010000001000000001001
00000000011010010011100011101001
00000000000000100011101001111011
00000001010011010111110110011110
00000000010101011110011111100110
11111111110000011100001001100110
00000001011010000110110000111001
00000001111101101000110000100111
