11111111010100110001010000010111
11111110010110000010010001000101
11111110110010110101110001011100
00000001011110010100101001111111
00000000111000011010010010010011
00000001000010010110011001101000
00000000111100000101111000110001
00000000100100000001111010011001
00000000010111101100011111100010
00000000010000000011101000000111
11111111100101111101010111101000
00000000111000000111110100111001
11111111101111010011100110111100
11111110110111101101111111010111
00000000010001011111011000110000
11111111111100011111101011000010
11111100010111111010101100001111
11111110011000011111001100010111
00000001100001000010010010110010
00000000011001111110001000110100
11111111101000010110110000100010
00000010001111100110110010110100
11111111100010111000001111101100
00000000001010001100001010001011
11111110100110010000110000010001
11111111001011000011010000001110
11111111011000010001100100101001
11111110111001000111001110100101
00000000110011010111111000001110
11111111110100100001011011110110
11111111100010100010100001010111
00000001101100110110011000110001
11111111100101011001010010101011
00000001101101001001101101010010
11111110101101010000101100111101
00000000101100001001111100011100
11111111111001111111010110011010
11111111000100001111111011100110
00000000100110110111011000100011
11111111110011110001001100010101
11111110010101011110101011111001
00000000100110110010101000100011
11111111101110000010100010101110
00000001011100001111100010010100
11111110000100100001111001111001
11111111010110111011111110111010
11111110101100101101100111111001
11111110110010110111010000010101
11111110111100000001000101001101
11111110111011010100001110000010
00000001011100000100001110101111
00000001111001001000000001101101
11111111010001010100111101011111
11111111111001110000110110111010
00000000101011010110111000010011
00000000011100100010101100010010
00000001001101100110110010000110
00000000011110010001010101011010
11111111101001100110110001110101
11111111001010101001110100011011
11111110010000010010111000101111
11111101011110101101000100100111
11111110101011000001111000000000
11111111001010010111000100110000
11111111101011100110110000100101
11111110010110100001100000111000
00000001010001001110001110100001
00000001001111000110101000000100
11111110100011001010010011001110
11111110100000000010111100011111
11111111101011010001101000110001
00000001001011010001100000011101
11111111001011100101111100011001
11111101001000101111110111110011
11111101011111000001011100111100
11111111001011101011000101010010
00000000110000001011011000011001
11111111101111110111010100010100
00000001100001100010001111010011
00000000110101011001110010011000
00000000100000000001110111001110
00000001100111010011111100100111
11111110110110010110000000111101
11111101111001100100110000001100
11111111101110100011101100001000
11111110101101001101100110010110
00000000100101111111111100001011
11111111001110010011001001101100
00000001000110111101100010100001
00000001110000111000100010101110
00000000101111101010000000110110
11111111110110001110001111001011
11111110001000110111111011000100
11111111000011111011011111010100
00000001110001100100100100110000
11111100111110100110101010001011
11111110000110000111000000011000
11111110101001111111011000010011
11111110000011001000001000000010
00000000111101011111100110001001
11111111111101001000110001100100
11111110111100011011110100011101
11111110101110100000001110000110
11111100111000000010100000000100
11111110110010011000010000101101
00000001000000011010110011000000
00000001010111010000000100100010
11111111001100000100110011001010
00000001000010001011100101110111
11111111100110010111100010111010
11111110111111111110010110101001
00000000111011001010000110110000
00000000001001011101101110111011
00000010010011011111110001000101
11111101110101110010001100110000
11111110101100110110110010011011
00000000000100011101100111111111
11111111110001011101110001000101
00000000111010001001101010100000
00000000000001111110110110001100
11111110010011011111000001111010
00000000001110000111010101011101
11111101111111000101010001101010
00000001000001010111110100110101
00000000000010010000011100111101
00000000100111011001000101001011
00000000100111110011101010111010
00000001010010101001000111000001
11111110001101100001100011001100
11111110111010110110111111001101
00000001100001011011111110010011
11111111010110100111101100100100
00000010100111111011001110110010
00000010011110011000110100001100
00000000000101101110100111111001
00000000001010001100110110010100
00000000111001100010011000100111
00000001001000000001000101101101
00000000001110011011011111110010
11111111111111110011000100111011
11111110101011011001010101001000
11111111110101011100001110001110
00000000110110011011001000001001
00000000000111110111111111000001
00000000001111011011001101100010
11111101011011100010101000011110
11111111011101101011111000100000
11111111111010100000001111010100
11111111010111011011011011111110
11111111000110101111011111110001
00000001111000010100110101101000
00000001110011001101011100110111
11111100100100100011110001010101
11111110000100000010010110111011
11111110111001110010110011000111
11111100101101010011000101010010
11111101110100010100010101111010
11111100101011001100100111100110
11111110010111110010111110011011
00000000010100010111110100001000
11111111001110001100100011001010
11111110110111001011000101011000
11111111111101001101100100001010
00000000000000000011110101100000
00000000101100010011100010011111
11111110100101010001101000100001
11111111111110101110011100000010
00000000100111111011001011100011
00000001101111010011110010011110
00000001110100000111011011110101
00000000111010001110000101001011
11111110001001111101000100000001
11111101110100001001010001010100
11111111101001000110100010000010
00000001000010001001001100010010
00000000011101001111100010110010
11111110010000001000111011010101
00000010010010010111011000101101
11111110111001100010000010110010
11111101100101110110001110101001
11111101001101100000111110101101
11111101001010001010000110011001
11111110010010010010001111000000
11111101011111001101100010010011
11111101100010010010001010000000
11111100100010110111110010111111
00000000101111010101100001000111
00000000010110111010000011101101
11111111010001001000000001111110
11111110000000101010111011111100
11111111000101000101111101010001
00000001000000100010001111110111
11111101101101010001000111010001
11111111011110110110010010010100
11111110111001001000000001011100
00000000111010110100110101011001
00000000100101010000001100010110
11111111100100111101100101000010
00000000000001111111000010000000
00000001011100010111010001110111
00000000100011011100001010101010
11111110011111110101101110000011
00000010000111011111100111111000
00000001000011101100101011101111
11111110010101011010110011100101
11111111100101011001110100000000
11111110101010110010011011100110
11111101011010100100110011110110
11111111000110010001010100101110
00000000011001011101010101011011
11111111001100101101101110111001
11111111011010110101001101001101
11111110111110010100001000101100
11111111011000111010101001010000
00000000101010101001100010110000
00000000101100100111000010101111
00000000110100010100011110111110
11111111000000100111110110111011
11111110100100001111001111010011
00000000000110000010100010111100
11111101101011010000110110101001
11111101000100100011010101101111
11111111000010010011010100111101
00000000010111100000101101110110
11111111110010101101100011101101
11111110101010110101000000101111
11111111000111110111100111011100
00000001100110101101110111111111
00000000001000000100001111010011
00000001010100101010010101100010
11111111110101110000010101001110
00000000110010001001100000111110
11111111110110111110111010101111
11111111011110100110111011010110
11111110101110100001001111110000
11111101111001011011100001000010
00000001100000110101001000010110
00000000110101111110111111010100
00000000101000111001011011010011
11111111010001101110001010110010
00000011010110000010111110100011
00000010110001100010011011011001
00000011011011001101110000001100
11111111101101100000101010111010
00000001001000101011100000110110
11111101010111000110100111010000
11111100111011000111110010010111
11111011100101100011011100100101
11111100000010011000100100110010
11111101001011111110010101111000
11111111011100101001100111010011
11111111001010001100001010010000
00000000001100100000100110100100
11111110111011101010100101101110
00000001001000101111111101110101
00000000110001010000110110001010
11111110111011000100010111111010
00000010001001011101001100110110
00000001000011111001111111100001
00000010001111110110000011101010
00000000000110011010111011101111
11111111110100001010001001010011
11111111001001100111101111101001
00000001000000111010111010100001
00000000100011000101111011110000
11111111011111010100111100000010
11111110100110100101111010001000
11111111001011010000011000000011
00000010010110111110001100110000
00000011111100000010101011111000
00000011000010011110110010110010
00000001000101100011000110100001
00000000001111110001101001001101
11111111010111011011001100110100
11111111000101000011011000000010
11111011111111100000010001001100
11111110101011000111101011010110
11111110011001100000000001001110
11111110010110011000100000000011
11111111010010011010010101011101
00000010011111111110011100011100
11111110011010111010011100110011
11111110100001011000101111110001
00000000100110100110110110101111
11111111110100101111001101100110
11111111111110011010000110101000
00000000011101110001011010101111
11111111110101001101101101001100
11111110110000000010001100110110
11111110110001010010000000011111
11111111101011000000010010101000
11111110001011111001100000110100
11111111100110010111011010111111
11111010111000101011110111111100
00000001001010100010000010010010
00000011110001110101110100111100
00000011111100100010110010111111
00000110101100100101010001010001
00000011100000100101110001101111
00000001111110010101111000010001
11111111011001001111101110011001
00000000001101111100101111001101
11111111100000010011100111101000
11111011110010110010000100011110
11111110001100010010000000011010
11111111111110110111111001111100
11111111111101001111001010101011
11111111010110011110111000111000
11111110100000100011000011010011
00000000100100100001111111100111
11111111000011000100111110000000
11111111101010000000110011001111
00000000000110100101110010100101
00000000000100110110111001101100
00000000110010010001011011111010
00000000101110001001101111000111
11111111001010011111101101001101
11111110000101110110100000100001
00000000110110101010110100101000
11111101011001111010111010000100
11111010000101101100100000001010
11111010100101001001100111110011
00000000001100010010000110100100
00000011101111011000011010000001
00000011110010001000000100100100
00000100101101001111010100010100
00000010110110010001010101011101
00000100101011000100011101000000
00000011010001011011110011001001
11111111100111010100001001001111
11111011111010110001110110001000
11111100101010111111111111101110
11111101010100011101101111100000
00000001010101001001010110111010
11111110110111111001110111101001
00000000110011010001101100010001
11111111010101011011000001111110
00000000010010100111010110110111
11111111001010111110111110100110
11111111100010101111001000010101
11111110111111110111110011011011
00000010010010011000011000001000
11111101001000001001010111010001
00000010000100110000011111010110
00000000001000000000100001000000
11111111111110100111111111100101
11111101010110000110110001000110
11111010011111011111110100100010
11110111000110110100110101110010
11111011001011101010010010111000
11111111100000101001111110011011
00000011100011110110100000110001
00000011101101000000011011100010
00000011111011001001100101011101
00000110001001010110100110111101
00000110001000100111011100101001
00000100000110000010010001111110
00000000111110111101110011110001
11111111111010110001001100101101
11111101011000000111111000111111
11111111011111101011100011001110
11111111011101001010011110011001
11111111111011101100101110000100
11111111111111111000001001111100
11111111010000100001100100010101
00000001101011010011101000001000
11111111010010111110001100110110
11111111011101000000001111001110
00000010000100101100000011101001
00000010010101001110000101101100
11111111101001100010011011111001
11111111101000000001010010110100
11111100101101001011110101011110
11111110010110010000111101111000
11111011010000101010110101011011
11111001111001101010011011000001
11110111111001111010001101110100
11111001110111011011011110110010
11111110110011101110011101110101
00000000111110101011100101101101
00000011010111101001110100010101
00000100011111111110010001110010
00000100010111110110011101010111
00000110000011010101100000000000
00000000110101111011110001011101
11111110110011110110110101011100
11111110001010010010110101101010
11111101111101101100001111101001
11111111010100101001100111101010
11111111000110011110101010100011
00000001010000000101010010010000
00000000001110000001100000100110
11111111100101100000100111010100
00000001000000100110101100010000
11111111011110100010101001010111
11111111110010111001010111100101
11111111110011100000100111101101
00000001100101110001110011010011
11111111111010001111110010110011
11111111010010100011110001101101
00000000101011000100000001110100
11111110110110111000100000110001
11111001010010010001001011101100
11111010101100000010110111101101
11111011000001111100100001011100
11111100111011001110001111111001
11111111001011000101001110101100
11111111100001000111001110000100
00000011100100101111100011111000
00000110100000011101110000111000
00000100110000100101100111011111
00000011110011011110111110011011
00000010000101011111000110101111
11111110110001110110110011001011
11111100111100000111101101001100
11111110110100110001001101010000
11111111101001111101011110001100
11111111100010010101101100011010
11111111110100010101101010101001
11111111100100100010100011010000
00000000001001010101110000111011
00000000001100111000000110001010
11111111100100011110011001000000
00000001010111000100001010010111
00000001100001111011001011011001
00000000100010000110001001100100
00000000010010110101000000111111
00000001100111011001100101000010
00000001111111100001011010110110
11111110010100010000011010111100
11111101001011110101110010000101
11111101001010011101110011110110
11111101001110110010000011111000
00000000001110010111101101000010
00000001011111011110011101110010
00000001100010101110010110111111
00000010111110111001101111111110
00000110110100110010101101010000
00000101001101100101010100101010
00000001110111100001011100101111
00000000111100010101100101000011
11111101100100000001001111101101
11111101110111101011110001001101
11111110110010001110100101011101
11111101001010110000001100000111
11111111011000011101111010110011
11111111011101000111011100101111
11111110110010101011011001010010
11111111110001000100101000000011
00000000010010101100101000000000
11111101100100010001010011110011
00000000000011101000011110011011
00000000001000001111101001110001
00000000001000011010010010000000
00000000000111111100100000000100
00000010011100100010010111111010
00000000010111001010111111110111
11111111001010001100111110001110
11111110010001110100010011001000
11111110101010111000001110011110
00000000110101100100011111000000
00000010011001111011000100100101
00000101010110000001111111100010
00000101110100001100011101010100
00000101010011111000101100001101
00000101110010001111001111010010
00000100010001010101010111000110
11111101011000011110000010101000
00000000010110100110000000001111
11111110011100010001000111111001
11111101110101011011101100100101
11111011111111010110111001100101
11111111111010101011000000010000
11111111100011010111000101010011
11111111101011010110011100011111
11111110101101111110110011000000
11111111010000000110000110011100
11111111100001010001111000100001
11111111010000010010100010011101
00000000011101011010000001010110
11111111111000001101010001101101
11111111000011000010100110000010
11111111101010011110100011011011
00000000111110101001110111000001
11111110110010001111011010010110
11111110000010111100111001011111
00000000001111011011110001101010
11111111100011101100000100111110
00000010001111000100111100101110
00000110010111101011100100101000
00000110000100000011000010100000
00000110110101100010110111001000
00000100100100011111010011100011
00000011010011000011010110001101
00000000001001011111011111001101
11111111011110011100010011001001
11111111001110111100000110110010
11111110001101111000000100111111
11111110011111110001100100111001
11111110100011101100011110000110
11111101111101110000011110000100
00000000010011111101000110111011
11111101111001011100000110001011
00000000001110110011011001100101
11111111010100110100001110101001
00000000101111000010001111011010
11111111010111110010001001101111
00000000111001101101110101100110
11111110100010011011011000000010
11111110011011001000011110010111
11111111010011010000100101011101
11111111100111101000000110010100
11111110001101111011100111010001
11111101111101100100011111000111
11111100010010111101000111110101
11111110110010101111100001111100
11111111101111011111000000000011
00000110011101010010100100100110
00000101001101011101101111000011
00000101001100111111111110110000
00000000111000010010110100011101
11111110111110001000011000011011
11111101010101001100101101111100
11111101001011000111000100101001
11111110010111110010001010000011
11111110010000110010111011011000
11111110001110110111001011001011
11111111100001010011100110001110
00000001111011010001100110110010
11111111011110110111101111001110
11111111100011111101010101000001
00000000011111010000011111010010
11111111101111100101010010001010
11111111000010000011001011101101
11111111100101110101011010101000
11111101100111101001110011001000
00000000111110001110001011101100
11111111110011110100111101101111
11111110010110110000011100111000
11111100011100100010000000000000
11111011011100100101111000011000
11111010101011010011110010010100
11111010011100100101000011111111
11111100010011001000000101001011
11111101100101101010000011100101
00000001010000110111011010110000
00000001001010011001110100111011
11111110111100101010000010100001
11111100101110100010101101000011
11111110010111100010001010100100
11111100100110101111110011111100
11111101100100111011111011011111
11111101100110101001010110111101
11111110111100110101010110101110
11111101101110000001100110111010
00000000001001101101101110001000
00000000011111100111001000001110
11111111011010101001101110100101
00000010000001001110010010011010
00000001001111111101101001110100
00000000000100110001101100001011
11111111001010010100010110001111
11111111100010100001110001111011
00000001011000000011001100110001
00000011000011100001001111001001
11111110101100101110101111010100
11111101011000010001100110010110
11111011010010111100010001100111
11111100100110001100101000100100
11111010001001110000000110110010
11111100100000000101101000001010
11111100000000010101010100101100
11111101010111011110101001110110
11111101100011100001100100011100
11111110011000000101000010101100
11111100111000000000010101000100
11111101100011110100011111101111
11111100111110000101111011001101
11111011100100110101100111101110
00000000001000100100111111001100
11111111011100101110011110011000
11111110010111101101010001001001
11111111111101100011010010000101
11111111001100110101010000111011
00000000110110100010100111110011
11111111011001111110110000110000
11111111000011110001010000010010
00000001010101010110011111100001
11111110111111110101110001001110
11111110111101001110100011011110
11111110110011011100100011101010
00000000010100111011111011010010
11111110101111011100011110000101
11111110101001001100110001001110
11111101000001111110101001101101
11111100101100100011101000001110
11111101110011111010000101100011
11111110011101100000000010101111
11111010111001000000100010100101
11111011111001110011000110111100
11111100001111001000001001011111
11111011101010010001011000100110
11111010111000110110001010110011
11111110100010011011111111111010
11111011010010110000011101001111
00000000011111110000011001100001
11111101110110001010001100110111
00000000101001110010100010110100
11111111001100001110001101101001
11111111101011110110001000010101
00000001111110100111010010010011
11111111110110001011011111000000
00000001101100000000100100111100
11111111100100000101110100010001
00000000101010010110011101010000
00000010001011010111011111110000
11111111111000110110111001111010
11111111010110110101000000001101
11111110110100000100011110011011
11111110010011001001011100000011
00000000111101110111101101010000
00000000010101111101010001111010
11111101101001011010101101100101
11111101101000110101001101010000
11111110100011101100000011101110
11111110010110000101000010001000
11111101011101000111000011001110
11111011100110110110001110101110
11111010100001110000010110000001
11111010110010010101011111010100
11111001110101110011000010111101
11111101000011100011010111010000
11111100001111101101100101110111
11111110000101100000101001100100
11111110101010000010000011111010
11111111111001001010110110000001
00000000110000000001100111101011
11111111001100111111000111111010
11111110000100110001000111110010
00000000101010111100000110100010
00000001001000100100111010111011
00000001110011010010000010010100
00000001000111101010000111101011
11111111110111011110101101011111
11111111100110000111000100011011
00000000001101101111100001101011
11111111100001100000100011111111
00000000111011010000010010110101
11111111010111101110100001110111
00000000000001100000010111000011
11111111001010100001101001110001
11111111011110000001001101011110
11111101100110001100111101010110
11111100110101100100011011100101
11111101100111000001111101111110
11111011001001011011101110000110
11111010000100101000100111110010
11111011100010010100110000110001
11111100100000101011001011010111
11111100110100001010001000000111
11111100100001100001110101101010
11111100010010111010110111101110
00000000100011110011011011010000
00000000001001000001110100001110
00000000010111011101111100001101
11111110101101000011100011111001
00000001011101010100100001000110
00000001001010111000111000011100
00000000001001110001110011110101
11111111111000100011001010011000
11111111110100101101011000111001
11111111011010110000110010011101
00000000010101011101001000110011
11111111111101011011101110111001
00000001001111101100010010000011
11111101111100101110011000001000
11111111111100101010110110000100
11111111101000110001110101111110
11111110000011101011111101001110
00000001010101001101000101111100
00000000101001010101010011011010
11111111100001101111010110100101
11111110001110101110110101100111
11111101100101100010010001110111
11111111100001000010111101001000
11111100011100100011110111111001
11111110010011000100111000000101
11111110010010011101101010110011
00000000100010001000011100010010
00000000000000010111001010001111
00000000011100110101010010100011
00000001110100101011010100000000
00000001000010000000101011000110
00000000111110111100011010100111
00000000110001100100011101110001
00000010000000001011001110111011
11111111100110101010001100010101
00000000110110010001111000101001
11111110111111101100001100100111
11111111011100000110111001101011
00000000000001011001110011010111
00000000001100000100001011011001
11111111000010000011111101010101
00000000001010001001000111100000
11111110100110101000110011000011
00000000111011010011101111110101
11111111100001010111011011011101
00000001101000110110011000110001
00000001011000001101111001011001
00000011011011011100001001101100
00000001000001000000000110000101
00000000100011101110001011001000
00000010000010111001100011111100
00000001000000001110000000110101
00000011101000110111111111101110
00000010010101010111110010100001
00000001001110111010101110001000
11111111101110011011111110001000
11111111010100000011101110001101
11111111001100001100011011010010
00000000111010000111001001001010
11111111110001111100000011111110
00000001000011100010110111001100
11111111010111101111111010100001
11111111111111011010011101001111
11111111111111010011110011010110
11111110110110101000011000100000
11111111110101101010101101111001
00000001111100100101000111010011
11111111111100001110101001000011
11111111110000001101010010101000
11111101111001101100000111000100
00000000001001111010000010010101
11111111100010010011011100110110
00000010011101010101011110001100
11111100111000000000001010101110
00000000111000010001000000111010
00000000001101100110110010100001
00000000100100101011100110010010
00000001100011000100010110011111
00000001111010100010010000101110
00000010011101001110100000101001
00000000111011011001100010100011
00000001110100101000011111000001
11111111100101010001000111101110
11111110111100011000011001001010
00000001000001101100100011110010
00000001101111011001101101110100
11111110111001101110111011110010
11111111111101110000101110010010
11111111011000100111001110110111
00000000001011001101111101001100
00000000011111110010000011001100
00000001100000110011101010100110
00000000001001101101110110000100
00000001000001111010000110011111
11111110111100111101100110101001
11111110100001011010111011001001
11111111011111000100011010011001
00000000001001010001111101100100
11111111101010111110111110000010
00000000111001001100001000100110
00000001011010111010111001010101
11111110000001100000001100101010
00000000011011111010011000111100
11111111111110110111110111111001
00000000110001100111101101011001
11111110001001100001110100101101
00000000101100101110111010011011
11111111001100010011001100111011
00000001010000001110000111101110
11111111001100000110101101000011
00000000101001011111111100000010
00000010011001101001011010101011
11111111110110111101101000100010
11111111110111111110110000011010
11111110001111001010100100011111
00000000000010110010001000010111
11111111000001001111110101001110
11111111101101001100111011010100
11111111110101111010111101101001
11111110111110100111011011100001
11111111000000111001001000110011
00000000110000110110110111000110
