11111110111100011100000001111001
11111111101000001010011000111110
11111111101010110111111011101101
11111111011011010001101011010101
11111111100001101100100100000110
00000001010000100110111011000001
11111111111110010100011000101111
00000001000011001001110011100000
00000001000011111100011000101001
11111111101010100101110000110110
11111110111011111111011000000101
11111110110011001100111001100001
11111111001010011001111110101100
00000000110010101010110010011011
11111110111101001111010110000001
00000000110001000111110000011010
00000000101111111110110100011001
00000000010011111010011101110011
00000000011010001111111111110101
00000000000001011100001010000111
00000001101100111010000001001110
00000000010100111111101000110011
00000000110101110011010000010011
00000010000011110100111100010110
00000000001000010010110001001111
00000000100111010111011101110110
00000000000110101100000111101011
11111111010100001101111110010110
11111111110110000101000110111011
11111111011101010110101101110011
00000000111010111010101100010011
00000000101010001010100111100101
00000000000001100011000001111001
00000001000010011000000111100111
00000000110101111100000000011111
00000001001110111001011101011111
00000001001111010100011001101001
11111111010110110101000110000110
11111101111101010010001110000101
11111111100111011000000100011000
00000000001111100010001011111111
00000000001110001011011000111111
11111110110101000000110100000100
00000000111000110110011010100011
00000000000101111101100110101101
11111101011110010010001101110110
00000000000110001101110100111011
00000000111110100000101000010101
11111111010111000100000111111001
00000000001011001011001001110111
00000000001011101010001001111111
11111110001011011001100010110111
00000001111011000000000100111011
11111111000101111000110101100101
00000000110010001010100010100011
00000000010110011110110000000000
11111111100010001111111001011111
00000000101010010111110000000110
11111111011110111100000111001101
11111110111000111110101011010011
11111111100001111101010000010101
11111111110110011000001010100000
00000000110100110001000101011100
11111110110110011000110111000111
00000000001111100100001111001011
00000000000011011000111100110110
11111111001010011011000000111010
00000001000001011100011100111011
11111110010111101111010010111100
11111111011100101100001100111101
00000000001111111011001111101111
11111111100111100000000011111111
11111111110101110001111111010101
11111101101001111110111100010000
11111111111110001001110111000001
11111110111101001001001101111100
00000000001010111001010010101110
11111111000011111110110101010101
00000000110010001100100010101100
11111111101000011100011101110011
11111110110100000100100000010010
00000000000011101111101110100000
11111110011011010011010111000000
00000000100001001010000100001010
00000000001010101101110101000000
11111110100010100000100110001001
00000000110100011111101001101101
00000000110111100011000101101000
00000000011000010001001110111101
00000000101001001110100100101110
11111111001001100000101000010111
00000001001010011110001010011110
11111110000100000110000011111101
00000000001001010111001011110001
11111111111000111110011010110101
11111111100011101011010000100010
11111111010111011011110111010101
00000010000100000100010101000011
00000000000100010011000010011011
00000000111111111000011111100000
11111111101101010001010000101011
11111111011011000100010001011010
11111110101110100000010100010000
11111110111011010101011101101110
11111110110000100100110111000010
11111111011100000010001100100011
00000000110100000001011001110000
11111110000001110000010010100101
11111100111000111010001101101000
11111111100100000000010110101000
11111111001100000101101001001110
11111110110001011001001101100000
00000011100100011100010101111011
00000000000111001100010000001010
11111111110110001111000010111001
11111111111111001000111011000000
00000001100111011010011000100101
11111111011101011011110100000010
00000000000010110101001001101001
11111110111100111110111011010110
00000010000101110110000011111001
00000010101100100000100111001001
00000001110101001110010010000000
00000101001110001000101111010110
00000100011111000011111100100111
00000011010110111011000010100110
00000011101110111010110100010001
00000001010000001001101000000001
00000000010011101011111101110100
00000001001010001011011100010110
11111101110101001100101111100010
11111110111100110001000110000100
11111111100000101100100001011110
11111111011100110111011001001100
11111111110110110001100001010000
11111110000010010011110110011000
00000000010000010101010000111011
00000000000110010010101011000011
00000000010011010000110100101011
11111110000110100011010110111111
11111111111011001010111010010011
11111110000010111011101001010100
11111111101000011011101011110001
11111111111111000000011110110000
00000000001101011000101101001000
00000000001100001101101101001101
00000001000000110001100010010010
00000000110100110100101101011100
00000011010111001111100000000011
00000101111101011000011100100100
00000011010011100100001111010001
00000011110101011001100111010001
00000110111000011000110010101001
00000100111001110001000010100101
00000001110010100110011101111000
11111111110011010101111100011101
11111111010000111000011110100011
11111111110111111111011100110110
11111101111100011110111100110001
11111110100011101110000011100011
00000000001001001001010100011110
11111110100100101101010000100110
11111110101110010100101001011101
11111110000001110000010001101100
11111101110000010101001100100111
00000000110000000111100110000101
00000000000010001010111011010001
00000000101011111111001010010110
00000000100010010000100101100100
11111110011011010110001000110111
00000000001111111010000010010010
00000000010000101100101101111100
00000000100110010010010010001100
11111110110000000010010101010000
00000010011101010010000000011010
00000001011100111110011100111111
00000001110100101001011011010011
00000010010000101110010010011000
00000011111000100101110101011110
00000010000001001010011011010110
00000010000110101011101100111011
00000011111111111001100110010101
00000001000010100110011000110101
00000000100111110011000011000000
11111101101011111001000000000011
11111100100100011011000000010000
11111110001011101110011001100111
00000000000100001111001111001010
11111101101110101010011011111010
11111011111000001101010101100100
11111111011000010000001011100100
11111110111100010010010010101000
11111111000111100011111110101100
11111110011100111111110100101101
00000000011110010101001001110011
00000001110101011100011100000011
11111110000010010000001010001100
00000000110011001100110100010101
00000000011001001000110001101001
00000000110100100110111001010111
00000000011101011000111001001100
00000001101001110111110101001111
00000011011111001000110000100001
00000010101100010011010111101101
00000000111001000010000100010001
00000010001101011000011000000101
00000010110001100011001101100010
00000001010101100100001000111011
00000001110100000101000101010001
00000000110011001110110111100100
00000000110000001110010011011111
11111111110101001010011010000010
00000000110110001000010100010010
00000000000010110010100110011001
11111111000101111011010001000011
00000000000010001000111110010011
00000000010011010110000101111101
11111111100100010000010000100000
11111101001110100000101000000010
11111011100000110111011101111101
11111110111101010010110000111101
11111111010100101101001100010111
00000000100010001101111000001110
11111111111010100011101110010000
11111101011010110111110111010110
00000000000011110001110010100010
11111110000000110010111010001001
00000000110010011100000010110110
00000010010111011101110000100000
00000001001100101110000001101101
00000010101101001000010000111001
00000000000110111000111100011000
00000000011111000100111010110111
11111100111010100001101111011111
11111111111000111100101111010111
00000000001011110110010100010110
00000000100000111011000100010100
00000010010001010011110010011000
00000100010000000001110110111011
00000010100010000000011010001001
00000101010011110111011010100001
00000011001001111111010001100111
00000011101011011010101111110000
00000001110011001000010100101010
00000000110011101000111101000100
00000000001011001100111110011001
11111101110010100011010110101010
11111101100100011101000011001000
11111110001101001011101011001100
11111111000110100000011001101110
11111111110110000010100101111111
11111110010100100110000011110010
11111111101001011000001011111110
00000001001111000011101010110110
00000001001010000111111111100011
11111110101110010110100001100110
00000001000001101111010000100011
00000010010100100101101101001010
00000000101111000101001010011100
11111110000111011110000010001101
11111111000010101100110111101110
11111100001001000011011100110011
11111111000011101011100100011111
11111110001111011110000001000010
11111111100100010010010001100101
00000000101100101101001110101100
00000101100110010100001111001000
00000111010110010011111010001111
00000111011111101111011110100000
00000110001000001100011101010101
00000101001000111111000010011111
00000010011110000110111011010011
00000001101010010011001111001010
00000000110011100000110010110110
11111110010101010101001000011101
11111101000001011101110100110010
11111101110010100100101000110010
11111110100000101110111100001110
11111111100100010000011000010101
11111110111100011001110001001001
11111111111100101100001000111111
11111111110110001101111000101010
00000000000001010000101110001011
00000001111101111101011000011111
11111111100010000100110000001000
00000010010010011011111111100101
11111111011110001000110111001000
00000000100001011111001111011011
11111011001010110011100001111101
11111100110010001011111100110110
11111011100011110000010001001010
11111010001101001000110001100110
11111100011001010100101101100100
00000000101011010110001011001110
00000101010100110101001000111010
00001010001100001101011110101111
00000111111101000110010101001111
00000110110110111001100110011000
00000011010011101111100100011010
00000001010000111101001110001101
00000000100000000110001001000011
00000000001100010100011001111001
11111101100011010110111010101101
11111110000011111110101001100010
11111110010001010110101100011001
00000000111011110100000110101000
11111110001011010001110010001110
11111111000000001001001011000011
11111111000010110001100000011110
11111110010001101101011101001000
11111111110000111111110010101110
11111111011000110110100101010011
00000001010001110100100110111100
00000001001011011001101000111111
00000000111100111000001101001100
11111011000001011001000010110011
11111011111010011011011011110100
11111100010011000111111010111010
11111000101011000011011011100010
11111001000010111000100101101011
11111001100111010001011011010110
11111111101000100011111011111001
00001000001011110000100011000010
00001001110100010001011100011001
00000110010001010011111011011111
00000100101001000111100100000110
00000001100000111000110111100111
00000000011000101001010011001011
00000000011100101010100001010001
11111110110010001111011100000001
11111110001000001000110001000111
11111101110001010000111101111111
11111110101110001010110000101000
00000000010001000100110011011110
00000001000011011011011001001000
00000001000101001010101001111010
11111110110101001011000000011010
00000001011100101000001110010100
00000000110000011001011001110000
00000000111110001111101000010100
00000000101100100010101111001100
11111110111111010011000000010010
11111110001001010100111001011000
11111011010101101110010011000010
11111001110010111100000010001110
11111010010101010100101111001010
11111000000101011110010110101100
11111000010001010010000000111100
11110111001111000101110101000110
11111111111011101100111000110010
00000110010000101000000011100000
00000101101000000110100011110000
00000011001011010011101000000101
11111111101111111110001101011011
00000010100100110010110010101011
00000010111100001010010110100111
11111110101010111110100101101110
11111110010100011001110101011001
11111100010001000110001001010100
11111101001011001100011101101101
11111110100001110010010000010101
00000000001010000001111111111111
00000000001010111110100001001110
11111111101000100111111010110011
11111111110101100010110100010111
11111111100110101000110101110100
00000001010111001110111011110111
00000000011000000011100111011000
00000000000101111001001100101010
11111111111010000101111101011110
11111100010101100110011111011101
11111000011001101001011100101011
11111100000100100000101010100100
11110111001010011110011010001010
11111000111110000001001010001101
11110110110001010110111100010111
11111001101001011011001110011100
11111111010010110000101110000111
00000100111110111101011011000010
00000010010001010000000000111111
00000000000010101110000101101011
00000001001011110000110100100001
00000010011001110000010000100000
00000000101010000101000111001110
11111111000111111100100101110001
11111110111110010001001011010000
11111100100111100001010111101011
11111100001111111101001010110100
11111110111100011011111101110111
00000000001010101111000101111001
11111110010101101101001001000110
11111111101011011101000010111111
00000000010000011001101101111110
00000000001000011110001100110000
00000010011001111000111010000010
00000001011000011011110100110111
11111111101001010011000110100100
11111100111111110011101010010110
11111010010100100011110101101110
11111010011011111101100000101111
11111010111111001011101110001001
11111010101011011100010111011110
11110111001110011100000000000110
11111000010111000011101110001100
11111000011110010101001100110111
11111111001111101110101011100110
00000000101010001100010110000100
11111101111101000000100011010000
11111110010001010101001111100011
00000001000010001101011111101011
00000011110010111010010001101110
00000100000001001110000000001011
00000000110101101111100000011001
11111111000110100101001000100011
11111100111011111000000110111111
11111101000000001101100000110110
11111110100101110010011100110010
11111111011001101000100100111110
00000000001011100111011111010000
11111111100000011101100001110011
11111111100010011111111000001010
11111111000100101001101010111100
11111111110101101001111100111010
00000001100011110111111010110110
00000000111101110111010001100001
11111100101011011111110110100111
11111011101110101001100001110111
11111010011100111100110100101100
11111010100101011011101110011110
11111100011110101110110100111010
11111001001101110110011111001000
11111000111111110100011001110111
11111010010100111011111110101111
11111110100001001000011110100011
11111110100010010100111000001111
11111110100100100010100110100111
11111101011011001110101100001010
00000000101100000011001111011101
00000100100111010000111100010001
00000010010100010010100111011110
00000000101101011111111111010011
11111111000101110100100111100010
11111101010101100100011110101010
11111101011100010000000001010010
11111111001100001111010000001110
00000000010011110110101101101000
00000010011101110111010111101010
11111111010010011001011110101101
00000000001111010100101001000000
11111110010011110001110110100100
11111110100011011101011001101110
00000000110011110111100101000010
11111111101000001111011110001101
11111100011100010110011111010001
11111010100110000101101101011010
11111001100010001101011111010011
11111010101110010110110100001110
11111011010101011010000110110101
11111010011011011101111000000011
11111001110100001000001100001001
11111100101010110001000101111001
11111111010010110110010111100110
11111111110000111011111110101011
11111111011101110101010011110000
11111101010000110101110000011110
11111110111100010101111101101111
00000010000100011101110111110000
00000000110000100010011010111000
00000000100110010111101011000001
00000001100010101000001100110111
00000000000000011101001000001000
11111111111011110100111001100010
11111111101110101100101111000011
11111110010011111011111100010000
11111110011011001010100110101110
00000000100100100001110101011111
11111111100010111010010011100111
00000000111110111000111000000110
00000001011110100010100101100001
00000001010100010001111111100000
00000000100010010000100001011111
11111101011011000111010010011111
11111100111101000001101010111010
11111100011100010100101001000011
11111100011110111000000101010010
11111011111000011010101010111111
11111011000101101001010100001000
11111010100100100111000111101000
11111101110110101101100110011111
00000001000101011110011100101111
11111111111011011101011001111000
11111110111001001101011011011100
11111111101011110111001110111111
00000001100100110100111111000111
00000000011110010100010011010001
11111110001110000100001001010010
11111101101101001001011100100101
00000001111101101100000001110101
11111011101110111011001011000000
00000000010110010010011111110011
00000001111011110000100111010001
11111111110000010101000011010001
11111111100001101001110000110111
11111111100011000011010111100100
11111111000010010110110111100000
00000000110111010100110011110011
11111111110110001000111100001000
11111111110110100000001101111010
00000010010110101001011010001111
11111111010010001111101110101000
11111101011111111000111100111010
11111101000111100001000101001111
11111011111001011001011110010011
11111100000000100010110101111100
11111011010010001010000110111110
11111011111101110011010010010001
11111111001011001100110011110101
00000000000001100011000011111111
00000000110100111010101111101111
11111111100001010110011111011100
11111101000000000100010110000110
11111111001111011010010100101111
00000010001011101001111111111000
00000010011011000100011100000000
00000001100110110101011001011100
11111111100100101000100011011000
00000000101011000110010111110101
11111111010011010000100111110000
11111110110011101000000110001101
11111111001011101000111101100110
00000010011110111010010101010110
00000001000110111111000010011111
00000010101011110000110001011010
11111111010110111101101100100001
11111111111101111111100000100010
00000010101111101001010100011011
11111111100100101011101000000101
00000000100000101111100011101011
11111101100010000111011110010000
11111101010111101111111100110000
11111111001010110000000001010011
11111100001101110111101000000100
11111100000111101000111010001011
11111100000101001000100000001100
11111100111101111011001000011000
00000011001111110011001000000000
00000001000011001000010001110100
11111111111111101011000111110001
00000000101001010110011000100101
00000000111100010101111101000010
00000010001000011010001010000001
00000000110111011110101000001001
00000000001001011011011110110101
00000001001001101110110001001101
00000001111011011000110101001000
00000000000101101110011110000010
00000000100000001111011011111101
00000000011010110010011100001001
11111111110011100111101000001010
11111111101100010001011000011001
00000001110010111101101110000011
11111111100010001100110010001100
00000000001101011011101010001001
00000010011011111001011100000000
00000010010011110111100111010000
00000001111100110111000100010001
00000010110101111011101110010111
11111111111100000000111101111101
11111110001101001110001100001100
11111110001011110110010111001100
11111101001101000100101010101110
11111110000110001000111110111010
00000000000110110000111110001001
00000000011011100001000100001001
11111111100011111111011011010101
11111101010011100001110110100011
00000000001000110100011010001000
11111111110100011110111111010110
00000000110011000001110011101001
00000000101000110010111011001000
00000001101000110111000111011101
00000001001000111110101011111111
00000001010001111110010001100011
11111111110100000011110011000101
00000000101111011000110000101010
00000010000001011111101000110001
00000001100010110101000101111000
11111111000111001010110001001000
00000001010101101011010010101101
11111111110011111100111101101010
00000001011100101110001100001111
00000000001110001010101110011111
00000001100010101001110001110100
00000011010000111001100101010101
00000001110000101000101100110111
00000000101010011111011001011111
00000010000000011110010110100111
11111111100100010100001000000011
00000001000101001101110100100101
11111111110100111011011100001111
11111101110000001000000111111101
11111111101010000110111010010011
00000001010001000101110111001010
11111110110101100101010101100011
00000000010101001101100010011011
11111110110011000100100101110111
11111110001110110110000100000110
11111111001010011110011000111101
11111111011100010001000010111111
11111111100101001010010100100111
00000001010110001111100011000001
11111110010111010101010100001011
00000001011011000001101110100011
00000000101101010110001111101011
00000000000000011000101111101011
00000001001010011000111011001101
11111111110000111101011001100101
00000001011011001010110111101111
11111110111001111010101001111110
11111111001000000111011111100100
00000001011010011111101010010110
00000011101100011011111010000110
00000001010100010010111011110011
00000011110011000001001101010011
00000011011101110100101000001101
11111111111101001000010101000110
11111111000101000100110101010110
11111111011111110010101001000100
11111110101101110111010101011001
11111100110000111001001110110000
00000001101110101000111011101000
00000001001000001001010011100111
11111110011110001000011011100000
11111111101000101100111010101011
11111111110101000101110001011000
11111110110000101100011010000000
11111110101101011111111100010000
11111111001000010001010101010100
11111111111010110010000110100010
11111111011010111101010011101010
00000000000000100101100000111101
00000000100001101101100111111110
11111111011010010001010011001010
11111110101011001011000000011011
11111111101111111001011011111011
11111110111010011100011111100111
11111111011110101110010011001001
11111110011101001010000010010001
00000001100111000000001010010001
00000001111101000001000001111101
00000010001101000000101001111011
00000010100101001001100000100000
00000010100010110100010001000100
00000010000001001001110011001101
00000000100111010001110011011000
11111111011000011111010101111010
11111111011000001000110000101110
11111111000011100010111100110001
00000000101011011110010011001111
00000000110111100101111010110011
00000000110110011010101011011010
11111110011000110101010001011100
11111111011111110101111100101110
11111111010001010010100110111001
11111111110011110101010110001110
11111110110100101011101011001000
11111111100110001111001100111100
11111101011101011111011111010111
00000000110110001101001001000011
11111111011101001010101010111001
11111111110011000110110101000100
00000000101010011011001001101111
11111111011010000100000100001001
00000001100111100111011100001111
00000000000100100100010011010101
11111111100101010000101001011000
11111111010101001101000101001101
00000010110000001111101010001011
00000010101000101100110010111100
00000010011101101110000011000000
00000001111001010101000011111101
00000001000101111111010001011110
11111111000111011010001001101100
11111111100010110000001110011000
11111111001000110010100000011010
00000000001101111110010111111110
11111111000010100110000111000001
11111111111100001101100011001000
11111111001011011110010001111110
11111111110010110001111101110010
00000000101011010111010011010001
00000001010000101110000001010000
00000001011100110111010010011001
00000000000011001001110100111001
11111110111110101111100100110101
11111111011011011000010110010010
11111110011110110111000101001010
00000000000011110001100000000111
11111111001001011100001101010010
00000000001101101010100000101100
11111111101010010100101110010100
00000011010011010000101011100101
00000001011110100111011000001001
11111111110001000000111100101001
11111111000000001000111101101100
11111111100111100100101101010000
11111110110101100101101100101000
00000011100001111010101100111100
00000010111101111011110000100101
00000001000110111000110100100100
00000100011101011100011101100011
00000100111101111101100001010100
00000010010010001101101111011000
00000010001011110110110101111001
00000100011111110011111110011101
00000010001100010101000101001101
00000010100001111100110100110111
11111111100010100111011001100010
00000011001011011011101001110101
00000001000000000111000001000011
11111111001101111000000010011000
11111101100100000111101000111010
11111111110001001111011001100110
11111111110100100100000111001101
00000000111010001000100010011110
11111111100001110001000010111101
11111111010001001111100110111000
11111110111111000000000110001101
11111100011111011110111101101011
11111111101010110010111010000111
00000000101101100000000001111001
00000000100101001100100000011010
00000001000001110001001011011111
11111111111000101010001110101010
00000000001000100010100001010001
11111111110011000000110010000001
00000001100111100110000011010010
00000001100001011111100110011010
00000000001011110100101001101010
00000000001110011001000110111101
00000010000100010100001000001110
00000000010110101100010000001111
00000010110010100100111011110010
00000001011110110110010010111111
00000001101000011000011100011010
11111111111010111110111000010110
11111111011011100010011111000101
00000000010010100111100010111001
11111110100110110100000000100111
11111110110111001011100100011000
00000001000100011011001011101111
00000001001010111011011111111101
00000001000000111011000010111100
11111111001101111100011101101010
11111110101111001001101000000000
11111111001011110001111001001110
11111111010110011010010111000001
11111110011110000100100101110101
00000001011110110001001000101101
00000001111111001010000011110110
11111110100111011000000011011011
00000000100000011111111111111110
11111111100100100111000011111010
11111111011010101000111100001001
00000000010111111010101101111000
00000010101011000010000100110110
00000001011110111100010101010110
00000001011000100111010111110001
00000000010001110011000010010011
00000001100111111111110100010101
11111111100110011111011011010110
11111111001101101000000010111100
11111111010100110100000111100001
00000000010010011011010010100100
00000001100111000010011000111111
11111111011111011111100001111111
11111111100101011100011000000110
11111110001000011101111111011110
00000000100111010111100010111101
11111110101101110011000000110001
00000000000011110001101110010011
00000000111000000001100010111110
11111111111001001010101100011111
00000000101101011011010011001110
