00000000110001000100000110010000
00000000111011101011000111011011
00000000010011110110011011010110
11111111100101110101111110011101
11111110110100000000101001001001
11111111100110011100110111010011
11111110011000111001101110101101
00000001001111110010011111110010
00000000011001111001011001101111
11111111000000000111100111000100
00000001010110100101100100100001
11111111010011111000010011000010
11111111011001010101001101110011
11111111011110010001010110111000
11111111110000001010100000111000
00000000100111000100111000110001
00000001100011111100001100000110
11111111001111110111000000000101
00000001101100111100000101100001
11111111011110111000110111101011
11111111101101110011100110101101
11111111111100011011010101110010
00000010110000010001100100101110
11111110000010110000110110010101
00000010011110100000001010110011
11111111011101111111101111010100
00000000001101101100000100110001
00000000001010101001010101110110
00000000000001100101011001000100
11111111100001011101100100110100
00000000001101101101000001100101
11111111000001011001111000000100
11111101110010011000110100011101
11111111000000010100011100101111
00000000111110111110100000010000
00000000101000011001101001000011
00000000010111111111001100000000
00000000110101110001001111111101
00000001111000011110000001101001
00000001000001011110101101001001
00000001100001101000011001101011
00000000010111101001101100100100
11111111111010011000000101011001
00000010100000000101001011011100
11111111011110100000111010100011
00000000101111011011111110101100
00000001100010001101011111100110
11111110100111001101010000111001
00000011010111001000111100111110
00000000011101100000001000001001
11111111000101001011111101001000
11111111001000011100011100101000
00000000110111010000110001111010
00000001001001001100011010101011
11111101110011111010111011100101
11111111010100001100101001010111
00000000101011000111001101101010
00000000101111100010101001010100
11111110011010111011010011110011
00000000001111100101100010010100
00000001010111100010010011010001
11111111100111101010111011001100
11111110111001110110100100100110
00000000010010100001011000001001
00000001010000110011011111000000
00000000011100100001011100110101
11111111011011110011101111101110
00000000000110000110001001000101
00000001011011101101000101110101
00000010011110111010010000000110
00000000001010000101001001100100
00000001010111011101001010101110
00000010001000110111011101001110
00000001010010001110101111011001
00000010001001101000010111110110
00000001000010000111010001000010
00000000010000000001010011000111
11111111111001001000001010100101
11111111111100101000011000111101
00000000101000010100111011010100
00000000001111101101101111100001
11111111000101010010011000000011
11111111001100100011001001001001
11111111111111100100001100001110
11111110000011001001001111110101
11111111110011001100000100000101
00000000111001100100110010100100
00000000100101001011001010011101
11111111110110111111010101000101
11111110101111010010000000000011
11111111000100110011001011000001
11111111011010010100111011110000
11111111001110101011100110101011
11111111101001100110111111010011
00000000000111011010101010000000
11111110001101010001100000100001
00000000010110001100010101000110
11111111000000100010000011001100
00000000101000001001001000011100
00000010011011111010101000110110
00000001101111101010100111100100
00000010011110011101111110101000
00000011001101000000111101010101
00000001010010110110101000111000
00000001110000000010010111001010
00000001001010110001000111011101
11111111010111100111101110110001
00000000111111111011101010101011
00000010001011011001110000001011
00000000001101110011110101111111
00000001011011100010001101000001
00000010000101110111100101101110
00000001101100100010110111100111
11111111011100010111100011101110
00000000010001000011111111010001
11111111000001111101110110010101
11111111000001100100011100110100
11111111011110101011010010101011
11111111011101110010101011001100
11111110101000011110111110100111
11111110100001001111001111011011
11111100001110010100110111110011
11111101111110110101011101101111
11111100110000111001111101111100
11111110010101110100111001100101
11111111011111011100110101011110
00000000011101101101011000000010
11111101111000111011100001100011
00000001000011011111100110001111
00000000101100001111011100010100
00000010100101010000001010110010
00000100100111011111000011110011
00000010100001101101111110100111
00000011000011011011000110000100
11111111100010101001010010001011
00000000110101110111001111000100
11111111010100001011100011111000
00000000100001101101101001110111
11111110010110110001110001000101
11111111011011000100001011000101
00000000000111100000001111001001
00000001011011100001100011000110
00000000000000010111110010001101
00000000110011010010110000000011
00000000110111010110001110110101
11111110101000101000011001011000
00000001100000101001010010011100
00000000101100001101000001111010
11111110010011000110010001011101
11111110101000000001100010000101
11111101000010010101010110100100
11111100110101101100101100110010
11111101100010101111001000111111
11111101010011111110000011011011
11111101110001100111001111111001
11111100110000000001111001010100
00000010000110111100011110010110
00000001010101011010111011100100
00000010101011111000010100010100
00000010001100001110010110100100
00000001011000110011111011000101
00000010100000001101011111001110
11111111111111100100101110011100
00000001001101011110010000011111
00000001011101110100110010010011
11111111100110001101010110100010
00000001100111001101001000001011
00000000011110000011010111111001
00000000011001010100010001001100
00000001101100101110101110011001
11111111011010001001001110011000
11111110110110100000010000111110
11111111101100101101100010101111
11111111110101101010111001011111
00000001000111110111001010000100
11111101100101110001001011001111
11111110101010111101001011110000
11111101001001101100101100100010
11111100001001111011110111000000
11111011100110100000101000010001
11111001011111010110101101000000
11111010110001101010110111100110
11111011100111110101000111001000
11111100011110001011001101111110
11111100111011110110010011110100
11111101000010000110101011011110
11111100110011110100100000111010
11111101110101101010001111001110
11111111010111101010010001111001
00000000010010100011100101010101
11111110111000001101110100100101
00000001010110101101101111011010
11111101100111110111100000010010
00000000100010100111010111010000
00000000001111101101001001111100
11111111110000111001100101101001
11111111101011010101000000100010
00000001100100110100000010101001
00000000110100100000100000001100
00000001000100101000100100001101
11111101100100011011000100101100
11111100110000101101111111001011
11111101100100010001000101001000
11111101110001111110000100011011
11111011111111011001000000010001
11111011010101111101101110110100
11111011010111001001010011101100
11111011100001111110010100001100
11111010001110111101100110001010
11111001001101101001010001000100
11111001001100000010110001111110
11111001001000110100010011001110
11110111000000001000000100110101
11111000110110110010001011001110
11111100010110101111101100000000
11111100110001010001010010001011
11111010011111011100010100101010
11111100110101010001000110001011
11111101101000001100101111000010
11111100011111000010011110101101
11111100110100011011001010101010
00000000010101100101101110110001
11111111111111010101010011110000
11111111100110111010000111000101
11111110100110010000011001000001
00000000001001101111111000110110
00000000011100110001101100100101
11111111100101111010000101000011
11111110010001101010011001000101
11111100101111010111101110000000
11111101000100111111110000001100
11111101010110100011111000100011
11111101111001001111101011001100
11111110000000000110001111110111
11111100110101001111001011111010
11111001110101101100000000010111
11111010101101010111011100001011
11111001111110110000011110110110
11111001110111000001111001110111
11110111011010110110011100101111
11111000001001001001110101100010
11111001101110011011100111000000
11110111111110001011111111000001
11111001001010001011001010001000
11111011111100010111100010101001
11111100011110011101010110100110
11111011011010011111111101100001
11111100011011110110010101111001
11111011101010100111100001101100
11111111111011111110011010111010
11111110110011101100010100111011
11111111001001011010010011001001
11111111111000001000010100000111
11111110111001100110000011110011
00000000010100101101111010101101
11111101111101000100001100101010
11111110001100000111000001001000
11111110101110000000110000010111
11111101011100010011111011110101
11111100101110110010100100111100
11111101000110001100010001011010
11111101101001101000011110001110
11111110101000011100001100100100
11111100000111100100100111000010
11111011001011111011011010011100
11111011101100010010110001011110
11111100011010011000101000011101
11111011100100000101100010100011
11111001110110000100001110111011
11111010101010100010000101000001
11111001101100100101000110010011
11111001011011010001011001111110
11111011010001001100101011000101
11111001100011101100000000100111
11111011110110001011110011110010
11111011111101110111111001111011
11111011010001100000100111000100
11111110000111001110000010010000
11111110101001001000100100011000
11111111000001111100110000011011
00000001111110110010101010111100
00000000000100111100010110000110
00000000001011101011100111001000
11111110000101011110111100110000
11111111110101100000100000000100
11111101101001100001101101100011
11111111001001100000100010000110
11111110010011111110100101001001
11111110011110000001110111011011
11111110010101101100111100011110
11111101111011110101101101100000
11111100101111011001000010000101
11111100110001111101010110011100
11111011001110101101110111011111
11111110011110001010000111000101
11111010110011100000110110111001
11111100000101010010010110011110
11111100010101100100000101110011
11111100010010101110100100001001
11111010001000110111100010110011
11111001111111100111010001001010
11111100001011100100011111000101
11111100011110001110001010101011
11111011100100010101100010011000
11111101001111110110000000010010
11111110100011100101110101101101
00000001000001011100011000110100
11111111111001010000001100101111
11111111010001011010011101011110
00000000101101011100100101110000
11111111110101111100100001111011
00000000110100101110110000101001
00000000011100010100101111010100
11111111110110011110010111110011
00000010001000010001010011111100
00000010000101110110011111000000
11111111010000011101101101101001
00000000100011001001000001000000
00000000011011101000110111110001
11111110110011011100100101111111
11111111000101010000010000000101
11111110101000001110100111101010
00000000110000000110100111110001
11111110100101110100010101011000
11111101101000110001110101011000
11111100101010010000010011011110
11111110111011000100010100110011
11111111011001111100111111110101
11111101000000011010111011110000
11111110011110101110100111011111
11111100100000111110111011111000
11111101111101111101010001010011
11111101110000001101011111110101
11111110110010000111000100001101
11111101101100101011000101110110
00000000001010011000000011111000
00000000011011001110001100010010
00000000010000111110110010101100
11111110001010001100001001011011
00000000110001101011101001001111
00000000110101001010001011010110
00000000111110000110101000100111
00000000101110111110100110100111
00000010101111110111101111100101
00000001101110110101000000010111
00000011100101101110110011101111
00000000110101000111110101101000
00000000000100011010011010100001
11111101100111110100001011011100
00000001000110000110001100111010
00000011101010100000100100011101
00000010011011100111100101101010
11111110011001110001111111000111
00000010010010011011000010011110
11111110111010111000101011111011
00000001000100111010000110011010
11111111000001101001011001010001
00000001100101000100110101110011
11111101111111000011011100111111
00000000000110001101100111100001
00000000111100111110101011001111
00000000101111010001100001101100
11111100110110110111011110010010
11111110110000110111111110111011
00000001011110101100101110101000
11111110001100011101001110100110
00000000001111010010101100000001
11111111100011001111101011101101
11111111001101000100000010000010
00000000001101100101110100010011
00000010100100110000011111100010
00000011001100101000011110010000
00000100100010001010011101001010
00000001100110011010001100000011
00000101110101110111101011100010
00000011011011010101111001001001
00000000100010011101000011001001
00000011110011010101011101110100
00000110011111110001001100111111
00000100111001011101011000110010
00000000101000011101011111000101
00000010111001011010100000011111
00000010001001001101011101100000
00000001101110110010100110101110
11111111011111011101001111001001
00000001100000110010100100100101
00000010000001110011100111010110
11111111100011111110101000000010
11111101001010101100010011010010
00000010001111100111101000001010
00000010010111100111100110100011
00000000011001010000010011011010
00000000110000001111000011001000
11111111101101010101001110110111
11111111101100110110001110100011
00000000111101100001111000110011
00000000111000111011011110010001
00000010111010101010000101101101
00000100000111110101010100110111
00000101101011101011100110010000
00000100101101101100000101110100
00000010101111010011001111010000
00000100101110110100011000101110
00000101010111000010100000110100
00000010101001101001000101001000
00000100111011110100000001101101
00000110010011000100010010100000
00000101010110101100101101001100
00000001100011010001101100001001
00000001000001110110010110011000
00000001001000001000010001101101
11111111110001011010101110110001
11111111010100010001110000111100
00000000100011100100111101000100
00000000111100001001010001011110
11111110101000001110111010101011
00000000110001111100001010010100
00000000001000100111100000100100
11111110101010110111001110100011
11111111101101000100110010000110
11111110001000000000000010110100
00000000100111110001010010110101
00000000110011011101101110111110
11111101011011000110111101010110
00000000110001110101001100100001
00000000100010001000011100010100
00000001101010011111011010010010
00000010011101011111111111101101
00000011000000000100011000000101
00000110000000110011001011111110
00000001000100110100000101001001
00000001110000011100010110010111
00000000111001111100100000000110
00000110000000011001100111101010
00000110010011111100010011011100
00000101111000001000011111111010
00000001011011111100000101001110
00000001100000011011110100110111
00000000010110001100100110111001
11111111000000100000000001110100
11111111000111010001010011011001
00000000010111001111011001110010
00000000001101110010110011001110
00000000110011001101011101000100
11111101101110010001011101101100
11111111001100110000100000111001
00000001000111000000001110101000
00000001001010010010000101101010
11111111010011110111101011100011
11111111110110101111000010000001
00000000001010010011101000011101
11111111111000000100111110110011
00000001011110010000111110100110
11111111111001011001111111110011
00000010000000111001101011001011
00000011010000100111000111100100
00000100011001110010010101011100
00000001111110001010011101100011
00000010111001110100000001000001
00000001101111100001111001001010
00000100010111100001100000110110
00000101111000100110101101011101
00000110101001111111010001110001
00000100110010001010000100011011
00000000110001100101010101100101
11111110011000011110000101010001
11111110110100001110100101000001
11111101100011001000010110011101
11111110110011101100101100101100
00000000001011001001100000100011
00000000001101010110001100011000
00000000000111010001111010011111
00000000011011011000100100100101
00000001001111101101011010000100
00000001001101100000001100101101
00000001010111011010001011110010
00000000100100101110011111110100
00000001010111111110101001011011
00000001111110010000111011111000
00000000000001111110100011101001
11111110111000010011111111100110
11111111100101100101000100111001
11111110000100111101010110000100
00000001110001110100001111001111
00000010101100101001100011000001
00000011000111101001111010110100
00000110101100100111010001101000
00000011101000100101110011011010
00000100111010101100001010100111
00000110101010011100011100011000
00000111110100111001011001111101
00000011011110110110011010000010
11111111000001110111010000011101
11111111011110110110101101111000
11111110000011001111000001001100
11111110011100100010110110100011
11111101010111010110001110110111
11111110101011011110100001001110
11111101000111100000000110011011
11111111011111010111111011111111
00000000111100011000101001101001
11111111101100010011110001011010
00000000010101000110110110000010
00000001101001110101000010100001
00000000100100001111001101011010
00000000010101111100101010101101
00000000010101011000010111010110
11111111101000101101101111100011
11111110100101000001110000100100
11111111101010000100100011010010
11111100110000001110010000101001
11111101000111111010100101011011
00000000100111100101100110000011
00000010110110100110011000000001
00000101110011000011010111011011
00000110001011010000011101110000
00000011001111011110011000110111
00000101100100111010110000101000
00000110111001100000100111000110
00000010110101100111111001101000
11111111000000001011110010000101
11111110101111011010010101110100
11111111110111001000100011101000
11111110000001001010100010100111
11111111111101001011001010101101
00000000001111111010011010100110
11111110011110000100111010111010
11111110101111001111110101011000
11111110100111111110001001000001
00000001101001010101100001110101
00000000010001110101101010000110
11111111100111001100000001010011
00000000000111011001001000011110
00000000110010001011001100101010
00000000000110101101000100100011
00000000011100111011011110111110
11111110110000111000011101000010
11111100111110001011100011101011
11111001110000110000101100100000
11111100010001011111110110111110
11111110111110111010111011101110
00000001001100001101111100001100
00000001010010000100101011011110
00000100010111000100010000001011
00000011010101110010000010001010
00000001101101101101111100010101
00000011010101111001011010101001
00000011111011001100101100000100
11111111111001111010101000000110
11111111000001010000011010000010
00000000101011000001111001000101
00000000101000001111011000100001
11111111010010101110000111110100
11111110100011010001000110010110
11111111001100001100011100110000
00000000101010100111010001101011
11111110011101111011010000010110
00000001100100011110010100011010
00000000011010110011100000001010
11111101100101110101010000110001
11111111011111100001100101010100
11111111100111100011010100001010
00000000101000010010011100101101
00000000000010010101011001101001
11111110100010101000010000000100
11111011101101110001101110010000
11111010010100001110011110110111
11111001100100000101001110110111
11111101000011011101011011000000
11111101011100000111111100010000
11111110001110111100100011100000
00000010100011100100011111110110
00000001100001100111110100111000
00000011100110101010011011101110
00000010000001101101010111001100
00000001011100011101111100011110
00000100010010101111111110110000
00000001010111001111111001010000
00000000000100100111001000011101
11111101100001100010101010100111
11111111111101011110011000110011
00000000101001100110011110001111
00000000001110010011001010111000
00000000110101010101100100011100
11111111101101100111011010011011
11111111101110100110010101010010
11111111000110100111010110000100
11111111111001000000100011110101
00000000011110101101111001010010
11111111010001000011010111101110
00000000110011011011111101011111
11111111101111011010111111110100
11111101100101000111010110110101
11111111001011000001010110111111
11111001101111111111000000101010
11111001111110111000000000111101
11111010111110101011011101110101
11111100011010110100011010100100
11111110001101011011010011011110
11111111001101111110110001010100
00000000111001010000001100011101
00000000100010110110000001011000
00000001100001110111001011001010
00000001011100000000111101011101
00000000000011001111100001001111
11111111011001011111000100110010
00000000001010001011001110000011
11111111000101101001110000100001
11111111100011010010011110000111
11111110001010110111000000100001
11111110111110010101000000010011
00000000010011000111110110011010
00000001011101011101100010011101
00000000010100011010000000101100
11111110110101000111011011100001
00000001011001011101000101000001
00000000101101110101001011110101
11111100110010000111010101110101
00000001100010001010110100110010
11111111111100100100000101011110
11111111101011000101001010000001
11111110000110101100010010110110
11111011111110000011111001101101
11111011101100100010010000000110
11111101011100011010001000110010
11111010011111000001110001001111
11111010111000010110010010110000
11111010000001011111101101111000
11111011001001111101111111100010
11111011101011000110101110100011
11111100011100001110010110100111
11111100101110001110110111111110
11111111000101011011000001001100
11111100111010011111111101100001
11111111100010011100011000010001
00000001011111000100110011001001
11111110011001001000001000011001
00000000101110011000001101001111
00000001100100010001011101011101
11111111110000011111110001011010
00000001001011101010101001000001
11111111100011000111101000111010
11111111010001011101100011010111
11111111001000101100100100101100
00000000101111011010010001110000
11111111110000110110010010110110
00000000010010111100010101001111
11111111110000011010001011110111
11111110100111011010100101001110
11111111011101110000010101111100
11111110110110001101110110101111
11111111000000000000001001001110
11111011001001100000100110111001
11111000011001101001011110110110
11111000011000001010110101111001
11111001001100001011100101110100
11111010111000000000011111111001
11111001111010111110001010000100
11111010000101011110000000110011
11111010010100111000110110101111
11111011101001100001111000001100
11111111100101011001101111110010
11111111010101111100111001111100
11111110111100110110000101000010
00000010100100001101101000100100
11111110110110110000010101101100
00000001000010101010011001001011
11111111100000010011110101111000
00000001010111111111000100010111
11111110111111110111010000001011
00000001010101011001100011101110
11111111111100101101101000111000
00000000101101000101001001101011
11111111000000000000110110010101
11111110100101110011011101111000
00000000000000111011000101000000
00000000000011010001100001110100
11111111111111010001001001010101
11111111100100010000001000100100
11111100001111100010000001100001
11111011010001100001011111100101
11111101111101001101010000101100
11111010101101011101011110111010
11111001111010010111010000111100
11111100010001001011101010011011
11111010011010001101000000101010
11111100101000111011011000001001
11111101010101010001010010001011
11111110100100001010101100001010
11111101010010011111100101001101
11111111111101110010111001000001
00000001001011010000111001111110
00000001001011110010010010101100
11111111001010001111101110110101
00000001000110101100101010001101
11111111111010010111001000010000
11111110111001010011000101010100
00000000010110010011001000100101
11111111011001000010011100100100
11111111110110101110111111011111
00000000010011001011001111111101
11111110101111010111011011000101
00000001110001011101110011110110
11111101000001011011111101000001
00000001111101101001000001000110
00000000010110001100100000111110
11111110110010001110011010110110
11111101011101010001110101001100
11111101001001110011011001101100
11111101011010001110010010111111
11111011110010000101010001111101
11111101111101111000001100011111
11111100100010001111000000001101
11111101111010101100000111011110
11111100100000011011101101000111
11111100100100001010110001111110
11111111000101011001000011101001
11111110111100110010111101001001
11111111011101111001000000111110
00000010000010110001101100010010
00000001001101001100011111111111
00000000000001001110110010011100
00000000100011001110011110001010
00000000110101000000001001010011
00000000011010011100010111000011
11111110110001010111011000110100
11111111101110010110101100110110
00000001000100001100001101100010
00000000000101001010100001101010
11111111110000011000100001011000
00000000001111000001100111100111
11111111011011100101000110100100
00000000111110001111000100010010
11111101000011011110001000000100
00000000011111111111111111010101
00000000111100110011111011010001
11111111100100010110010111000011
11111111000000010110101001000000
11111111011000000111001100001111
11111101110011110000010111111011
11111110001110101110011111010110
11111111011110111100000101010000
11111111111110110110101111110011
11111110111111100100000111110111
11111110110001010000100001110100
11111101101101111001100011000101
11111111011111000101101010000011
00000000111010000100100111001000
11111111110101101110010001000101
00000011000001111001010111000100
00000001001011101100000010000110
11111111101000110001010010101110
11111110001010011010100010110110
11111110101111011101000101111000
11111110000001000000001001100000
11111111011011100101100101001010
00000000110110111010110001000000
11111101011010100000010100011101
00000001110000011101111001001100
00000000101101011110011011100110
00000011010100000011111000111001
11111110110011010111101000000011
00000000000011010100000001111101
11111110000110100010001010010001
11111101111110100011110100110010
00000001001101100001000110011101
11111110100010010111110110101110
00000001010000100010001100011000
11111111110011100111101111001001
00000000000100110111000110000000
11111111110100011101100101111001
11111111100100001111111101001000
00000001100110100110000000000110
00000000101001110100110001111100
11111111111111110101101110111100
11111110111110010101001111000001
00000000010101010100011001101010
11111111100010000101001011001100
00000000011011111101101001111001
00000000110011010011000000011111
00000000011100111100101111000010
00000000011111111111101101000101
11111111111111110110111100011100
00000000001011111001001010100101
