00000101100001011110101001011010
11110101111000111010001011111101
11111100111111111100011000010110
00010110100010000001011110011110
00010011111000011100101111101110
11111010110110010100110100111111
00001000010100011010100000111111
00000110001001000010011001001000
11111111100101001111111000111111
11101100000001101001100101011011
00001111000111001110110000011100
11111101110010110111011010100001
11111011011010011000000000010100
11111100101111101000111111100101
00001111110000011100100100100101
11111010001111001010100111111100
00000110000101000010110110100111
11111001011011110010000000001000
11101100000010110011110111101111
00001011001101011010011111111000
11111000011111001011010110001001
11110010000001101000101101110110
11110000011010000011001011001011
00000000101111000001001111011011
00001000111010111110101001101101
11110110011101100010001111100111
11111010101110100010000011000001
00000010000100011110101001010111
11111111000101010101110000111110
00001010101001000101101101011100
