11111101011110010111001001100011
11100110100000101011110110110001
11010110111101110011011011000110
11100100110011101011001101111101
11111001001100001001101011100010
11111011010100111101011000011100
00000001101000110010110001101110
11010011101100001011011011010101
00010111110111011111010010100000
11010110001111101011001100010011
11011110011011111010010011101000
00001001101001011010111001101111
00110010001011100010111000101010
00111001100011010100010000101000
00010010000010100101110001010010
11110101110000010101100010110001
00100010000110100111100111011010
11110001100010010010000111011110
11010011111101110101101001101100
11111000110100110001100011101010
