00000011110110110001101001111000
11111011001101101010001100011111
00001011001101111011110010101010
00000011110011110101100001000000
11111100111110101010011011101111
11101000001011110111100100011010
11111000111011100111110111100000
11011101111111011000010111100101
00011101001111110011011011011011
00001110111100110000000101011100
11111110100000000100100101111111
11100110011010110010011101101000
00100001101010110010010001111111
00011000010101001010010011001101
00001011111011100000110010111100
00001110001011001110000000101001
00000101011100101110010111001111
00011000100000010010101110110010
11101010011010111101101000110111
00000000001000011010011111111110
00000011101010011110001010001000
11111110101001111011110010110111
00000011001001110010110100100100
11101000101101011111001101001000
11100000001000001110010101001010
00010011111100001101010111100001
00000111100001000011011111001000
11101000111100010100110111001000
00011011101101110011100010111101
00001001100101100101111010000101
