11110110100111001100110100001111
00000101011110010100000011110110
00001011111110010110101110001101
00000001000010000011101000111111
00000000011101101100110000111111
00001011000111100111101010000010
11110001111100111101011001111100
00000001110011101100000011110001
11111011001010110001000101000000
00000110001011000100011100100100
11111010100110011101101101001001
11111111010100111001010110000010
00000011001010010001110100111001
00000100011111100111000111001110
11110101010111000101100110100100
11111111011100111010010110110101
00000101010111010101000111110100
00000000111100110111011011000101
00001111110110000000100110111010
00000110101010000011111010110001
00001101111001000011101000011011
11111111011011110110000000001110
00001011000000001111010001000101
11111101010101110001111101010000
11111000100011110000100011111001
11111000010101000001110110011111
11110111110100101011011000000101
11111011111101111010111011101111
11111110001111110010001001101111
11111110000001101010011000111101
