11111100111111010010000000000001
00000101101101000001110101110101
11011011001011110111110101011001
11111101101001010101001110010101
11111111111010110011001101111101
11101111001011011011101100000010
00000010111011100011001001010110
11111101000111001010000010000011
11110101011011111101011100010010
00001110011000000111101011100111
00001000110000000010000100011101
11111101100101011000110011011010
11110110010100111011011110111110
00001010011001011100010100001100
00000110110100100001110001001101
00001011100011100100000010111101
11101011010011110111101100111011
00001100110010101010101101001011
11101011011100011100000011110100
11111111101000100000000001101110
00010101001000111111000000010000
00010001011000100001111001000001
00011100011000011010001110101010
00000101010110001111100011110010
00000010011110101001110010101000
00000101100111101111110001000010
11111110100101010011000010110110
11111111011111001001111010010100
00100111111110011100110010101001
00000010011010010011100110011111
