00011101010111110001000100011100
11010111011111001110001100111110
00010000010010000110110001111011
10111100000010010000101101101111
00001001101001111111001000101101
11111110100100110110010101001110
10100011101000000100110100001111
00000011110001111011001110000011
11110010110100101010010010011101
11101011101111001111111110011110
11100011110110001111101010100101
11110010000101110100101011011011
11001111110111111101110011000000
00011110001000011010010011101111
00110011110011111011011001000001
11110010100110001100101101100100
11101111001011101011100100011100
00001001000010011111011010100101
00000111001001111101101111101011
11110110111100111111111101011100
