00000000110110110011111010011010
11111110111111110101101110100001
11111111101001000000011100001001
11111111100010011111110101110110
00000001110101100000101011000101
11111110100000011001011010111101
11111111111111111100000000010101
11111111100101111000011100111101
11111111100110101100010111100011
11111111000011110110101010101101
11111111010100000000111010101011
00000000001001000110010010010011
11111110110000100011000011111110
11111110101011001101010100010001
11111111000100110010101111010011
00000000101011100110100110110111
11111111110111011101101000100011
00000010011101000001111111011111
00000010111101011101011101011101
11111111110110010011110000100100
11111111110110110001010001100001
11111110101100100101011111101101
11111111001000101010111001010011
00000001000001001010111010000001
00000000010111011011100010001111
11111111010111101011000101000001
00000000010101101101011110010010
00000000011010100101110100011001
11111110111110001100010101000000
11111111101100110110011101001011
11111111101000001010010000001100
00000000011111111001101001011000
11111101110001001000100101101111
00000000111010000111010111101000
00000000011000011111000000001000
11111111110101011100000110001011
00000000011001001010100010001010
11111111100000111011000111100010
00000000000110111001101110101010
11111110111011101110011111101101
11111111100111101100100011100101
00000000011100001100010001110011
11111111111001000110100011111011
00000001101001000101100111000000
11111111110001110111000111100000
11111111011111111001111011000011
11111110110111001001111100111100
00000001001010100111110110101111
11111111001100100101100101011111
00000000001010101111010110111010
11111111110110000001010010101100
00000000101010110011101101011111
11111111101100000100000001011010
00000001010100010001011111001011
00000000011111011000001010110010
00000000000111110011011001101010
00000001000101101111101110111000
00000000000101010101000001111110
00000000000000001011011101110011
11111111111010101110111010111101
11111111010101110000110001001010
11111111011100011011001001100011
00000000001110000101110100111101
11111111101000000110100011011001
11111111011101111000000000000101
00000001110011110010000001001000
00000000110011100111000110001000
11111110100011100000001101001001
11111111101101011010010110100100
00000001011001010001001101001000
00000001010101001110111101110010
11111111000001101011000001101000
00000001000100001000001101011010
00000001001110111001000101111011
00000000101000011011001110101011
11111111110011011100110011001101
11111111100010010111111101100101
00000001100001001100001100001001
11111111110101000110100111111010
00000000010011100011101110100101
11111111101001111110110011001000
00000000011101011111110001111110
11111111001010100011010000100101
11111111011010001011100010101110
00000000001110111001100101001011
00000000111010111111101100111101
00000001001001111000011010111100
00000000001010001000010101101010
11111111111101010110000100000010
00000001010111101001110110011010
11111111101000110000100001111001
11111111000111011110101010001001
00000000001011010100111000010010
00000000011111000000110011011101
00000001100011110101100011000001
00000001000010100001001101011010
00000000110111100000011001110011
00000010001001010001100101101000
00000100001100100111001001001001
00000100000100111000110001101101
00000010011111000110011010010100
00000010011000010011100111110010
00000010011100000010101100111100
00000001111100110011011011111100
11111111101010111001001001101011
11111111010110111111000001011011
11111111000110001110100100111010
00000000100001001010110101011000
00000001010101001010111011010010
00000000000000111000100111110110
00000000001111011000001110010000
00000000101101001111001010001110
00000001100000101101011111110011
11111110101100111111111001100110
00000010000100011011100000000111
00000001011000111101010011101111
00000000101001011001100111111001
00000001100111110101011011110110
00000000101101111111101111101000
11111110111111000010110001011101
00000000100011001000000111110011
00000010110101111100000001011101
00000010100010000110011110010101
00000100100111001001001100110111
00000010010111111110100111101000
00000011101011110110101100001001
00000010001100000001110101001100
00000010111110010111100101011101
00000010101101101111101011001111
00000001110101011011111101111001
00000000010110001100001010111101
00000000111101011011110001100001
00000010011001000001100001110011
00000000100100100011111000000100
11111111000011111001101100100011
11111111001001101001100100001011
00000000100110111100011011000100
00000001000011100100010100111000
11111110001001000111100111111010
11111110111011101001110010010111
00000001000101100010010100100011
00000000000001010011111111011111
00000001101000110100110011010010
11111110101001101010101010011011
00000000011101010000001100011100
00000001010011100101110001101010
00000001100110011110101100001001
00000000111011100011110010101110
00000001011110010110101110110101
00000011101111010111100111001001
00000011110110111010100111011010
00000110110011011011011001101100
00000100101101101010011000001100
00000011010000111110011010000110
00000010100010010010010011100000
00000001011011101111010100000001
00000010110010001101011110000111
00000001010100100101001100001101
00000001110010001101100001110001
00000010110000111111110111111011
00000010010001011000010010111100
00000001100100011111100001000001
11111101111101001001001100101101
00000010010111000011011011010100
11111110000011001101101110111010
00000000111101011110110010111111
11111111011111110000000101110011
11111111100000000011010011001011
00000001000101001110000011100101
11111110011010011011011111110100
00000000011010000110111000100001
00000000100010100001110010001110
00000000010110111001100001010001
00000000001111000101011111010100
11111111100100100001101100010011
00000001101010111110000110110100
00000011010111010111110101111001
00000011100110111000001001101101
00000001110010111010011101100000
00000010010111000111111011011100
00000010001001100110000111011001
00000010101010011000111000100011
11111110101111000110101001010010
00000000010010110011000010100011
11111111111000001111000101001010
00000001111010101001010111111010
00000011111100101110111101101111
11111111111110100010010110111101
00000010110110001001000010011111
00000010111011000101011001101011
00000001000100110101000111111011
11111111010110001100110111110111
00000001000010101001101101111101
00000001001101111001101111011101
00000000110100000101010010001011
00000000111001111101001011100000
11111111011010010110011101110011
11111111101011000100000100111111
11111111010000101001001011100111
11111111011010001101000101011100
11111110111111001101011000101011
00000001000111011101100010100111
00000010010000111000110111101010
00000011000111100111101111000101
00000000111111011111001010100111
00000000010101100011111000000011
00000001001010100000100001110011
00000000000010001011001100001010
11111100111011111010001101001111
11111011011111110111001101111101
11111110100100101110001100110011
11111101010010000101101010100010
11111100000011111001000010101010
11111110011001000010011000001010
11111111000100100001001000100001
00000001001101100110110111000101
00000000011011111010001101110111
00000000100110011001100000011011
00000000010011010110101000010100
00000000110100011101001010111101
11111111111100100011100011010010
00000001001111010110111001011000
11111111100010010110001111111011
11111111100011101111000010110111
11111111001001101100111011001100
00000000111011100110101111011100
00000001110110110101111000010011
11111111110010000011011101010010
11111110000101110101001001000010
11111110110101011010010111110111
11111111100100111111000111000000
00000001001100000101111001000110
11111111010001000100001101010010
11111100101110100001111011101000
11111110011011100000101011001010
11111100110101100001000000111001
11111011111001001001000101100001
11111010100100000011001001000010
11111011111001111110010100001101
11111111001011110000010000010010
11111110100100110101110100111000
11111111001000100001111000001011
11111110100000010101001101011100
11111111011011011000010110011110
11111110111111000011011100101011
11111111101001111110001001011010
00000001001001010010010001110100
00000010001110110110101000001000
11111110001000001111110000010111
11111111110111111101100111011010
00000000000010100100010001010100
00000010001000001101100111001110
00000000111010110011010100011111
00000000101000111100110100000101
00000000101011011011010100001001
00000000100010101001111001111001
11111110110101011011011001010101
11111101000001100000011010111100
11111100000010111110101000001110
11111110110010011011100011010111
11111110011110100111101011111001
11111100000110111010101000111101
11111011010110010011000011111001
11111100100000011010010110001101
11111110111101011011011110000100
11111110010100011000111000000100
11111101011011010001010100111011
11111111011101101010011111111000
11111011111001110110000101001100
11111101101110100011011000111000
11111110111100101110011001100000
11111110100001001011101110110110
11111110000100100100100100111100
11111110100010110100100100011010
11111110111101100011101010000011
11111110011000101001101011100100
00000001000001111110011100101000
00000000000000111000111010101001
00000000101001010000110111010101
11111110001010101000100011100101
11111111111110101000000111111011
00000000010010111001011001010111
11111110110011111100111100010110
11111101111011110110011110011011
11111110100010111011001001111000
11111111001011100111100111100101
11111110111011101001111101101011
11111101000111011101011101101000
11111010101010011100101001110001
11111100011110110011001000110011
11111010100110101001111100100110
11111010110011110100001010011000
11111101110111000111001011011111
11111111111100101010101100100010
11111100101000011010101100110111
11111101110001011000010000001010
11111101010100000001010100101011
11111110110010111100000111100101
11111101000000011110111110000110
11111100011111110110101101101111
11111011110111010100001011011110
11111101101011101100011101111111
11111100100101100001011010101011
00000000000010011101000110010011
11111111000110000000001001100010
11111110101011001110100111010010
00000001000110100011111011100100
00000000010000101100111100111110
00000000011001111000101011011101
11111111110111111001011111111010
11111111001000101010010101011011
11111111111100111111010111100100
11111111010101001111101110100010
11111101110011001001101001110001
11111101110111010100010100111010
11111100011110000111101101010111
11111100111100000110110010011011
11111111010001100010011101010111
11111101110000001111001101001110
11111101111111011011110011100011
11111111001011010000100110110110
11111111001100100111011101100010
11111011010100110011110101000100
11111100011101000110010000010111
11111100001101011001010001100111
11111101001010001101011110001010
11111100000101110100000111111010
11111000101110010111110011101011
11111011010101010101011101011111
11111101100000101010111100110010
11111111000000010110111010100011
11111111000111100111100111101001
11111111110101011100110000100100
11111111001110101011001001011011
11111111101100010010111011101000
11111111111110000010001001101000
11111111110000100100111000011111
00000000000010010001110000111100
00000000101100011100000101111110
00000000001100001111010011011110
11111111001010111110100011110101
11111110101000100010101011101101
11111101101111111000111110011011
11111011010100110110110010100001
11111111100100101001001111100111
00000001000010011100110011001011
11111111011101111111010001000110
00000010010010011111100000010001
00000000010010010011100010001011
11111110010110111110011111100011
11111100100110011001101110111011
11111010001000010000001011100100
11111100001001011000000011110000
11111011110010111100101010100000
11111010011101110101111110000110
11111010010100101111010110001111
11111100011110001001100111101011
11111101100000000111000111011001
11111101111011110001001111010011
00000001100100000110001101010000
00000001100110110010101000001110
00000000011101111001001001110001
11111111110011101100111010110011
11111110100111101101011010101010
00000000100101010000111010101110
11111110101001110100000111010011
00000000101011010100011101111101
11111110011010111101100100010110
11111111001100000001110111101111
11111111010001001011001001011000
00000000110010010010011001110001
11111111111100001100000001001110
00000000100111110101000000101010
00000100110011111101010000011100
00000100110110101000101110101001
00000101111010000000100101010001
00000010111000100001100110111000
11111101100000111100101100100100
11111100000111100000001001011110
11111010101110101001010111010111
11111100011101100111001110001111
11111100100010001101000001111110
11111100000010000101101010101101
11111101011100100001100110111010
11111110101010011111001010100101
11111110111110011100111111111101
00000001111011110001000110000010
11111111111000010000001010100011
00000000101111000011010010100101
00000000110011111011010010110011
00000000011100101000101001010110
00000000000100100110111000001001
00000000001110111110111111001100
11111110010001110001111011100100
11111111111100001111000101111110
00000001010001000111110100011100
00000001000111011011111101100100
11111110111110100111011110010011
00000000110001100101100000111110
00000001000110101100001111010000
00000011010100111111100001000111
00000101100111001101011110110011
00000101111011000110011111111100
00000111101100010101001110001010
00000100011011001000001110110001
11111100110010101010001100000010
11111010011011110011110110011100
11111100110000100011000110111011
11111111111100111111000111101011
11111110000011001000011001010101
11111101101010110010111111011010
11111110101101100011001101111011
00000001101111111101110011010100
00000011000011000000101011100011
00000011111001100011100110001110
11111111110001100000111110011100
00000001100011100000100010110010
11111111011010111100001101110101
11111111010110110010111100101011
00000000101100011001100101111100
11111111111101010011111110010100
11111111000001111010110100011000
11111111110011000010011110010110
00000000110010001111001101100101
00000000100000101100010111100111
00000001010000101110011100100111
00000001111010000101100111010010
00000010000110011010111101000100
00000100101101011110001100001011
00000110101100001000100001111101
00000111011001000010000000101101
00001000001001001110001111111010
00000000011101111001100111111011
11111101110101111100001100101000
11111010000010000001011011111101
11111100110001001100111100110001
11111101101101101011001001000110
11111110111000010110011100001001
00000000001101010000101010111011
00000001110011101000000000010011
00000001111110000011101000010001
00000000101010101010011111001110
00000010001110000101100010001001
00000001110100110110010111010010
00000010011010110111011001011011
11111110011010001001000000000010
00000000001100100101010110111101
00000000101111100000011000000000
00000001001001111010010100110110
00000001010001110100101110010110
11111110111000101011100001010001
00000000001001000111001010100000
00000010100100101001110011011101
00000010001101110000111000110111
00000010100000111111010111110011
00000011001011101111001000111011
00000001010100100110100010001010
00000011010101101100111001111101
00000011000110100001110100010000
11111110100001001000100111001101
11111101010101011010010100100100
11111100110000000000100111000111
11111011011001000100111100110010
11111101011001010010010010110011
00000000000101001011011011011011
11111111110100111011001101011100
00000011101111110001100010110011
00000101000100010000110111111100
00000100111011010001001100101101
00000011101000010110010110001011
00000011000001111011101111010110
00000100010011101110101011110100
00000010010001010100001010011000
00000001111111001000010011000001
11111111101011001001101111010011
00000000011110000111001101100111
11111110000101011011110100111111
00000001000000101100100001001111
11111111110001001110010101000010
00000000110001101000100010010111
00000001001000011010000000011101
00000010101010100000100001100111
00000010100011000010101001010100
00000100110000110000010000000001
00000011011101011000000100000101
00000000011010111110001100001000
11111100010101101011001111001100
11111100010010011101100010000010
11111011001010111100010001001111
11111011110101110110001101000101
11111100100000110101000101000011
11111101000001010100010010000000
11111111101110110111010000001101
00000101100010100011010011001101
00000011001000000011101010111000
00000100110000110101001000110011
00000011011111100010100111100001
00000010110100100111101000100110
00000011010001010001101000110010
00000010011001011111111110100101
00000100011111011101110111010110
00000001011110001011100110101011
00000000001101100111010010101011
11111111110100001011111101010000
00000001100001010011001001111101
11111111000100111011111100011010
00000001010010010011001111111010
00000000000111011111000100001110
00000010001111000110001000001010
00000011001011010101110111111111
00000011111010011111011010011111
00000011000011101011000010100101
00000011001011100011011001111000
00000001000010001010101110111010
11111110101010100011011010001111
11111101100111001111110000011011
11111111011100101101110101111001
11111110100101001011111111011111
11111110101000001101110111100101
00000000101110100110110001101010
00000100001101000101010110100000
00000101001110110111001101000011
00000100111001010101001001101010
00000100100000000000100110011101
00000110111110101000100001010010
00000101000101010111010100011111
00000100100011000110001101001110
00000011101011110011110000101101
00000010010000100001100100110111
11111111100001010110110101111100
11111110011100111110110100111000
00000001011010110011110101011010
11111110101111011100001111001100
00000000000011001000100010110011
11111111111110010000010011111111
00000000101010111111100110011001
00000000111011111101001100011101
00000011100011101010110100100111
00000100010100100000010010001001
00000010101101100011010011101110
00000011000010110000110000001011
00000010010100101011010101111110
00000011001001101111101000001111
00000011110010101111001110101101
00000100000100010000101111001010
00000010111101011111010110011101
00000010010111101000111001010001
00000100110110010001010100000100
00000011000100100110100101110110
00000101000101000111011001100101
00000100100000101110100001101111
00000011111010100101000100001101
00000101011111110010010001110011
00000100101110010110110010111101
00000001101011101100010101100010
00000011010111010000011000101101
00000011011001000010110011001101
00000000110101100000111000101111
11111111111001111101000111010010
11111111000101100001101000011010
11111110111011010001001010111101
00000001000101100001010100010110
11111111000110110100001101011111
00000000000100010011110010111100
00000100000111001111000001111001
00000011000001110000111100110111
00000100010100011000000111101110
00000011001101011111100000001001
00000010111111101011100011111110
00000011011100010001010100011010
00000011101010001101111000110011
00000100010001000000010100110001
00000011110110111000101001010101
00000100001101110101011001111000
00000100101010001101110010111001
00000101011111100101101111110011
00000111010000111110011100110110
00000101100110101111011111010010
00000100010001010000011001111111
00000011111010000010001110110101
00000100010100111011000100101010
00000011111001000000110000011111
00000010010101111001011010111011
00000000001111011101100110000000
00000000110000001111100101011000
00000010010101111011000110101101
00000001101111010100010000010101
11111111110011000011010010010011
11111111010001100111011010011110
11111111001001111101110100111001
11111101101100110111101110010010
00000000000001011100111101011111
11111111111001101010001111010101
00000100001100011000101101000111
00000011001001000111011110111110
00000100011111000010100101001100
00000010110010001010111110001011
00000010111001011011111001011000
00000011000010101110001110000101
11111111110101011101011001011001
00000101001001100010001000110010
00000010111100101001100100000000
00000011010100000000000010010011
00000100011011010100110111100011
00000010110110101101101010110100
00000011111000000001010111101101
00000011100001000011110001000011
00000001101011111000001001010011
00000011101111100010011111111000
00000001100100110010101111001001
00000001111101000111101100111111
00000010011000110111001110101011
11111111101101111100110001111010
11111101100110101011110100101010
11111111111111111011100110000111
00000001110010010000001001101010
00000000000101101011001111111001
11111111101000010000110011111110
11111111000010011011110011010111
11111111010111001111000000100100
11111111110001110001000110000000
00000010010011001010010111101111
00000010000011000101001010101111
00000010010001111011011110101100
00000010100101100001100001001100
00000000011110011011011100100111
00000000111110110111011110001110
00000000011101010011101011110100
00000000110001011010110011110011
00000010010101100000101000110100
11111111100110101100101000111111
00000000001111010100111110111000
11111111001100011001111000000011
11111111001000101000101110001010
00000000010010001100111001001001
00000000011010000011000001110011
00000000101111100110101100001100
11111111111100001110011011011000
00000001010001110111110010111011
11111110000100111000101111101110
00000000011111011001111000110010
11111101001100011111100001100000
00000001100011011001101000010111
11111110011100011101000110010111
00000000100110011111100010110001
11111111011001000101111101011000
11111110100011011011000110011100
00000001000001101100111001111100
11111111100010101100110001110100
00000001001001100110110011000111
00000000000011110011010000010111
00000001101111001000001111100100
00000001111000101111010101010111
11111111010001001110010011000001
11111111100011110001010110010111
11111101010000010100101001001011
11111110101011110010011101100010
11111101011011100101001111011100
11111100011100100111101010001100
11111110011000101011001100110010
11111110001100011110011110000110
11111110011110110111100100001011
11111101111100111011011101010000
11111110100111110110101100001110
11111111000110010101100110100111
11111111101111111100010110001100
11111111100000100010010001111110
11111111110101110011101111101111
11111111101100101010000101010101
11111111001001100011010101011011
11111110011111101101111110110100
00000000100001010001010111101000
00000000100111111110011010110001
00000001110010110100101010010110
11111110100101111110011110101001
00000000011100111010101101110001
00000001000011010100101010011111
11111111100101110100110101011110
11111111010111011000001011001101
11111111100110011000101001011111
11111111111010001011101000011001
00000000000101110100000110011100
11111111011111011000110001011111
11111110100110000011001100011101
11111101110000101111001000011110
11111101110110111001111011111111
11111101000111110010100011110001
11111101000100000101010111101101
11111011101001101000001101011001
11111100110110010110011001100110
11111110010001110101011101110010
11111110000111111101011111100010
11111111011000010011010110000010
11111110000000001000101001000110
11111101111101010010101101101110
11111111100101110100100011110010
11111111100111100101101101111101
00000000001110110100100001010101
11111111111001000010010010101111
11111111110001001000001111011100
00000001011001101010000001111000
00000000101100100011010011010110
00000000101111001111001000001111
00000000101001000110010011101011
00000000011010011100001000001000
11111111001011101011001111110110
11111111011110100111001101010000
11111110011011001011111101110110
11111101101101001000100100111011
11111110111101000010111111101101
11111101100001111001010010011100
11111110100101111101011011011100
11111101000101011100000101011100
11111100111010100100010101001101
11111101110011100010001111111011
11111010111111101000110111010001
11111100001000011100000111000100
11111100110110101111111111010001
11111110101101100010011001001110
11111101111011100111000011101001
11111110100000011100000011010101
11111111001000000101001101001110
11111110101010000101011100010010
00000000110010000001111001010011
11111111100101100100101100110011
11111111111010101111010110111100
11111111110000000111011111101010
11111111111011110110010000101100
00000001101111101101100010000011
00000010110111001010101001010000
11111111100010010010010011100101
00000000011111001110010010100000
11111110011101101010011010111011
00000001010011010000111111100101
00000001111000101001110111001110
00000001000011001000011001100101
00000000101111101101011011111001
11111111111001010011011110100111
11111110101110000100110000010110
00000001111001101110101000101101
11111101001110001011001100111101
11111101111001111100100101100101
11111111011101011111001011110011
11111110000100000011010000110110
11111110110011010111000110100111
11111111111010001100101110011101
11111111111100011010000011010101
11111110110101010101010000111001
00000000010000001001011100101100
11111100011110111101011110101010
00000000011010010010000100000001
00000000011000010111001000101000
11111111010101101000111001010001
11111111100001110000010101110101
11111110001100010111001100111101
11111111010001011001010111110110
00000000110101111011000010101011
11111111100011100111101110010010
00000001001000010000010001111001
00000000010100011100011111101011
00000000001101111010001100110110
00000000100000100101111101101110
00000000000100111011101110001011
00000001011011000111000011010101
00000000000000010011011110000111
11111111111010101111001001000001
00000001101001011000000000110010
11111111100001111001010000011001
00000000110001010010110000110010
11111111110000001100101010000100
11111111110011001110001100010100
11111111000110000111001110011001
11111101111010101100101010000111
11111110100010000100011110001111
00000000011001010001100100011110
11111110111010110011100010011011
11111111100101010111100000011010
00000001001110011111011100001111
00000001000111101011001000011101
11111110001011001000011110101001
00000000010110110011110110111011
00000000110001011110000110011000
00000001011100010010100001100010
00000001010111100100100010001001
