00000000000101111110100001000100
11111111000001111111010001111100
11111111001011101110000100110100
00000000011011110110001100100011
00000000000111010100111000011101
00000000111010000011100000100101
00000000000010000011001101011000
11111110011100100010001010000111
11111110111011111010101101111011
11111110011011100100001101010110
11111110110010000010000011101000
11111111110001101000111011100111
11111111110011011001110111110001
11111110111111000000010011110010
00000000010110110100011101010001
00000000110100111110000010110011
00000001101001010011101001111110
00000000101110011011011010111100
00000001110001011001101111001011
11111111110100111011011100000100
00000001000100100110100100011001
00000001110100101100011111010011
11111111011111001000011100110100
11111111110101011010000101110011
11111111110100010110111111110101
00000000111010001111000011100010
00000001000110010001010011111011
00000000101110100110100001100110
11111111100101111010000000011101
00000010100010000011000101010110
11111110010001000100110001001100
11111111111000100011100111110010
11111111101011001111001011101110
11111111101110111010100111001011
11111110100001111010110001110101
11111110100110110010101001000001
00000000000000110101011010111111
11111111100011011000001100111000
11111110110010100011101101001110
00000000000001000100111111110100
00000001000000001100101100100001
11111111010010011011101001110010
11111111011000000011100100110100
11111111100110111111011110000100
00000000100100000010011100000000
11111111001100010000001000000101
00000000000100000100100100000011
11111101111011101001110000010100
11111110111010001000010100001101
00000000110100110001101100011110
11111110101111001111101001110101
11111110110111110110000010011111
11111111110101111010011101001101
11111111101000011011001101101110
11111111000110010101101011110011
11111111111000011011011111101110
11111111011001101101011010110000
11111111101110100101011100000001
11111111000110000001101111101001
00000001101111000111000011011110
11111111100010101010000001111001
00000010100001000100011011000110
00000010001000111110010011111001
11111111111110000001001011100011
11111111110101010111010100001101
00000010000111100101010010011001
11111111111000000001011000111100
11111111100010110000100100010110
11111111111000000000100111101000
00000000111010100001100010010100
00000001000110000001000001011100
00000000000100010100001010000011
00000000101100010100100001000000
00000001000001010100000000101010
11111111101110010110111100000010
11111111100111101100010101101001
00000001000001111101101011000010
11111111101010101110110111000111
11111110111001111101100011010100
11111111010101001011110010011010
11111110110101001101111011100100
00000000101111000000101010010110
00000001011011110100111011000100
11111111011100101010111100101001
11111111111100001010000101011101
11111110011010001100001011010101
11111111000111011011111101011100
00000000000000100011011011110101
11111111000001111100110100110001
11111110111111110010101001010010
11111110111111110110111001010011
11111111100001100110010010110100
11111110100100010001000110011100
11111111100101011011001011000010
11111111001111111010001100011111
11111111000010100001110001011100
11111110010000101110011010001001
11111111000101010111010001010100
00000000010010101001111000111101
11111111010101001110000101001111
11111111010100110001110110101110
00000001001000101001011010010001
00000000111000000000100111100111
00000001111001000011011110010000
00000000100001100100000111111000
00000001001111101001110011010111
00000000001010011011000100110110
00000000111010100001100000100010
11111110110000001110100111101001
11111111001011001000000011101010
11111111010011100010111000110000
11111110111100010111000000111010
11111111110101110100111111000011
00000000110001101101100101101010
11111111011001001101111010100100
00000000110100001010001010000001
11111110100110111100011001101100
00000010000011101010010001011101
11111100011111000000111100001000
11111111101110001001011100010110
11111111010010010101100010001110
11111100011010000100000011101001
11111111001011010100110100111011
11111101010010110100000101111001
11111101101101011100001111001100
11111110100001001001101010001001
11111100110110101110010111011010
11111101010001010110001111001000
00000001111001111101101011101001
11111110110000111010000010010001
00000011000101110000100110111000
11111111100011011101000000001001
00000000000111111000100001011100
11111111111100111011110111111111
00000010001011010010110001001111
00000010100110011110011010110100
00000000101101100110111101001110
00000000011100000111110100001110
00000001110001111000111111001100
00000000011110101000111001000111
00000000011101111001010111101010
00000001000011010100010111011100
00000001001110011100001101101000
11111111001101001011001101101000
11111111101101001101101011101001
00000000001100011001100000000100
11111101100010101100111101000001
11111110010011010001100101100101
11111110000101010100001001011001
11111011100011011010110001110001
11111100000000101100010011101010
11111010011011101111110111000011
11111011111001001010010000110001
11111011011111100001100110110011
11111011100010100011111010010100
11111101011101010011110010111010
11111100110111011110101011110100
11111101111000100010000110010110
00000000000111010110011010011101
11111111111010101110000111100000
11111111110001110101000010111111
00000001111111111101110100011001
00000001101101011100011111110110
00000010000110001101101100101100
00000001001101011010101000011011
11111111111110001001110010100101
11111111000111000011011010110011
00000001100011101000010100001001
00000000110001100010010111001100
11111110110101001111101010101010
00000000011010101001110111110100
00000000010010011011010001010010
00000000110000101010111011011011
11111110000100000100010001011110
11111111111110000100001110110100
11111110001001001010000000111110
11111110000101100110010111001001
11111111101101001110110101001011
11111101111001111000101111110010
11111100010100011011110010110000
11111011110011100001011100111001
11111101011001100000001001111111
11111011101101000101100000001011
11111100100101000100111000101010
11111111000100010100011001001111
11111101100100001100011110011011
11111111111011011000010111101101
11111110011001101000111110110011
00000000100011010101010101011011
11111111110000001111111101110000
00000001001111101110111010001111
11111111010111010100000110010101
11111111111011111000001011001111
00000000101101101100111010001011
00000000000010000101000100101001
11111111100000011001011010100101
11111111000100011011100010010000
00000010100100111110001101000000
00000010010010101000110010100010
11111110000100101001011001001000
00000000010000011010110011000111
11111100001110001101001110111100
00000001011001001110000101101101
11111100101100111101101001010110
11111110111101111100111010001011
11111111000111010010101111110011
11111110010110010001000101010010
11111111100100110000010000101001
11111100010100110111101011110011
11111110010010110100101111101100
11111110000111111110110001000100
11111110011000000110100100100110
11111101001111000101101000111000
11111111000000100001010010101000
11111111000000010010001111101100
11111110101100001011111111011011
11111110011001111110101011100110
11111111000010011011100001010111
00000000100111110000111010000111
00000000011000001011001010011000
11111111000010110011001101010010
00000001100011111010101111111111
00000010000111101100010001101100
11111111110010101111110010011101
11111101110101101000111000000000
11111110000111101001100011000101
11111111110010101010101101001111
11111110101010111101101100011111
00000000001100111000001100010110
00000000110010110111011100010110
11111111011111011101100011110010
00000000111010010101001101011110
11111111001011000100111000100111
11111110110000110010011010110110
00000001101000100001011011011001
11111110011111010110111011100111
11111111011001010000111100101011
11111110110111111101111001110010
00000000101111001000110011010101
11111110111111000010101010100010
11111110011101000000001010101010
11111101111100100110110010000000
11111101100000100100011011110111
11111011100111110000011111000001
11111111001100010011001111100000
11111111000010111110110001010100
11111101101011010000111010100101
11111110011101111001011111101101
11111111010011001101001001001111
11111111001111011110001100001110
11111110110110111011101010100100
00000000000011110111001011001111
00000001000110011110001100111100
00000000110000011001111001001101
00000000101001000000100011011100
11111111010010110011100111000010
00000000001000100111010101101000
11111111100001000000100111010100
11111111011100001010011000110001
00000000010010000011101111000011
00000001100011000100011101100001
00000010000000001101100001110011
00000011100010100011011000111100
00000011011110000111001001001110
00000010100100110001101011101111
00000000000001100100110100000110
11111111101111011011001000000011
11111110110000111101110010000100
11111011101011101111100010110111
11111100001100000000010001000010
11111101010101001011000000001100
11111111001000100111011000100111
11111110000000110100001010010011
11111111100001001111000110000110
11111111010100100101010101010101
00000000010111000001101100101100
00000000100010101011111010010110
00000000001100011010101110001000
11111110111011101110111011100101
11111111110000110011010101010011
00000000111100000110100111001100
00000000010100011111001101001011
11111110111100100010000100010011
11111110100011011100110101101001
00000000001110011101101000011010
11111111101011001111010000000101
00000001110111001010101011010011
00000000101110101001110000000100
00000010110110110000001100011111
00000010011011010101100111000111
00000010010011010010101101110100
00000011011110110110111110101001
00000011001010010000110110100010
00000100000001010011110010001101
00000000000101111011110001001100
11111101111000010111010011001101
11111011101001110000010010011001
11111101101011011100111101010100
11111110000101100000011110110101
11111111000000000010111010001101
11111100011100011001101011100111
11111111100000010101001110011011
11111111111111010001001110111110
11111111010100100000110001110100
11111110010111000110101011101001
11111111111111101000001111101010
11111111111011100010101111101101
00000000001111111011111101101101
00000001001111011010100100101111
00000000110010100110100110011111
11111110110110010110000111100111
11111111111000111110011110100010
00000001011100110010000001101010
00000010000110001111011100100000
00000010110011011111001000010100
00000011110100010100101001010101
00000100100101100111110110100100
00000101001110100001010110011001
00000100100110110100100101000110
00000110110101100110000111001100
00000100001100010111111010101111
00000000100101101100100101101111
00000000110011001010001100100110
11111100110010000001110010010000
11111110000110000001101010101000
11111101111110101010110110010111
11111110010010110110011010000001
11111110001110011110010111101001
00000001011001111111000111111100
00000000110010000101110111010111
00000000000101101111001101010100
11111111011110101110010000100100
11111111111101110111111010010101
00000000110011001101010000110001
11111111001010000110101001100000
00000000111101011010110001011101
00000000001011001111100000110001
11111111111010010101111000010010
11111110010100000111010101001111
11111110101111011100000101100111
11111111001111111001100111101111
00000010010000001110010101011101
00000011000000110001101111111100
00000011010111011011111100000010
00000101000011110111111000011001
00000110100001101111001110000010
00000101000001110010100110111110
00000101111111000100001011110000
00000011111001010110000000111001
11111110110101011010110010000001
11111101101000111111010010001001
11111111001100001011000111011000
00000000100001101101101111101011
00000001010010110001110000111001
11111111111000010000111011100101
11111110001000000001000011111011
00000001000110110001111011001110
00000000001101110110100011110100
00000001010000011111010011000001
00000010010000100001010001000110
00000000111110001010100110101101
00000000001100011011101000101100
00000001111001011011000000001111
00000000000101001010111011100100
00000001000101010101100110101000
00000000101001000000010101010111
11111111111100101100111010010011
00000000101001000011101101010010
00000001001101001011111100100010
00000001011101011100111110001111
00000001001001010111100010010001
00000001100010000010010001011000
00000011101010001100110111010011
00000101110010110101010001010110
00000011101001100011110010010010
00000010101110011111010100101110
00000001010111011101011111101000
11111111011011010110000000111001
11111111111111001110000101010100
11111111000010101000001010000011
00000000111110001111000100000001
11111111111110000011110101000001
00000001000110100010010110110101
00000000011000000100100111100101
00000010011111110100100110000101
00000100000011011111110010000011
00000011000110101101010000111110
00000001000010110101001011100011
00000011010010100001111111100001
00000000101001000001011111111000
00000000001000101001000110011011
00000001000111011110110011011011
00000001000110101001100011101010
11111111111101111100100101010110
00000001000001100100101001001111
11111111110110010100100111101010
00000000011111110010111000110000
11111111011101010001100111011101
00000011101010101011000100100010
00000011111011001010011110111000
00000010000000011010000010001100
00000010100011011000001110111100
00000010001011101000010100010111
00000011000101000110100111100111
11111110011011110111001010111011
11111101010110100010000001111011
11111101101111000001100000001101
00000000010000011010001100100111
11111111110000000011100111111111
00000001100100100001011101011100
00000001001000011101101110101000
00000011001110110010110011111110
00000001110010000111010010111111
00000010111100110111110110011010
00000100110000111010011100101001
00000001110101110000101110100001
00000000101011011110110101111111
11111111101101100010100010111001
00000000101000111001010000000110
11111111110111111000100000010111
00000000110000000110010001111111
11111111110010000011001000001100
11111111001111000011111011000101
00000000100110100100011110001110
00000000011110100011000110101010
00000000101010111011000000001011
00000001100101110111110110100000
00000010011110111101010111110001
00000010000001101101111000011011
00000000001101100011111011111000
00000001001100110111100001001111
00000001000111010010110010100100
11111100101000100011010101011001
11111110101011011100000101110100
11111100110100111111101001010001
00000000111101001010011011101110
00000000100001111001000000100000
00000000100100110100001001100010
00000000100100011010101000010101
00000001111001000010011010011111
00000001011001101110011100110101
00000001100110110000111010101101
00000000111110000011010111111011
00000001001011101100010001001111
00000000100000000111010011011001
00000000011001111001100010010101
00000000110111011010111000110011
11111111000110000111110000110000
11111110010100011101010001001011
11111110100111111101101110011101
00000001011010111111101110010011
00000000001110101101000001110101
11111111010011100100001000110000
11111111110011010100010110011001
00000001001000010111101011101111
00000010111101101110000011000011
00000001000001010001010000000111
00000010000101001111111100011111
00000000001001011010100010101010
11111111000000011011111000011001
11111100000110010001110110101001
11111111011010101001110110011110
00000000100010110101100110111001
00000000101011010001100100101011
11111111101110101100001110110110
11111111100001100100100011001001
11111111110010010011001000110011
00000000001001000001100110011011
00000010010000110100101011000010
00000000100010010110110010111101
00000000001000100010110100000101
11111110101001111001011100000100
00000000001111110110101001111010
11111110110110100001010000101100
00000000111011001011001000010011
11111101111101000010011100101000
11111111101000101000100100000011
00000000110011001010100111110101
11111110101001110011100001011110
11111110111111010011001010010011
00000000010011110110110011110111
11111101010011010001100110110001
11111111111110011000101000010001
00000010010011101010111010010001
00000001101100100011111000011101
00000000111011110000001101100110
00000001101110110100000000100011
00000001111110011100101101110101
11111101100100100100011101111000
00000001010111001001101010010110
11111111010111001110110000100111
11111111110001011001111010110110
11111111100100010111011101101100
00000000110010011100010010011110
11111111000111010100010000111101
11111110110111110110010110011010
11111101111010110000011100011010
11111111001111110100111011101101
00000000011001001000011110100110
00000000100100001011010001011000
11111110000101100100101100011011
11111110010110000100010101110110
11111111011000000110001110100111
00000001010001010011000111110101
11111111110100110011000010101101
11111111001100011100110001010011
11111110001101111011110100000010
11111110101001111010111101000101
11111101101011100011011100110001
11111110001001011000110111110110
11111101010011101100110000100000
11111101001001101111100110101001
00000000110110100101010100001010
11111111111000001111100111111011
00000000000010010001110010101111
00000001101010010000011100100101
11111111011010100111011110100010
11111111000001011000111100100011
11111110101110010110111011000011
00000000111101111010011001100000
11111110101001000010111000000001
11111110000001111100101001110011
11111110110110001110111000100100
11111110000100010000011110111111
11111110101111111010100101101010
00000000100010011111101001111011
11111100100100011110100000011011
11111110001000011001100101100010
11111111100111100000101111011000
00000000011001101001101110100001
00000000010101011001111100100110
00000000111101010111110101001001
11111111101011111011001110000011
11111111010100111101000110101010
00000001010000110000011100001111
11111111101110100100111010100110
11111101011110000011101101010110
11111101000100011000010111101011
11111011100001000100110101111111
11111100101001101111101100101010
11111110110111011011011110010111
00000000011100001010101101011110
11111110101100110010011111100000
11111110100111010001000101011001
11111111111001100000000110011001
00000000100111011101101111001111
11111110100111010011101000110011
11111111110000111100101100111000
00000000001110100110110011110000
00000000000000010011111111100000
11111111110010111001010110010100
11111101111010011000000111101110
11111101001000010010010110111010
11111101010011100011011110000000
11111110011001110010000101110101
11111101001110100000001000110011
11111110101001010001011011011010
00000000001000011001101101011000
00000000000101100011000000000000
00000000111101111011010110110011
00000000100100100101111010011000
11111111111101011100001011100101
00000000001010110100000111010111
11111110011011010110000100111111
11111101110010000011110000001000
11111101011010001101101001001011
11111101111001111111011001110001
11111100101111010011100010001000
11111100000011100000101101110111
11111111011000111110100110101100
11111110000110110000001011100011
11111111110000111001111001100001
00000001011000100010010010111100
00000000100000110010001011111111
00000011101011111110011011001001
00000001111001000001011111010101
11111111010100000001100100111011
11111111010100010011000110000100
11111110000100011011010001000011
11111111011101110000010101110011
11111110001001111111000111001101
11111101000110000011011010011001
11111110000000000001010001010111
11111111001011111011000100110100
00000000001100000100111100011000
00000000001001111100011111101000
00000000010001010100101000010111
00000001110111101110100010110111
00000000111100100101101110110001
11111111101000000011010100101110
11111111101101000011110110010011
11111101011011110000111010010101
11111100010011101101001110111010
11111100111100010000000100101011
11111100100111000110001111011100
11111100001000100111011010101010
11111101110000010000100110101100
11111110011001111011010000010101
00000000001100010001111010001111
11111111000110111100010001100110
00000010100101001110101111011101
00000001110010111100011110111110
00000001101010010000110000110001
00000010110011011000101111100101
00000001100110101100101100000110
11111110001100010100100000111110
00000000110110100001011111000001
11111110100111111000001100100101
11111101111111110001010101100101
11111101110101000111101110100100
11111110111100100000000011011111
00000000001101101000000110101010
11111111100101100000000100110110
00000001010100010111011110101011
00000001010010100011000000101101
00000000000001001101001010000010
11111111111101000111001110100000
11111111001010010011110101110101
11111110100001100111011110100101
11111111001110011110110000010101
11111111000001000110010111010000
11111101001011101001001101111001
11111100110001111101001100010001
11111101110010010110011101100110
11111011100011111110110011000111
00000000001101100000110110111110
11111110100100001100101100101001
11111100011111100111101111100100
00000001100011001001011111011010
11111110011100001111010101100111
00000000111111001100111101001001
11111111111101100110110011101111
11111111001101001000110100111000
00000000101101000101011100100111
11111101110111101010010010100100
11111101011000000011110001101110
00000000001001000110010000011110
11111110011001010001100011010001
11111111001000101000110011010101
00000000100110010010110000001011
11111111110101101000000111111011
00000010100101111101010110001010
00000010000000110010111011000110
11111111100011011100000001001001
00000000010111010001100111010010
11111111010011100111000011110100
00000000010101000011011001110011
00000000110011100100010011001011
11111110011111111001101010101000
11111110111111100111111010101101
11111110010010110110111101010100
11111101101101100000001010110110
11111110100010000001000111101100
11111110111110101000011101110101
11111111001010011011110110011010
11111110001010110010010010100110
11111101101100100011001101101110
11111110011000001000001110011101
11111101001011101110110110000101
00000000010001001111111010100000
11111110000010100011001000011100
11111110110011010110001101100101
00000000100110100111001100001011
11111111010010000110111111000010
11111110110100011011000011100010
11111111010101111101110001100100
11111111110011001101111000100000
00000000110011011110111001000110
11111111111011010111101110110010
11111110101101010100011110001111
11111111111001101000100010110111
00000000010011101110001000000100
11111111111111100101101101010011
00000001000011100100111000101001
11111110001011010000110011101101
00000010011000111011100110010000
00000001100100010000011111111111
11111111010010010110100010001101
11111111111011000001001101110111
00000000000001011000001000001001
00000001100110011111110011000011
00000000100001101110111110010100
11111111011111111100110000000110
00000000100011101010001101111001
11111110011100000000110111110010
11111110011111000001001110000101
11111110111110010110100011000000
11111111111011110100001110101110
11111110101011011100001000011110
11111111011011100111101100000100
11111111000000000011000110100100
00000010111100011010001001010001
11111111001000000110110100100000
00000001000100110011001111101111
11111111110111000100110011100100
11111110100100010101010110111001
00000001011100011100011001100111
11111110011100010100011000101110
00000010000011111001010011001101
11111111110001110011101111001010
11111111010101111111101001101010
11111110101110011001011111100010
00000001001000110100001001111001
00000000000100110101101110101101
00000000101101001111101010101111
11111101011011010000001111111110
11111111011110110011000011001110
00000000001110011011101001010111
11111111011010100001010111001000
00000010000001110011111010101110
11111111100101011011011011100001
11111110010000000010100100110100
00000010100000011011010110111001
11111111011001100110100110100010
11111111110110001011110001011000
00000001011101110011100111010110
00000001011001101101100100010110
11111111100011100110110101111110
11111110000101011001000010111010
11111111101110001110010111111100
11111111010000110110100100100011
00000010100011101101000000010001
00000000100111110001100100010001
00000000110000101001001100011111
11111111000000010001111100110101
11111111010111110000010000010110
11111111101101010000110000100110
11111111011101110001101000000011
11111111110000110111001111110011
00000000000111001010000011010100
00000001010110111001000101100111
00000001000001011001010100010001
11111111101010011001110010100011
00000000011010001110111010000110
11111111001111001110100010100111
11111110110000101001100010111000
11111110010111011010110010100010
00000001010001111001001111101000
11111111100001010110001011010010
11111111100100110000100000001110
00000000000111010000000011111000
00000000011010001011111110111010
00000000100111111010011110011110
00000000000111011001101001010011
11111111000000000000010000011011
00000000010100011100011101111010
00000010101000110100101100111100
00000001010000111010100100011011
11111110110010010000111111000111
00000000101010101010110000010101
11111110101111111101110111100000
00000000011000110000001011001110
00000000000010001010010111111100
00000000100100000011011000011110
00000000110111011010101001010011
11111111111000110000011000100111
00000000000101010111001010111111
00000000001101110001011001011010
00000000010111100011000110111010
11111111011001100010011001000101
11111110111010000101010001011100
11111111100111010101110010011111
11111111001001011000111011011110
11111111100111100110101000100111
00000000001001011110011001100110
00000001000010110001010110011001
11111111111101110110000100001111
11111110101010101011011110010101
00000000110011010101111100000110
00000001001110011111010010101100
11111111010001110000101111001000
00000001010100110010011111000111
11111111101101001101000100010100
00000001111111000110110010011111
00000001000111111111101100100111
00000000001111110111011100010101
00000000100111001011001001111100
11111111111101011011010010111100
00000000111001110100001011111011
11111111101110101100010011010101
11111111010010000110111101101001
11111111000110101001011110110001
00000000010000011001000000110111
11111111110010110010101001101010
