11111000111111111000111000000101
00000111001010000101111111100001
11110110000100110010001100110000
11111111111111000110100000000001
00000111111100100100001000011001
11110010111100011001001011101101
11111111010011100100110000001110
00010011100100110000111100101100
00001000010111100010111110111100
11100110011000101000010110101110
11111111000001011000111010010100
00000000011011001010001010101110
11101001110010111000010100100011
11111111000010000010000011111000
11110010010111111101001101001010
11100110001000101100001100010010
00000011101101000100011001010110
11111001001101010000011110101100
00011011001101001011001010010111
00001011011000000101101011111100
00000010001011000100110000110010
11101011011111101111100111110110
11101110000010000001111111101010
00001010001010100101000001100100
11111000101000011011000011110011
11111000111111001010110000011001
00011110100110010110101010000010
00000010010001110010011100001000
11110011101100111111110011100001
11100110111001110010001100101111
