00000010001111011001011110011110
00000000100000001111101010001111
11111111100111110101111000010101
11111110111010111010000000111100
11111111100100110010011110011001
00000000101001000110000111100111
00000001101010001101110100001011
11111111111111000001110011001000
00000001011011111110001100010111
11111111110110010111010100101010
11111100101101000011111010111100
11111111011100101001000010000100
00000000110101000101100001010110
11111111100101101010011011000100
11111101101111101110110010010111
11111111101000101011011111010000
00000001101110001001000010110100
11111111000001000000111101001111
11111101110001000100100001101001
00000001001011110111100110110111
11111110010110000111000001110001
00000000000001010101111000111111
00000001001011110101000001001011
00000001100000011010000001110001
11111111011000011010011100001100
00000001111111101110100010101001
11111111101001100111001111000101
00000001110100100100011100111100
00000001111010010011011101001001
00000001001011100000110101100011
11111111100101011110110111011101
11111111110101101001011011010000
11111111111100010111110100110101
11111101100111111110101110000010
11111110010110111001101011001010
11111111010011001111100000001100
11111111001111101110010000101100
00000001000010101101000110001000
00000000111111110011000010110001
11111111010011100010000111001111
11111110111010110111001110110110
00000000001001110000011111000010
11111111001101100110111001111100
11111111100101001000001100011010
11111111000110101100011100101100
00000000000000001010010100101011
00000001000011111110101011100010
00000000101111001001010011011000
11111111000101101000100111111010
00000000001010010101100010010001
00000000110110100101001101000110
11111110101111011101011010101111
11111110011101111000100101001000
00000000010100011010101111100100
11111111110101000111001001111011
00000010100100111001010001010010
00000001001100111001111000110000
11111111010000001010011110010011
00000000011001100010110000100001
11111111001100101110100000000011
11111111101111100101100100000001
00000001011010111011001100001010
00000001101001110100101101011100
11111111101110101000001010001110
00000001111101010100001100111011
11111110111100100000111010110100
00000001110111011111001000111101
11111101110011010001111111111111
00000001001111100101101010010001
11111111000101010111100000001000
11111110011001100101010000000001
11111101101010100110110110100000
11111110111001011001011100110101
11111101100011111011100110100010
11111110000111100111111010100110
11111111001000111111001111001111
00000001010100010010100001111000
00000000001111110011011011010111
11111111011111101000111100001011
11111111101001111010101110000011
11111111111001111010110010111011
00000000000001110001101011101010
11111111000111000100111101001001
11111111011011110000110111011011
11111111011110001000100011111110
11111110000011101011111000100001
00000000001101011000000000001010
00000000001011100000101011011101
11111110110101100100001111111011
00000001001011111011000000000111
11111111000001011001111100010101
11111111110110110100110001111110
11111111110001011010011001011000
00000001011100010000000000111100
11111110111101101001100110001110
11111100110110000111101000000010
11111100001100001010011101001001
11111101010111001001111001100100
11111101111001011100000100011000
11111100011111100101100011010011
11111011011110010001001110111110
11111101111101000100100011010001
11111010101011010110010000000011
11111100110010011001000101101010
11111101110110011000000111011001
11111110111000001110000011100101
00000000100111100110011001100001
11111111001100100110111110100111
11111101000101011010110010111011
00000000111101110100011110010000
00000010100110010001011110101101
11111111111010011001001110111110
00000000011001110110011010111111
11111111100100000101110000001101
11111111110100011111100010001111
00000010010010100111000001011101
11111111110101000010011101010010
00000000000110111011000000100011
11111111111011011111100010011000
11111101100000001001000000010011
11111101011001011010000101111000
11111011111110000010101110110101
11111110000000001010000110111001
11111011011011000110000100001100
11111101100101101111101010101101
11111111101010100101000011001010
11111111000101110110110101101100
11111101010111011011010011110111
11111111011010011011011000110001
11111100100001110100000011001011
11111110111000010101110100100101
11111110110100001000101011111010
11111110011010001011111100100110
00000000100100110000100001000100
11111111100111011010001000101100
00000001000111001101111101100000
00000000000010100110010001001110
00000000000101010110011101111010
00000000010100110110001110011110
11111111111011010111000110010111
00000000100011010000010111110110
11111111110011100011100010100011
00000001101101000011100010001010
00000000100010011001111011001011
11111110011011000110101111101011
11111111011010010000000010000101
00000001000101001101011111110111
11111110010101101111010100111001
11111101101110111010110100101001
11111101001101100001000001101011
11111100111000001101001011110011
11111101001100100100101011011000
11111011110000001101011111111000
11111100001101100001010100111100
11111011001100000101111011011100
11111110000011100010000110100110
11111100110100010010010001001110
00000001000110011011010111111110
11111110101010011111101111110000
11111101111110000111001110111011
00000000000001101101001100110000
11111111000111111000111100011010
11111111001111100000000000101101
11111111111110100010100101001100
11111111101101010110101000000111
11111111010011110100000110110011
11111111100011001110101111101010
11111111101010110010100000001010
11111111011110111001001010110110
11111110101100111101011111100001
11111110101110110011100011101001
00000000111000000000110011000100
11111110110111001010001100000101
00000000010100110010111100101010
11111110100011001101101010100101
11111111111111011100010100100111
11111110001001010001100100100000
11111110111100101100011110011111
11111111100001011011010011101111
11111101000111011100110110110101
00000000100100101111101011001011
00000000010110110111101100101100
00000001010101100110100110111100
11111111110000001000011111111010
11111110111011100010111100000100
00000001011110010011010101010111
00000000001111000111100000010011
00000100100001011111100001001101
00000001010101101011101011010001
00000000011001101000101010001011
00000001110000101111100001111010
00000010100011000000001010111010
00000001011111100100010000011000
11111111100011101101011001010110
11111111110001000101100011111000
11111110101001111010101000101101
00000001010000100000001011101100
11111110110001001001010011011110
00000000000111011110001001101000
00000000010101011100100111010101
11111111111110001101010100101010
11111101110110000110010010111011
11111110101000100110010010110011
11111110100001110011010101011101
11111111100111100100011010110010
00000001111111010010101111110110
00000010000110110010110001110011
00000000110111010000101001001011
00000000011001111010010001000001
00000011100101001001001100011000
00000011110110100011111101100100
00000100000011001110110101001111
00000011000010100001001111010111
00000011000011010101000010111101
00000011110001010111100101011011
00000010100110010010010010000110
00000100000111010101011011001010
00000001110101001111111100010000
00000001100111000101100010101011
00000000100100110110101001100100
00000001010010000111001110111000
11111111111000100100101101101001
11111110010101001010100100011000
00000001101010001100000011111011
00000000000100000110101111101110
00000001010101110000111001110010
00000000001111100001111110101100
00000000010100100100110111100101
00000000011100010011100110110010
11111110111101101111011000010111
00000000001000001011011001100010
11111110111101101101111101011011
00000010010010010001101010101100
00000001111111101101011111000110
00000010100110100011101110011011
00000100010100101110100111110010
00000001100001011101011110010100
00000010100111000110001000000010
00000000111001100001010000101101
00000000110001010100010111110111
00000010111010100010100011011001
00000010101111101111011111001110
00000010000010100001001100011100
00000011001010100111011000101111
00000100111111001011000001110011
00000110001010011101000100111101
00000010011011011111011100010011
00000010111001011000001001010100
00000011101010010101000110011010
00000010001000010101101001001110
00000000010001100100011110110110
11111111010101000111010000101100
11111111111101111110010000101011
11111101000000011000001111000010
00000000101110100101011000101100
11111111100010000110100001011101
00000001011000111111111101011000
00000000110010001011011111011101
00000000100111101101100011100110
00000001110100111110001001010100
00000011000001011100000011111101
00000100001100100010100101011010
00000100100000001000000010100100
00000011111111010111000110000011
00000010110000010011111100101011
00000000110111000010111001010010
11111111100011011111111111011001
11111111010100110101000101011001
00000010100001110000110111111011
00000010110110100000000110100011
00000010001101010100101000100010
00000010011010010101110011011001
00000010100000000000100010011101
00000101001010000111000010111000
00000010110010100011001010110001
00000011101111000100110100111111
00000000101011100011111011000011
00000000000000101101010011111010
00000000111001110010110001101111
11111111000001010111100001111111
11111111000111111100001111100000
11111111001001000001100011101111
11111111111010111101101010101100
00000000011110001101100001100001
00000001000010111101111001001101
00000010100001110010100011001110
00000011101001000000111010001010
00000100101101000011010101011011
00000011011110100110001000000001
00000101110010111001110111101101
00000110001110011111100010010010
00000100100011001100001110111001
00000011010001011011110100010100
11111111110010110110100011100111
11111110001000111001011000110101
11111101101110011000100001001110
11111111010010000011101011010100
00000100000010101111101010111011
00000100110001110011100110100100
00000100000101000011010111001001
00000111001010110100011101101010
00000011111010010000111001011101
00000010101001101000011111000010
00000001011100001000000101100011
11111111101110111001000101011000
11111110011101101011000001011000
00000000010011100101101100000101
00000000110000000101010010100000
11111110110101101111110101000001
00000001001000101100110110100011
11111110101110011100000101100011
00000000100010000101001001111101
11111111010011000101010111001011
00000000110000111000101101011110
00000100100111000000100000111000
00000110100111000001110110010100
00000101000111011110000110001011
00000101001100000000011010100111
00000110001110100101000110011110
00000110101010001101001011000000
00000010111000110001101101010001
11111111010110110110110011001011
11111111101010101111000010000000
00000000100010001111011011110011
00000001110101000011010101010010
00000001100011100110110000010010
00000100010011001010010001010011
00000101100101101110110111111001
00000011101010001011101001011000
00000011101110011101101100101101
00000000111101000110100100001011
00000011000000110010010001110111
11111110111101111000000011110011
11111111001001001111101100110111
00000001001110101001111001010001
11111101101111001110101100011100
11111111001001110111001011001110
00000000101001110110011110110001
11111111100111111010000101010100
11111111010101101010111011011110
00000000000100101000111000110110
00000010110011000001100010000000
00000100101100111111000101100000
00000101101110000111000111101100
00000101100111111110010101000000
00000011101011101110110010001001
00000001011110011001100011100110
00000010100100001000010011000111
00000010010000100001111110111101
11111111101011111010100111010100
11111110100001100010100100011110
00000000111001001111010100011001
00000000010001100110010001010000
00000011001001101100010010101111
00000000111111001101000100101110
00000011000100110101001101001100
00000001111011100100110001100100
00000001011110010001110011100101
11111111110101010001011111011101
00000001101010001010101000011001
00000010000101110000001101111100
11111111110111011100011101111111
11111101110110000110110100111111
11111101111010011110111101111011
00000001101100100111110111011100
00000000000110110110100010000011
11111111011111000000011000010001
00000000001001000001100111001001
00000001011100010111100110010110
00000010101010000110001011010001
00000011010011111101101111101011
00000101000001000001101110101110
00000110000010011011100101000100
00000110010110001101000000100101
00000010101101011001000110100010
00000001110111010111101011100101
00000000111100111000110000111001
00000000001011010111000001111110
11111100110101011101100011100101
00000001111010011011101110000111
00000010111111110101000110101101
00000000110100100001011110010001
00000001001101110011100101101010
11111111100111011000100100000101
00000001100101101111110110110011
00000000101011110101000001010000
00000010111100101101000100101011
00000000101011001110010110110011
00000000010101100011100111101010
11111111001101111110111000110000
11111111000010001010010100100000
00000000110010100100001011010110
11111111100010100100110011000100
00000000100000001100000111010010
00000000100100001110110110111110
11111111001000111101000101110111
00000010000011011101110111001001
00000011000001101101111001110011
00000010100000001111010111010111
00000100000100011001110101110111
00000001010111001010111111101011
00000000100110111111101010100010
00000000000110111111011111110000
11111101001000100000110110110101
11111101101101011101101110001100
00000001010000001010011101100010
11111101100000001010100010110001
11111111001010101010111111100110
00000000110011110010001000011101
00000000010101010100100100010000
00000000011111110000011000110110
00000000101111011001101001011110
00000000111101101001100010111110
11111111101011110100010110010011
00000010100000000101100101011101
00000000010001101101000100100110
11111111101010000100010000011010
11111110110010101000111010111101
00000001101000100111101000001110
11111111010001111011110010011111
00000000011010011111100110011111
11111111110000100101010000110001
11111110111100010111101100110011
00000001111000101111010001110000
11111111101100100001011001100101
00000011000001111001001000000101
00000010001100010010111010111100
11111111010100010000110010011000
00000010100100001100001110000110
11111111000000111011111011100111
11111101110111001010111010100010
00000000011000001011111010010010
00000000000010000010000001001000
00000000110110100111010010010000
11111101110010000010111110001011
00000000011011000101110001100010
00000101100010101000101000111101
00000001010101000011101010000111
00000000100111110010110110000001
11111110111111110110001000000111
00000000101110011100000010110000
11111101110111001100001011010110
00000010100100110100001110110111
00000000001001100100001111111100
00000000000000010010101100001101
11111110110100010110110000010011
11111111011111000111111000010001
00000000111100110100111010100000
11111110111000110001111000100100
11111111111101001011010011001011
00000000000001110011011001010010
00000000011000000011110111110111
11111111000010111001010000111011
00000001001101110101100001001100
11111111111110101000100000100000
00000001010010010101110010010101
00000000001000100110011000101010
00000000010100010110010110001100
11111110011011010001011010000000
00000000100010100010100111100011
00000000010001000100100000110111
11111111000000110101110001101100
11111110010111101010010110001101
00000100010010101011001000111001
00000000010110001011101011000000
00000000110111100110110000011100
11111100101010011011010000010000
11111101111011000001111100111100
11111110011000101001000111011110
11111101011100111110010000010011
11111100010100001111011011110101
00000000010011011011010111001001
11111111010110100000111011011001
11111111001111001100001011101010
00000000011011010100011000111011
11111111111100110011101100101100
11111110101110100110010110000001
00000000001100001010100011101001
11111111010101001101000000011100
00000000001011100111111101000011
11111110110101001110101100011011
00000000010000100110010100101001
11111111000101101101011000010001
00000000110111001011011111001000
11111111001010001001101111011001
00000000011111101100010101111010
11111110010001010001000000110001
11111111100011100010010010001100
00000000011000100111111110111101
11111111010010100100101011010001
00000000111110001000110000011011
00000001101110100101011111110011
00000011100101001111101101110001
11111110110111001100011001110010
11111110000101010101100001100111
11111110010001000011011000001101
11111101111001111101010110110100
11111101110110101001101100001000
11111100100110000111000100110000
11111111010001110101111001001010
11111101101100010011000101010001
11111101111000101110010111011100
11111111011001100100001011001100
00000000111000000101000001101100
00000000001100011000000011011001
11111111001111111001101011000011
11111111100010011100101100011010
11111111000000011011111011100100
11111111110010000100101011000000
11111111001010001110101110100000
11111110101101010110000010000011
00000000110010100001010101111111
11111110000000000011111011000111
11111111101000101001011100110111
11111111010001110100010001100101
11111110001110011110001011010010
11111101001000111110100100110100
11111110100001010010001110100101
11111110011100011001111001100100
00000000001110101110110000001001
00000000011001101011100101011100
00000000001100001011000011010001
11111100101011011111111100111010
11111101010100010000101110001101
11111110111101011011101100011010
11111100101100100100111110110100
11111100111011010000101011000010
11111011100100000011100111100110
11111111001111111111110011000010
11111110011100001010110000010110
11111111101001011101000111100100
11111111101110100001110000001000
11111110100011010110101101101011
00000000001111010101100111101011
11111111111110010101001011111010
11111111010101010110111111110101
11111100111110011101101011101101
11111101001101000110110011001001
00000001010011100100001111110100
11111101111110101000001110110000
11111101100110010111101001000110
11111110100101001010101010110110
11111010111111101100101000001001
11111010101011110101000100110101
11111011011111100010011011001010
11111100010000110111001011101011
11111110000010111000110100111111
11111110011010000100100001000011
11111101110101000001100101000001
11111101001010111001100001110100
11111100010010110011010001000111
11111110011111111001101101001001
11111101100101101001111010101110
11111101010111010101001111001111
11111101111001000111001111111010
00000001000010001101110110010100
11111101101011010011100011101100
11111101101111010110110011101101
00000000110101110110011011000010
11111111101110010011100000011011
00000010000111100001010111000011
11111111101011111000010000000111
00000000001001101110011001010101
11111101110111001111010011000101
11111101110011100000010001001010
11111110001100100001110001100110
11111111001111100000101010001010
11111111101001101001110100000000
11111110110100110011001001010001
11111100101000101111000001011100
11111100111100000010100010010101
11111100100101110000011010101100
11111011010100100110001010011111
11111110011001111111010001011011
11111101000111011010000100110000
11111010110101011011001110100110
11111101000001100010111110011001
11111101101100100001011101100011
11111101100010001011100011000010
11111010101101111000110101000110
11111101110001110011010010111001
11111101000110101000110100001111
11111110111111000000111010100111
11111110100000111000001111011110
00000000001100100001010010100101
11111110101111001010000000100011
11111101001110010110011101001111
11111111000101100010110111010011
00000001001011011101111101010101
00000000011100000001111101011011
11111111101001111100010101000101
00000000111000011101011110100000
11111101110010110010010001001011
11111110111111100111111100100111
11111110100101101100011101000001
11111110011101101100110100101100
11111110101110000100111111000110
00000000110111001101011100110010
00000000001010000011010111110011
00000001100100100010111000000001
00000000000100001011001000100011
11111110100100100001110001100101
11111110010110101100100001001000
11111111110101011100011100110111
11111110100010000101111111100000
11111110111111110101011111101101
00000000001101111010001011010010
00000001010100100011011001010100
11111110001111100001011001011010
11111110101011010000010001101010
11111111110111110100100100011110
11111111001110011011010101010011
11111111111001111010101010110010
00000000100011110100110111101010
11111110111011001011110101010010
11111101101010010001000000000110
00000001001100000111110110011100
00000000011000010001001011110110
00000000101001100001000110100001
11111110110011001001001101001101
00000000001001010000001110011111
11111111110111011011000110111110
11111101011101000101101111111000
11111100110000011000011001100111
11111111100010010010011000100000
00000000101110010011001110010011
00000000011110101000111000001000
00000011100001001010001111001011
00000011110000100010000110001000
00000010010100101110011100000000
00000000111010111001111110100000
00000010001001111111011000100010
00000000010010111001000011101100
00000000011000001000011010011111
00000100001011110101010100001111
00000001001010110000011111111001
00000000100110010110011001011011
11111111111111100101110010001011
00000000100111010111110001100101
00000001001010111101101001010000
00000000110001010010100110001011
11111111111010110111100000110010
11111111000010100110100001100011
11111111000010011110110010001011
00000000111101101101011001110001
00000000111100001001010111101100
00000000011011010100101111010110
11111111100000110001001100111100
11111111111101001000011001011001
11111100110011101101010101111000
11111110101001110001000001100001
11111110110000010110001001101100
11111111011110001111011101100011
00000001001010001001101111110001
00000010001111111010110010101010
00000100011001111100011110110110
00000100011101100101001101111111
00000110011001001101001011000001
00000101100010101010000010100011
00000011111110101010101011101001
00000110010011010001111100000100
00000000010010010011000000010101
00000010000101101110110000010011
00000001110100111011011100010111
00000010010000111110001111011010
00000011000100011100010010111000
00000000010011011100001001111010
11111111100111000001110110111110
11111110110100011010001111001111
00000001101011010010011110010100
00000001010000010101000101100000
11111111011110011101111001011011
00000000110110100011001100100000
00000000101110101011011001100101
11111111101110001100110011010011
11111110110100100110111111010000
00000010000101111000111111101000
00000000011010000111100100101111
00000001001110001001000011001101
11111111101110010001000110000001
00000001000100111010110100010100
00000000010111000000100011001000
00000001011011001111000000010111
00000001000110010000100000100110
00000010101010110011111011100001
00000000100101111101000101110110
00000001001001101111010001010100
00000001110010111000000010010101
00000001111001100001101000011110
00000010100101001110110011100100
00000100000110000000111100001010
00000001000010100101100010001000
00000000010000101010000110110010
00000001111111011110111001010100
11111111110111001010101011100011
00000000100010010111010011111100
00000000011101100001010110011110
00000000010110101110111110000011
00000001110111010110101110011001
00000000101011000100100010000111
11111101110010011011100001111101
00000000010110001111010011111101
00000001010110001000011000000100
00000001100001011011010011110100
00000001100011001011101110011100
00000000111000110101111011010000
00000001110000111101010110100000
00000001000101011000000110100000
00000000001101100000000011110011
11111111111011100111100100000010
00000010000010011111111011011100
00000001010110110110001100000100
00000001110011001101111001101011
00000000111110011100100001001000
11111110111100100011100010111100
00000000100000010110000010000100
00000001010010101011000010110111
00000001001010000101001001010111
00000001111000000011001011110000
00000000110110110101101111011111
11111101111111001001010111010100
00000001000111010001011111011110
00000010111100000001010100001110
11111110010100010000001110010011
11111110110001101101100000001101
11111111001000101011100100000100
11111111101101000010100000110110
00000000011001100101010110100101
11111111111001000110001110101110
11111111110010101010101011010110
11111111111100011001011010111101
00000000101001000010000101011100
11111100101110110011010010000000
00000000100010111100000101100110
00000000100010011001101001111001
11111101101111001111101110000011
00000001010110110010101110100011
11111111001001000010010010100001
00000000110110111000011111100011
11111111010001001101010011110100
11111111011110011011000100110001
00000010011110010010010100111010
11111111111110011011111001111110
00000000000100110011100101011010
11111111101101011101010011000110
00000001100000111111010000000110
11111111000100011000010001101100
00000000111011001011101110100111
00000000011011010110011100110010
00000001000011000101010010110111
00000010101101100111010010010001
11111110010101110011010101000000
00000001001101110001001100001010
00000000101011010101010101001110
00000000011001000001010111010011
11111111100101010010110111101000
00000000010101000110000000100101
00000000001011001100110101101010
11111111010001101000110111101000
11111100101001111000000101010001
11111101110000000010000110100001
11111110011100100010011011000001
11111110011010111101110011000001
00000000100100001101001100010011
00000010000000001011111100000101
00000011000001100010000010111111
11111111100001101100100101010110
00000000101110000101100110101000
00000000001111010110000110101001
11111111011100110010000101000101
11111110000110101111110101100011
11111110110010111010111111111000
11111111110101011111011100100001
00000000001110101000011110011111
11111111101011001010110011000110
11111111111100010001010000010000
00000001101101010010010010110101
11111111001010100000000111110100
11111111111110000101111000011000
11111111001111101010000111011111
11111110111010110011000101000010
11111110110001001111011111000001
00000010001100111110110001011001
11111111011101100110000110100111
