11111110111101101000001100000110
00011001011111001100011100111000
00001010110001001011001101011000
00000010010101000101110001001000
11111010110100100001100000000011
11111010010110111111000101110110
00001001011101000010001001100101
00011010001100010001000010110011
11111001001010101010111110100000
00001101011111101101001110000111
11111010100001110100011001110100
00001010111000010111000011100110
00001000011101110111001101100111
11111101001001111000101001110101
11110001100100111101000100000110
00001100100101000011110110000110
11111100111111100111001101111010
11111011110010111111110110101110
11101100001011010001101010110011
00001000100111000011001101000001
00000100111000011111110001110110
11111100011110110010111111010100
11101101110000000010000110011010
11111111011110011110010111100011
11111110010101001100111000101000
00000100011100001110110010001011
11110110011111011110100001110111
11111010101110010110100101111111
00000100010011100101110011111100
00000111110111100111110010010011
