00001111111100110101010000101000
00010110111000011100001100001100
11000110000011100101010101111110
11010010100000000000000011011100
11010110100110001100101011101000
00001000111111000110101110011000
10111000110101110010000111011010
11010110100100011110101010011110
00111010101110100100010110111011
11000010010101001010110001110001
00001011001100011100100011110010
00000011000000000000010000001001
11100011010101010000101100101101
00010101000100101111101110001111
11010011000011001110101110010010
00101000011001100010010111100101
11111111110110100111001101011000
11111100010010001111110001111101
11100011111101111101100101001011
11110110110000011111101001100100
