11111110110111100000101010111110
11111111001010001111101011011001
11111101001111011100110000010101
00000011101101011010011110100100
11111111000111010100000011001100
00000011011011010001111010101111
00000100011111010011111110000010
11111000001110110011010100000110
11110100110001011111011100001000
00000010011011011000100010000110
00000010111000011110000011111010
11111100111110011110100011000110
11111100101001010011101110010000
00000001111000001001000001110100
11111110100010011001100100010111
00000010010110110111111110011101
00000000010100001101101001011010
11111101111001000001101010100101
11111010110011111100001011110011
00000011110001101010110010100000
00000000011111101001010000101000
11111110011000000100101101110111
11111110110110000001011011100001
11111100110111001110101110010000
11111110111110111010010000100011
11111111001110010101101001100000
00000100100000101101001101010101
00000011010111001111010100011000
11111111011011101010100000010000
00000000101101111110111110010010
11111101110111101100001111010110
00000111010000001101010111010111
00000001000100110000110111010000
00000000101000001100111011111110
11111110011000110111001101110111
11111011100111101110110110000111
11111111111100000110110000010011
11111011111111110001100000100000
00000000001111110011111110001011
00000110110101010011000111100100
00000000010100101100100001001011
00000011010011011000011011001110
11111001100101001010100000010101
11111101000000011000010101101111
11111011000000011100101010101010
00001101000101011011111000101011
11111011000010000110010011101101
11110110010011110001110001001111
00000000011010101111110001100101
00000011100110000000101110001010
11111101101010100000001100010011
00000011011011010110100000101001
00000010111000101011000101001000
11111101011111100011111011110111
11111111000110000100111000011001
11111111100100000110000100111111
11111100000111110100011100101100
11111101110101111011010110110111
00000100000010010100100100101111
11110111000100000100110111000110
11111110011001111010000010110100
00000110111000001100000110000001
00000000101100110010110110111000
00000001111110001010101011100010
11111111000101010100110011011111
00000011110010101000111001111011
11111111100110111110001110100110
00000011000100001110000010101011
00000010011111101111011110011111
11111100000011101001011010011000
00000001011000100000101111111010
11111110000101111111011010011011
11111111111100000011110011101000
00000001111110001110010010100110
00000110000110101000111111110111
00000001011111010001001100101100
11111100010100111000100011001100
11111111000101011110111101001000
11111110000001110101110000000010
00000011000101110010011100101000
11111100010000100010110110101001
11111001010111101110110111101111
00000110101110001000010110010110
11111001101101001000001110000000
11110101010011011100010010000111
11111110101111000001100111110010
00000101010001101101111001011110
00000011110101100111101011101111
00000000110011001110100001100101
00000000010000000111110000001010
11110101101000100110011101111111
00000000100111101001010010011011
00000101101010111110000000111000
11111100100111000111000000101110
11111010010101000000000011010000
00000011100011111101001101110101
11110101011100110101000010110101
00000000110111011011001110001001
11111110001000010110110110011101
00000010000001101100111001011100
00000101101111110110100001000100
11111000110010001010111011110010
11111001000000000000011110000110
11111011100001010001100100100000
00000000010100000011000101001011
00000000011111110011111010101010
00000010100111000111101010111100
11111011111110100010000010101110
00000010111101000010010110000000
11111101010010101100101011010011
11111110111010001001010010101010
00000011100011000100011101010101
00000001010000001110100110100110
11111101011111000011100100111100
00000001001000100111000111011101
00000010001010001000011010110010
11111011101111100111011100011001
00000010100001001101101111100100
00000001010100010101011111101001
11111110001000110110101110001100
11111101110111101101011001001110
00000111111101011101111111010010
00000001000111101110100000100001
00000100011000010010110000011101
00000011111010110100001110100011
00000010000101110000100010000111
00000101000010000110101000001100
00000101011001100010101001100011
00000001111100010000000001100011
00000010001010011111011101001000
00000001100100000001010001010100
00001011001101011000001011001101
11111001110001010011101000110101
11110111000101101000000101010111
11111111000101100100010110111000
00000001000010010001001010001101
00000010000001011100000111000100
11111101001101011000011110000100
11111011011101101001101110011001
11110101001010110101001001101110
00000001010000101001100110000111
00001011100110010110100000101111
11111111011011000110011111101010
00000010100001001010011010101010
00000100110101101011110000011111
00000001101101011100011010000111
11111011011010100100100010100110
11111111001111010111001011010101
11111100010111010011010001011000
11111101000000111101011010100010
11111100001011010111100110000100
00000001101111001001101001101100
00000100000101111000111010101010
00000110111000001101000101011011
00000011101001110111111110000101
00000011101000101011011100000110
00000011001101001001101111000011
11111100011000001110100110110101
11111101000100110010101010011011
00000010011010011011101000000010
11111100001101100011101100000010
11111010011000011011110001001101
00000101101000111100101110001011
11111111010000000101011101000111
11111110000010101101010101100101
11111101101000111101011111011011
11111010010101100010111001011111
00000110010000010010011110010111
00000000001000111001001000110010
00000010001111100010111000000000
00000010010010010001001110100101
00000000101011001111101000100111
00000010101101011000100101001000
11111011110111011010001000001101
00000110101110001101110011001111
00001000000001111000000101111101
00000011110111000000101101011110
11111110010001100011000110000000
00000000110100110010111010010110
00000110111111010110111110111100
11111111111001001010000001100011
00000001101110011111110100000001
00000111100010111000011110101011
11111001010100110010001100010110
00000001011101111100001010011001
00000000111000000111101101100001
11111100010111111000000111011101
00000000110011010001011111101010
11111001100010110101011010010101
11111000100111101001111000111101
11111001001110100010111000011010
11111110101001100001111101000110
11111110010100010111011100011111
00000101011010000001100100100010
00000011011101010001111011010111
00000000011110111001101101110011
00000000011100011010000101000101
00000001101001111100100011001111
00000100011101010010111101000001
11111100101100110011010110100101
00000101010001111011110101011010
11111011011000000110111110101000
11111011101001101011001000011111
11111011011011101111111011010101
00000001000001001011001101011010
00000101010110101000001110000000
00000010101101001011111010011110
11111101011010011101110010110110
11111101101100100100100000110111
11111110111011010010000110000111
00000001111010001001111100100000
11111110001110100100111000001110
11110101101111000110100010100110
11111110001101101010111110000011
00000001110010110111001011000011
11111101011111000000001001010000
11111100100001111100001001001100
00000001111011111100001111000100
11111111000111011101100101111111
00000001010100000111100111100110
11111110110100110110010001100101
00000001100011110100011111100100
00000000000111011000010110010010
11111110111111001000001001011111
00000011111100001100101110011101
00000110000001100011000011101011
11111101100111010111100010000100
11111101011110010000111010000111
00000000110001110110011110001001
00000000101101111001010000000001
00000010101001100011101010000110
11111110000111000011000001001101
00001000011111011110101010100110
11111101111101110010001110110011
11111110010100110111101100100101
00001100000011010011000111001110
11111101110110100010111100011101
00000011101100011001010011100110
00001001100011010011000001101011
00001010000011111100010000110111
11111011100011100001000001001111
11111110111010110110101111010110
11111001010001011001001100000110
11111110001010101100111011000110
11111111000101001000110110001011
00000010110110111101110110110001
11111110111000000111001100110000
11111011100010001110011101000110
11111011110110110001001011001110
00000000010111011110001011001011
00000010101111000111111010000111
11111110100011000111010000010100
00000100111001001000011010001010
00000011110011010001100010111101
11110101011010011100001100100100
00000000101100010011110011000100
11111000101010101011101010101011
11111010110100101011001101000011
00000000010110010111000101111010
11111011001111000110010111000110
11111100000011001010001000100011
11111111001110001110010010110111
00000100101101100101110011000000
11111011101101010011101100110000
00000001100100111011100010101000
11111110111111100011100001001111
00000010100111101100111001011101
11111100000111101011011101000100
11111111011101110010100011001110
11111110001000101110011000100110
11111111011000101001110111111101
11111010101101001110101010011110
11111001101000000100010011010001
11111100100011010100001011010010
11111001001100011001011010110001
11111111100010100010010011110111
11111010001110111000100100001111
00000001110100001111100001001000
00000001011100001010110001101110
00000010101110111111011011011101
00000001101101001100110001101111
00000000010100100000010110000100
11111100101011001000011111010101
11111101110011100110001101011101
11111111100011110101111101100100
00000001000001000010110000000100
11111101001000001011011000101111
00000001010110010101010001001000
00000010101101111010011110001110
11111101011011110110110100010101
00001110000100100010100111111100
11111100001001100010011011001101
11111100001101110111010011111101
00000010001011010111111001101010
00000010110111001101010000011011
00000000110111111011011000010001
11110010001010110100010010011001
00000101001000011100100110011000
00000101100100101101000111111100
00000000011111000011111100100100
00000110000101110010001111100011
11111010101001101100101010101011
11111100101011111100101100100010
00000001001111011110001011010010
00000001111011101010111001011100
11111110000100000100101011111010
11111100111000110010000010101001
00000010001000110101001100000010
00000001011001001000110010110011
00000011011110110010001100101001
00000000110111000011111110000101
00000001101000011011000101011100
00000101011100000000010010000101
11111111001101000110000110111100
00000010100100110001100000100101
11111110010100101100000101000010
00000001001010011110111000011110
11110111110010001010111101011011
11111000000101101100111000000111
00000011000110101100011110000110
00000000101001110001111011100111
11111111011011001101001101010010
00000010010011001011011000100000
11111001011010000001010010000101
00000000101001001001010011100010
00001000011100000110010111101001
11111110100001011000010001110110
11111101001011110110111101101101
11111110001101110100001001110110
00000100101011010010001001110100
00000110000111010101110101110010
11111101000001110011110100001111
00000100100010101011000010011001
00001001101101100000100101011110
11111101100000100101100010101001
11110101111101111000001011111010
00000010100000101010100011111101
11111111001011011110100010101101
11111111111010011010110101101011
11111101001011100111110010011101
00000101100100111100110011010010
11111001110100101100101011100100
11111110001001011111010011010100
11111010000101010101110110111011
11111011110101000111011101011110
00000010001110111110101110101010
11110111111111011110100101110100
00000001011101011000101100011010
00000010010001011001111011000011
11111101011111110011011111110100
00000100100010000111011110100111
11111110100001000111000111111110
00000100010110000010011101101011
11111111000100001100011001111001
11111111011111001001011000101100
11111111011001101100010011111010
00001001001110101110000110011011
00000101111101111111101100111010
11111111010110111110101111001011
11111110110101101000000110110101
00000100000010100111101101110100
00000000011001110100110000100010
11111101010011110110110010101110
00000010000110001111110001010111
00000011111010000100101000111011
11111011011010000011100000000001
11111110100010010011011101011100
11111111001110100011100001011011
11111110000001111100001101010001
11111011111010011001010111101000
11111110110110010011001010110000
11111101011000011010100111100010
00000001100011110111101010011101
00000100111001110001111110111010
00000011101010101001100001011011
11111000111110101110010111111100
11111111001111101101101000100111
00000011011111011101011100110100
00000000110010111010001111111000
11111100010111110010000000101010
00001000001001011101100110011011
00000001010111101110001101110000
00000001001100101111100001001111
11110100001100100111100001110111
00000000001011011100101001010001
11111111100100011101001111100010
11111001100011001011110011111111
00000010001101011111010000100110
11111100011010110111010000111001
00000100001110100100111001010101
00000011110000001010101101100001
00000001000010101110111011101101
00000001010000110100010011001000
11111011111000011110100100111010
11111000001110101000000011101111
00000001010101110111100001100110
11111100001000101101111010011001
11111001101010000001010010001011
00000111010101110101100000001100
00000001011101001001000000101100
11111000010001111010001101100111
00000001010000101011101001110100
11111111011100011111010010011101
11111111100000111111000001111011
00000000110000110000011110001101
11111111101011011111101011100011
11111111000100010100111010100010
00000000101111001000111110100110
00001010000101011101101100101110
11111101010000100000111010001111
11111110100010011010001101100100
11110110100000110110001001000001
11111011111110111011011000011010
00000001011111100110000011010001
11111101110111110000000000011000
00000001110111000000000101001100
00000000100000100011100011110011
00000011011000000110101000001101
00001011101000101100101100000010
11111110111101001000011100110110
00000001001111001101000010010100
11111110011011101100001011011010
00000010110101011011010000001101
00000100001000001011011100001000
00000000111111110011001000111000
00000110100010101111011100100111
11111111100001101100000111000011
00000000111011000101000100011110
00000010101010000111110011010111
11111100000000100100101110001000
00000011101101010001011110111011
11111101010111110000010001101010
11111001100000011000111100101011
00000110010011011001100110100001
00000011101110100000010101011100
00000011110100000111010100110100
11111111110101011110010100010101
00000000001110010110100111010011
11111000000100101110110100111011
11111101010111101011001101000000
11111101111011100010010010000000
11111111000110000110000111011011
11110101010110010101110010111001
11111100110101111010100011111100
11111001111100110100100101000100
00000000010100100111110001000101
11111110101010101100011101110010
11111111100000010110000010110010
11111011111101001101101011101011
11111111110001011001101011101100
11111111110010001111011000111000
11111001010001110010011110001001
11111011001100100000111011101011
11111110000011001101001111111100
00000010101000111000001010101101
00000001000011011110111110101010
11111110001000000010101000010011
11110111001011111101000000010100
11111110011100001001001011100111
00000000001001101010110101110000
00000010110101100011111100100000
11111100001110011100100000000100
11110110001010111010110000000010
00000000110100101110101100111110
00000001000000111100111001011100
00000011101010011100000101010101
11111111100011010111100111111010
11111101100100011111100011010101
11111011010111111100000011101100
11111110011011100100001011111100
11111010000111000000011111110001
00000010110001011010110100100001
11111110100100000010000110101001
00001000101010010010101010000110
00000001110111110011110010100101
00000000100010000110011110110010
11111110111110000100111011011101
00000100111101101101010101110011
00000101000111010111010000010100
11111111100110111001000100001011
00000110001001111011011111010001
00000101000111001100001111111110
00000000011010100101100101101010
11111111100011011111010101011001
00000001000110101100001011101101
11111011111011110101100001111110
11111110001010000001001100001110
00000001100000111100100011000001
11111101100001011001011100111010
00000101110011001100001000000001
11111111010101101100111110010101
00000011001111101111000100111110
11111011000101100100010111100010
00000010001110111011101011111111
11111101011011110111101001111110
11110111110111110010111010011010
11111011001000100100000111001011
00000100110001101101011010010011
11111010001011001001000000100110
00000000101001001001001000101110
11111010110101111101111110001100
11111101001000101010101111110100
00000011110000110000011000111001
11111100101011000110100101001010
11111011111011000100110010011110
11111110110110110001100000001110
00000110101010000100011010101110
00001000111001110110000111100000
00000100000011111000101111010000
00000101110111010101111110000111
00000010011100011010011011111011
00000001001011001100101100100100
11111100111101101110000000110110
11111110001101111000100110110001
00000101111001111001111011010001
00000010001001111100010000000100
00000010110001011001010000011110
00000001010111000100011010000000
11111011011111011001010000101110
11111101101111001100000001000010
00000000100110000110000001011001
11111001110100101100110100011000
11111110110010101100001110100011
11111100101011101111101000111000
00000001100000100000110000110111
00000010010011111100110110110101
00000001010001100001101110010000
11111100000011101000000110111110
00001000001000111000011100010000
00000011001110110011110111010010
00001000011010101110101101010010
00000010001001110011111101001010
00000100100101010111101011101011
11111100111000000101000100011010
00000110111111110111010001110010
00000100110100111111010011110000
11111111011111110111101000000010
00000001101000011101100100001110
00000111111011001111010010100110
00000011101101000111100000001010
00000001101001000100111101000011
11111100100010101000101011010100
11111111110101110100010100000011
11111111000011110110111001100100
00000000010010011011111011000000
11111011101100001111111010011010
11111101010100000100110000111000
00000110110101100101111110100001
00000101011101110011110101011010
11111010111001100011011101100100
11111111101100010010010100001110
11111110010101110101100000011000
00000110101110101111101010000100
00000110001100000100101010101110
11111110111111100011111011100011
11111100100001110000111111111100
11111101010011101101010010111111
11111011111001000110011101100101
11111111001001001110001010101101
11111101111000111010001000111111
00001000010010110010011010101010
11111110010111001101010001001011
00000001101111100000000010111110
11111100101001011000100111011100
00000011100001101101001101011000
11111110010101000000110111001101
00001100000011111010010100100000
11111110101010110101100110001110
00000101110110111011111011101011
11111011111111110111101000001100
11111011100001100111010110011100
11111100001100001101010111111001
00000100110010110001111011100101
11111111101100010100100011111101
11111001111110100100010001110001
00000000011001010010111011001110
11111011011101000101001100110010
11111110101000010011001100110100
11111010110010001010110000110011
11111011010001111011111100111111
11111101100000110100010001101010
11111110101111010100010001110011
11111100101101100010000100100100
00000001011100101111100110001010
00000011100110111001100110100001
11111110111101010011000100100000
00000010111110101010110011011010
00000010111010111010000001010111
11111010101110001010100111000001
00000101100000011010110010100101
11111101001100110100101010100001
00000000001101111101001110100000
00000010011101101011000011000010
00000010001000100100010111011100
11111011001110010100011100101110
11111110011000100011111011101001
00001000111011100100000111111101
11111100011011111111010101100111
00000000111110000111100100100000
00000010101001111010000110011010
11111101100110011101111000001100
00000110100111001110001000101010
00000110010110011001111001100000
00000000010110101000110100011110
11111100100010101000000000100011
00000001010001110001111000110000
11111111110011110011111101011011
11111101111001010101001111101111
00000001101101111101001000001010
00000000111011100010111111010111
00000010111000010101110011111111
00000000011000101000100100001100
00000110001110010001110000011111
00000001101100000011110110110100
00000000111101100110100111011110
11111111011101101010011110011100
00000000011101100001001010100001
00000011100110001001111110010100
00001001101110010111101010000001
11111111010001001111001010101100
00000001101100111001100111110111
00000000001011010100010100011011
00000011011101100011101100101101
11111100110101011000011011101011
11111110111111100111100110101011
00000010010100001100001111011001
11111100000101001001001111000101
00000000100101111100011010111000
00000001111110111000100001101011
00000001111011110110111101001101
00000010111011101111110111000011
11111111010100111100101111010011
00000010111110100010101100010000
11111110001101110001100100001000
00000001001101101111100011001001
00000000010101011001111011111010
11111111011100011111111001001101
00000101100111100111110111000110
00000000101101011000100110110111
11111101000111000111111101011000
00000101010011101100111110001100
11111100010000100011111000000011
11111101000011001001100001111011
00000111011100101100100001111001
00000000100101110111000110100000
11111100111100100001101010011101
11111111100110001000110010010100
00000000010110001101011011110001
00000001111001011000000110010100
11111000011010111000100010000101
11111100100101010011100100100110
00000010011001000111011000011100
11111100101000011110100111111100
11111111011010111100001101001010
00001101011010101110010010111010
11111101011000001100111001000100
11111110100010101001110001110001
00000000111001100100011001001010
00000100001011101100001010110100
11111010000000001111000011000111
11110110111111001101010000000110
11110011011110001001110101110000
11111011101110010010001000111010
00000000011010001110100010110100
11111111000000010100000001100011
00000001111011011100000110010100
11111111100101010100101101110001
11111110110011011111010110010111
00000101011100000001011011100010
11111111010011101001000011100110
00000010100000000101001010100001
00000111000001000000100011011101
11111100011010011000001000010101
00000101100101011000010110111100
11111011111001000111111001111100
11111011101010111000000001100110
11111111001111000111000111001001
11111101111011010011001100011001
11111101101110111111110111010111
00000010000011110010111001110001
00000111001111001001000000110010
00000100010001000010100010011000
11111010111111100010111101001111
00000110000010111110111000101111
11111100010110101011111011100110
11111010000111110101101101111010
00000000010100010000010000000110
11111001001110001100110010000101
11111101010111010100100100110111
11111010011110111101001001000000
00000100001001010111110101101010
11111011100110011001111100000110
00000110010101110100000001001100
11111011100010100101001000100011
11111111011010001100100111010100
11111000000111111101101101010111
11111110000110100101111001101100
00000001110011111000100011110101
00000101101100100100100001100011
11111101000100101001010000000101
11111100000011110011000000110110
00000000101011101101110011100001
00000101101110110111100110001111
11111011000010010011001101110011
11111001101110000100000001101011
11111110000111000001011110010110
11111110110000011000000111111111
00000010001111110010001000010001
11111111000110110100110110000001
00000001110110101111011101101111
00000000001111011101101110010001
00001010110011010010100100101101
11111110111101110000010110101000
00000000100011100101111110011111
00000010011110100000101000000001
00000100100110100011100110011011
11111100001001010111101110100010
00000010100001010010110110011111
11111001000111010010100101101010
11111011010100010011111010111010
11111110100101101001010111110010
00000101000001100001110010000100
11111110101001011010101000110110
11111111001100100010001111011001
00000011110100010110011000110000
00000001001001110111000001111011
11111111101010000001101010110100
00000111011111101010111001100011
00000010010100111000001001001101
00000000001011001011110110100100
00000000000110001011001000000010
00000001111100001001011001010001
00000010100000101110100101100111
11111100110010011111101011000011
11111110100101011100101010010010
11111111000100011100011011000111
11111100101010101100010010010010
00000000010110011011101110000011
00000011011011111110101111011011
00000000000011100001101111110011
11111100000000110001101001100001
00000001011110001011001010000100
11111111000101011001111110110101
00000010010110010110011111001001
00000001001110110000010011001110
11111010001011110110011100000010
00000110111100111111111011000111
00000101010010010100011011100010
00000000001111000011011011000110
00000100001000010110000010100010
11111000101000101111100000100010
11111010101111111001000010000111
00000000000111001110001101001000
11110111111010010000000100110001
00000001011101111101101111000010
00000011000110101000001010010110
00000010001011110101100110001010
11110111001100000010110001100000
00000011010000111000010001001100
00000000010011100110100100010011
11111010100011110010011101110001
00000000010110100110111100011000
00000100100100011100101000111011
11111010000001111111001001111100
00000011010100111000111011010010
00000100011101011100001011100101
00000011101110101101110011100111
00001010010110010000001111110010
11111111010100101111100001110100
11111101010001101010111011110111
11111100101101101101010011110010
11111110111010011001101100101111
00000100001111010101100100111101
00000000010011110011000110100001
00000011111101100111011111100011
00000010001100110111010000110100
11111011010101100010110110110001
00000011100101110101110111101000
11111011000111101010000110101101
00000100000110011001101010101001
11111101110111100000111000001010
11111101001011011000100000001010
11111111111111111011000011001001
00000001101110101010000010000100
