11111110100010100010101110010000
11111000011001011010110101100000
11111011100001110011000001011100
11111101100111101000010110100011
11111100111111110111111100011101
11111111111001010010011010100001
00000010100100000011001010101011
11110110100001110001001011011011
11111111000100000111011000110100
11111101000010000001110111100010
11110011001000110101011111011000
00000101110011110011111001111001
00000000111110010101110011001101
11111111001101011010111000111010
11111110001100111000100001001001
11111110100001111000001010111011
00000101000111001000110101010100
00000100011100101011110111010001
00000000111010100011011000110010
11111100011010111011100010010100
00000011100110100101011000101100
00000000001001111000110001001111
11111101101001000010010100001110
11111111110110000110000111110011
11111101111100001101011001100111
11111011110111111100101101101010
00000100011110001000010100111001
00000101110111101000001101010101
00000010001100000101000010010111
11111100100101101011011011011000
11111110101111101101010110100011
00000010000000001000011101000011
11111101010010000101110111011011
11110010100001101011101010110111
00000010101011101010110001011100
11111101001100110110110001010101
00000001100011111000011001101001
11111110000111111010111100001010
00000100011011101100001011100000
00000001111110011111011011101110
11111110001110000010110110000010
11111010101001011101001110000001
11111110110001000111101111100100
11111110000110000101111101010101
00000000001010110101110111100010
00000011010111010110010101011110
00000111001100100110010100011111
11111101101001110110010011010101
11111110101100100101111100010000
00000000011001110000001000110000
11111111110100100111111110010001
11111101011101001010010101100011
11111110000100001100011000101001
00000001101110011011100010000001
11111010011101011010110100110110
11111110100101000101000011100100
11111110000001110110011001011000
11111101011011000000110110100010
00000100011111010111010001111100
00000101000000011100100001010011
00000010010111000011110100110000
00000011100111111100010001100100
11111010111010111011111000010010
11111010101001010101110110010110
00000000001101000101111001011010
11111110001001100001111011110100
11111111000100100000011100100101
11111110010100010111011111111111
11111110110111001101101101010100
00000001001101101111101101111111
11111101101100101101010111001111
11111001001010100110100011100110
11111101111101011001101000011100
00000010001011001101011011111011
11111110010100111111110110010100
11110100000001110011000000011011
11111010100011111110001110001011
11111011001110101101101110101100
00000100111010010011011011110001
11111111010101001111100111110101
11111011101001101010000010011101
00000000111100000100100010011001
11111111111110011001011001111000
00000010001000110000011100110000
11111100001101010101101000000110
11111011100101011011001000001001
11111101111111101001000100010011
11111101001111010111100000100000
00000100000110100100111011010001
00000011100111101010001100001010
00000100110011011111000110101011
11111010101000011010111000011000
11111101101111101000110010001111
00000011101110000110111100000001
00000100000000011001001110001011
11111100100000000101010101101010
11111111011110010011001000000111
11111001001001110110010101000110
11110101101011101001011101011100
11110111101111110111001001001111
11111110111000100110010010000001
11110111111100110011011000100001
11111001000000010000000110010001
00000110000010001011000011101001
11111110011010010010110000101110
00000110101010011110101100011000
11111100100001100100000101001110
00000101100100011111100110000101
00001010101111110111000111111101
11111101100001000111111011010001
11111110111000110000110100100010
00000111010101110100111100010011
11111111111000001111101010100001
00000000110101101011001111110011
11111111111111101110010101001011
11110101010110101001011000000100
00000000001011101110001100100100
11111110101110001001010001101001
00001000100111010001111000010100
11111011100110101110001011110111
00000111111011001101011100001010
00001000100011010110000001000101
00000001100110110011111001100010
00000011111110010011101000001100
00001000000100001100110101110100
00000010110011000100011010010101
11111110001111010011011000110010
11111100111110110011011110111110
11111111101011001011010111000110
11111100101101010100011110010110
00000001000101101000001000111001
11111110000010000111011001010110
00000011111000110010111110101110
00000000001110010000110110001111
11111111111110011110000100011011
11111100001000101000100010111111
11111110011110110110010001010010
00000000010111100001000110110011
00000100110001000011101011100011
00000001001100011011100001110000
11111101100101100001110110000001
00000000101011101011100001110011
00000111111100101110010111111100
11111111101010001110000111100001
11111011001010000011011111000101
11111101010100111010000111101101
11111000110110111000011101100111
00000011010111010000001110010100
00000100000000110011000011110100
11111100011100110111000001000100
11111001100101101110001101100010
11111100011111111100011010101100
00000101100011110101011011101111
00000011101011101111011000111001
00000001001011011110011100011010
11111010010011010110000000000001
00000111100010110111101011010111
11111100101100101010110000111110
11111111001001011100100011011011
11111010110010111111111110110100
00000111101011010001111011001111
11111111100110100100100011011100
11111110011101001011011001011110
11111111111101010100111011000100
00000011001000010011110101100100
00001001000000010001001010100100
11111100010011001110111011100100
11111011000010010101001101100010
00000001010101011100000110110000
00000001101010101110101110101101
00000011000001011101100111000111
00000111011111101010101111100000
00000000011111111011101000011001
11111111110110101000000001100010
00000001000111100101110100010100
00000101001101001111111010011100
11111110101010000111011001011010
11111111000010100010100010001100
11111100011101111100110100100001
00000011110100010000011110011111
11111100111111010001010010110101
11111110011010001010011110111100
00000101111110110111100110101110
00000011010100001110001001001010
00000011100111100100111011000000
11111111000010011101100000111100
11111000111000011110011100011000
11111010100001000011101111100000
11111111001101011010101000001011
11111100010001011100101111011100
11111110000101000001100010001011
11111110111111101111011010011100
11111100000000101110001110110010
00000100111110111011000101100010
00000001100000110000011110010100
11111111101111101011100110001001
00000010000100111011001111010010
11111001010000100001111010010001
00000000100010000101000110000110
11111100111011101101011111110001
11111100111100111001000100110100
00000011010101001001010001000011
00000010000110001100110010000100
11111111100011100011101010001000
11111100010000100010100101110000
11111111001110011010010000110110
11111110100000001101001010001010
00000010011000001010001010011111
00000011001110001101100010010010
11110100111101110001101000011011
11111000010100100101100111000000
00000101011101111010100111111001
11111100100110001011100001111000
11111111101100111110111111001111
11111010101011010101100100011100
11111010001110010110100101111100
00000001110000011010011111101010
11111110001111101011011011101111
00000001000100101001010000100101
11111110111011100101010011101101
11111010101001110111011110111110
00000011100111000001000100110100
00000101101000001111011011100100
11111010000010101000011111101100
11111111001101110001110111111001
00001010000111011011000010100001
00000000001000110101011110001000
11111100000000111011011110100110
00000000111001010010001010000100
00000101111110111001111001100110
11111110010111000101001111110101
11111011011100000100101010001010
00000000011101100000001100101101
11111001010000110110001111001111
00000011001000100000101000111011
11110100011111100001001101000010
11111111101100110100011011011110
11111110101011001010010011101010
00000010101010110100010000001010
11111111001111111100110111110000
00000001011110000100000011111110
00000010001011100100001110110100
00000010100010111010111010000000
00000100111111100001100100000101
00000011011110100010010100110011
11111110111010001011011101011000
00000101011111010110001111100010
00000010000110110101010101011101
00000000100100001010110100001010
00000010100010000011110010011000
11111111001100100010100011110000
00000011011011111010110100110011
11111110010111011101110100110000
00000100000111010110111010010000
00000110000101111010101110010010
11111111000011000001111100110100
11111010000101001011111010100001
11111101111000010100001100011010
00000110010100101100010000010100
00000001000011101011100000011110
11111010001001110001110101001011
11111110101100010101111110010010
00000011111010100100000011011011
00000010010110010101011001111010
00000110011001001101101011101101
11111111100000010100000111011101
11111011101000100000101001101110
00000100111000101100000000001000
00000010011000001000010001010110
11111110011101011100111011100001
11111100001111010011011101101110
11111110001111101111000011100001
00000010000011100111000100100100
00000000101110101101011000111101
11111011101110100010100111001000
00000100011001101100111101000010
11110010010000000001011001111000
11111011110001100001010101110110
00000100111101101100011001110111
11111110111010100101111000001110
00000000100110110111100110100010
11111110111011111110001101011000
11111100100101110011111011001110
00000011000001101011000110010011
11111010110111100101001101110111
11111100001110010000010011101110
00000000101110101000111110010100
00000001101100000101010111101111
00000011010010101001011111110000
00000001010100101100000010101111
11111001100101110010010100001101
00000000101110111110001011001111
00000000000110111000111111110001
11111001110101010010100010011111
11111010111011001001111100011101
00000101000000010010100100001110
00000001111101011010010110110000
11111011101010010000000101001111
00000010000110111000000110010100
11111110000110110000110010001110
11111100000010111111110001001011
11111111000101100001100100111011
00000100011011010001010101111010
00000100101110110100000101111111
11111011011001000010110101010101
11111011000010001110100010001000
00000000110110111111101111100010
00000010111010001001011100010001
00000101100110011110001111001010
11111010111101100000101111000100
00000011100001011101101100001011
00000011001010011100000111000000
11111110100111010010110011011110
11111111011101010001010111111000
11111111011011011101000100010101
11111010110100011101100111110111
00000100110111110100011111000000
00000011101010101100010100111010
00000111001011110110111110000011
00000001011101101110101010001001
00000001001000111101110010000111
11111000101100110001000111010101
00000001000010110110100011110000
11111110000010101111011100110010
00000110100001011111110101100110
11111111101101100111010010111110
00000101011011101011101011000001
00000011101001100111011111001011
11111101011010100111000110110100
11111011100111111111001110101110
00000101110111111001010110100110
00000001000001011100110101010101
00001000110110010011000000100011
11111001010011010100110111001100
00000000111010101101111000111011
11111101101000100001100111100111
00000000001100010100100011000010
00000000010010010010011100100011
00000000000110000111000111011110
11111111101110001111110100010100
00000011010111101001111000101011
00001010011001000011001101001101
00000001101000100110110111011110
00000001011010001100010011011010
11111010000100000101000000010001
00000001000100011101000110011011
00000010111110100001011101100010
00000111010011111001010100101111
11111100111011100010100000011101
00000001100000000010010100000101
11111101001011111110000111100010
00000010010101010000000110111100
00000011101011110101111110010101
11110101001000110101010111010010
00000001101010010111100110000110
11111111000101110000110100110100
00000011101101110101011000001110
11111100100101001101000001110010
11111100011111111011010101111010
00001000110011110010110010100111
11111110011111011101110011011000
11110101000011100000000011111110
11111111010001011100100100001110
00000101101111111000000100110100
11111001010101011111110100110010
00000010011000111111011100001101
00000001001000110000110010111011
00001000100000101101001000110001
00001000001010100101111000111111
00000100101101001010001111011101
11111001010000011000001010100001
00000010000011100001111000111010
00000011001100010000000110100101
11111000000100110100000001111011
00000010111011010001011010111111
11111111001011111100100110101010
11111011111101110011111000010001
00000000000010110000001101001010
11111000100010000100100101111101
00000010110011000100010000011000
00000101110010110000001111101010
00001011011110101100101101000000
00000010110110100110100011001010
00000001101111110110101011110000
00000010000111000010111110011011
00001000011000000100110111011000
00000000101111011111011111101000
11111110001010010001100110110001
00000100101001110000001001111010
00000010000000100000001111001101
11111000100101001010000000101001
11111011110000101000110000010010
11111001101101011110110111000111
11111101010110000110011000000011
11111101110101110011100101100110
00000011111010100101110101100001
11111111001001101101000111000001
00001110100100100000100100001100
11111111010100010011000000100010
11111010001000110011010011111001
00000011001110000100001101010101
11111001001110110110010001000100
11110101100101111001101111011111
00000001101110010011010001111110
11111110000011110001010100100101
11111100110110111101101000110011
11111111101011111111001100010011
11111101011101101000011111101101
11111110001111011101010010110010
11111111001011011101000100011011
11111111101111110101011010110011
11111001111010000001111011010101
11111001111101000110011110100111
00000100111101111000110000110001
11111100001001010111011000000001
00000100100010001100001010001111
00000000101101110101110000000011
11111110010000111000000011000011
11111101001011111011100011000001
00000101101000100110010100110001
00000101100010110001010111111010
11111011001100010110100010011100
11111101110011010011100100000110
00000010100010100001100101011101
11111011110100010111100110010011
00000000101000100000100111101000
00000010011111010010110100001001
00000011011010000001111110011100
11111010000000111111110010101010
00000001000101111100011000000101
00000011111001000000111101001100
00000010110000101000100111000101
00000010110011100011111001000100
11111011001101101110111011011000
00000001110110100110101010000000
11111111011111011101001010101010
00000010110000110111100011100010
11111110111101110110101110011100
11111110110110010001010101110111
00000111000101101010111010011001
00000011011011111000000100001000
11111100100101111011100101100001
11111101101111110100101111011000
00000000110001011110101111100011
11111001110011000000111010010100
00000001100101110010110011101111
11111110010110101110011101010111
00000001110000001111011110011111
11111001010011101001000000010010
00000111000111010001111010110110
11111011011101011000011110001111
00000011111111110111000001000110
00000001010011110011001100100000
00000011110110110100011011100100
00000010111110110111100000010001
00000101001000011011011110010110
00000000010000101110110111011011
11111111110000101111110101000010
11110111100111110011111101010100
00000000100010100111011100110100
11111101011101111111101100110000
00000101001111010000001110000110
00000010110001101100001001100011
00000001101011000010110101001011
00000011111000111110101010011000
11111101110101111100100101101000
00000010000011110100001100001010
00000010001001110111000010000011
00000100000101001000010001011001
11111100001010110101000001100000
11111010110100001110110101110111
00000010000001101101110101010111
00000001011010111001111101111101
11110111011100110000110110100100
11111110111000111010100100100110
00000001000000100111111111001000
00000110100010110100111011010101
11111011010011110010110111011010
11111111010110000001001101010100
00000000101100011111000101001101
00000100111000001001110000000001
00000011001000100110000101001001
11110110010101001100101011101011
00000011110100110001111001001000
11111111010000101010100110100011
11111101101001000111100101010111
00000011010100010110011101001010
11111101111010001011001000101000
00000101010111111101011011001001
00000010011010110001111011101000
11111111001100110111101110010001
00000011101111011101011001000110
00000001001010101011111001111110
11111111110101100001101100001111
11111000011101111110010001010001
11111011101100100101000101110001
00000010011000101011010001010111
11110111011001100011011001010101
00000101101011010011111001000011
11111010101101111001111000001110
00000011100111110110010010000010
00000001001111111101011011001011
00000110011010101010010011110011
11111011111100111000001010111001
11110110010100001111000000011101
11111111100011110000101101011011
00000001000110100101100100000101
11111101000110000000101011111001
00000001110111011111101001001110
00000010010110110010101010101111
00001001000111011000011111000101
11111101111000110010111010001001
11111111101001010110110000001100
11111111101101111101010111000001
00000011110000011001010110101111
00000010100011101101001001101001
00000001001111001111100001010101
00000100001100111000101100011101
00001010001111110110101110000001
00000010110010101000100100110100
11110110111001111000000110000010
11111011101010000011111110001001
11111110011001000001011011000100
00000000101110000101110100110000
00000000011000010110101100011101
11111110001001000111000100011101
00000100001001010000100101101001
00000010101011110010000000000100
00000001100001010101011111101001
11111111110001111000100110000000
00000011100001101010010101010111
11111000100011101010000100110111
00000011101110100000010110110110
00000110100001111011111010101111
00000101111000001110001110011100
11111110110111010001101001110101
00000011011000101001001001011110
11111101010010100111001001000010
11111000111101011111011000111010
00000000000100101011110101101011
00000010100110010110001000000100
11110111101111011111111001000110
00000000000011001110010110010110
11111101011101101110000101100010
00000011101111111110010000101000
00000010011000101000001111100100
11111111110001011101100111000010
00000011110100010000111011010011
00000001000110000100001100001001
00000001100100001001001010001011
00000000010010001000100001000111
00000011010100000110011111001110
00000100000111111111011011010100
11110110101100011111000110010000
00000101111101110000100101000011
11111100110100001010100010110100
11110110001110110100101101110100
00000011100000110010111010010101
00000000110001010011011100010101
00000100000101010000001101000101
11111110100110011000011111100111
00000100110101001110100001110100
00000100001101011000011100111110
00000000100100000111001000001010
00000001011000111111110011010110
11111100111101000001101100101110
11111101110001110110010010010010
11111100000000011101000001101111
11111110101101101001010110010010
00001100010000010011111111111110
11111111011010010000101111110100
11111110101101010100000111110011
00000001101010010100111111001101
00000011111011101110000000100111
11111101011011111010100101101100
11111111101101000101001101001111
11111110101111101101000010010000
00000011111101100110100100100000
11111000101101001110011100101000
00001000010111100000001100011011
00001010100101101110111110001110
00000100100000101100011001000100
11111101100001101100100011111010
11110110100011000100010001100000
11111001111100000011100001100010
11111111011111010001111001100001
11111001010011100100000000111000
11111111100100110000110001011010
00000100110111111111100101101101
11111000101100011001010001000001
00000100001111011101001011110111
11111101000100111011001101001011
11111101001101011000001011111101
11111101010101101100000000100101
00000001010000001000010010011011
00000001010000001111000001010010
11111011011111001110100011001110
11111110101100001111010110101110
11111110001100011111000011010100
11111110001111011100011110011100
00000011110001100111000001001101
11111101010100000011001100011111
11111011001000000001111011001011
00000100001100011100111111011011
11111111000100101001100010001101
11111000011011100100000101100100
11111100111101011010000000101111
00000010110111111011110110110110
00001000001010010100000100011010
11111011110001100010010110000010
00000011010101110011000110110001
00000110110011010011000011001001
11111011010000010110111001010100
11111110100011000000000011010010
00000010110100110001111001010001
00001001011111111100110010001100
11111110010010011101110101001100
00000010001001101010001001011111
11111110110010101101100101100110
11111111000010101001000101000111
00000001101001010101011100100000
11111011111001101110001001011101
11111011110101101101010110101010
00000100100111010000001010011000
00000000010001010000110101101000
00000100110101110111001101001011
00001000100000001100100010001010
00000000111010110000011111100000
11111101101100100001101001100100
11111101000111110001010101100101
00000010101100011001011010000001
00000011111111000010100111101111
00000111111000011100101011010111
00000011110010110101100011111111
00000000101100000111011100001000
11111111010011011100110111110100
11111011101110101101011101010100
00000001101011110010011001100110
00000000111000101101101000001100
11111111001000101100011111011100
11111000000000110111011110001001
11111001001010110110101101110000
00000000111000111001100000111101
00001000010001110001011001000001
11111111000001011011111000101010
00000011010110010111101000011100
00000100101001111001010001000001
00000100101010101000100101010011
11111111011011111010100100110101
00000001101110101100100001001011
11111010101110111101011001010101
11111111001111101010100101001110
11111011011100010010001011101010
00000010111010010010011001011010
11110111110001111110010000011001
00000001011111000001011111011011
11111111000110111111010010110100
00000101100111101111110110110110
11111111100111000000001110001100
11111010110000111010010011001111
00000101000101001110111001000001
11111100011111111100111011000010
11111101111011100101110101101001
11111100011000111000100100010001
00000011000101110000001000110100
11111111000111000110100100011001
11111101110101100101110011001011
11111111111001100011000010110111
11111110010001010100000110001100
11111100110001010010110000100111
00001000111000010110101100110000
00000011000100010010011111000010
00000010011010111101001111101100
00000001101011000100001010010100
00000001011110100000011001001000
00000010100110110110001110110111
11111101001110000101101001001111
11110101111010100001000011010111
00000100001010110011011111111100
11111000010001011000000011111010
00000011100010010111100010011100
00000000001100111001011101110111
11111001100001110010011011111110
00000001011000011000001010000000
11111101101100001011100111100111
11111000111111011011100000010001
11111011010011011111111010010111
00000011110101000110010110101110
11111110010100100011111000000001
11111101000010100000010011011101
00000001010100011101100101001000
11111110001101010101100011010111
11111111001101100001101110001000
00000011100101100111100100101110
00000000000100110101001111101000
11111111110101101111010111001111
11111110000011110100100000101111
00000000000010011100010101001100
00000000111111001011111000000000
11111000110110101000111000010000
00000010011010110111100101011001
11111101011101111011001110011010
00000000100111010011110011010110
00000000111010000000110100000110
11111110010001100010001101010001
00000101000101001101010001011001
00000101010000010010000011011111
11111011111111001100011010001110
11111101100001001100001011001101
00000110110101011000101001101100
11111010011100001110111100111101
00000011010111011001001101101110
11111110101110101000110001000101
00000001111101001011010101110111
11111101010011001001000000111111
11111110110011001010001101010101
11111111101100000001101001111011
00000000111001000100001111110011
00000001011001110000101111110010
00000011101101001011110010011000
00000011101001111011101000110110
00000010110000010011101011001001
11111111110011000100010011010111
11111010111101111011011000110011
00000001011100001110100111110001
00000111000010110110001111010001
11111110101011111011001000001100
00000010010100011100111001011111
00000010001110110111111011001000
11111101000110011001011000110110
00000000010110111110101100000001
00000000001110000100110111011110
00000110001000101000000011011010
11111010100000110100101110100010
11111100111100111100100001110000
11111111111010001101111111010111
11111110000101111110011011001101
00000000101111110100000001111000
00000110011001101111101010110100
11111110101000011011000010000101
11110111010010001100010011001001
00000010000000000001010100001101
00000000001000001111111011000000
11111110001011110101100011100100
00000100000010101110110111100011
11111110000100001011000111011101
00000010100111111001111110010010
00000011111110100101110101110000
00000010001110001101101101110110
11111111011001000000100001011011
00000010110010110101111011000100
11111101011001001101001000011111
11111011000011001100010110100011
00000010100010000000001010000110
11111000100001000010011111100010
00000100001010000000010001001011
00000000011111101100011111011010
00000100011100100100000111101010
11111001101110010001101110011000
00001000010000011101101010100000
11111011100110011111011011101000
11111100100000100001011000001010
11111011110000101001001111101111
11111011001010101001111010011110
11110110011110000100100000010101
11111101110111110001111110101111
11111010011011011101100011010111
00000010010101001011101011000100
11111110000000011001001100111010
00000001111000000010000101001011
11111101010000010110101000110011
11111101001010111110100010000100
00000110001000010010110110001111
11111111100000000100110111011101
00000000001001000100100010101000
00000110101100100111101010100110
11111101001011111111011110010100
11111011101100111010110111111100
00000100100110101111000011110101
11111111101010010010101101001110
11111101100010001100100101001011
00000001111010001110010011110111
00000010110110100101001100110100
11111011111100101100101010000011
