00001011011010111110010010001100
00000001000001100010101111111110
00011110101110111111011011011101
11101110111011001110011110000110
00000101100101110011001011010100
00000110011110101100000010101110
00000010101011000101000011111111
11111000011100110100110001011010
00100111100010101001111100111010
00001111100100011000000010100010
00010110100110110011011110101100
11110010011011011100111111011110
00001001001010000100110101110110
11110000111001100011011000100111
11011100000010101111111101001001
11101010100110011000010111001111
00010110001011000010011100110101
00001100110011111000010010001110
00000000100001010100111011001111
00000100001000100110100010001100
00001100101100110011101110100101
11011010100000000100100010111000
00000101100001011110000111110101
00000001100110111110001011110110
11111000100101001000011100100001
00010000110101111110011111000110
00001011010000011000101110000110
11110111101000111100100110000111
11011100100101101001001110010011
11111000101100110101000101001011
11011000100010100101110111010011
11111100100011010110001010001010
11111110100010100000101101110001
00001111100110001101110110001011
11111000001111010010011011000110
00010111101011110110011111010010
00001101010111010001101011100111
00001011101110011011011101001100
00011010001110100100011011101101
00010000000100000101100110111000
