00000011000100000011010001111111
00101101000100111001111111101110
11011000100011011111010010000111
00010010100000011110110110011011
00011001010110111010111101110110
11101100001100000111010000010111
00010101000110010110110000011101
00101001010011000000000100000101
11110000110010011111110011100100
11111010000011000011101100011111
11101110100010000000111001011001
11110101101000010000011001111011
11110010011100010100111001110101
11110011111010000111000100001010
00001111010000001011001010000001
11110101001111000110000110010010
00010111011100110010101110000110
11110110010011000111000100000011
00011110110111000111100011000011
00001100011000111110001100010101
00011000011001000000101100111101
00001000000111100001101110010110
00000010111000101000000010001111
00011011001011010000110101000110
00001110001000011110100001000000
11011100100100101101110011010000
11100110110101011101101001111011
11110001110101001111001010110111
00001000010111100101010101001110
11111010110111110101010000010111
11111100110111011000101010111101
11110000111000100100100100011001
11111000110110100101100000011000
11110011000010101100100000101100
00011001001111101000001001111101
11101111011011000000101110100100
00001111100111011000010101011010
00000010101001011000011100000100
00001011011100000000000100101000
00001101110010110111110111100001
