00000110100000111010001001001110
11110000001000100000101100010100
11110000111101110110000001000111
11111110101000100100011110110011
00101011111100111001000010111011
00000010001000111011010010011111
00010000100110100111011110001101
11111011100000111000000011000001
00100110010001011111111101111000
00000010110010001000111011110111
11111010011111100100001101100111
11111010101111001001010111110001
11111101101011101101101011101011
11110000111101100001010010001000
00010100011110101001001010010101
11111110100111100011111110110011
00100011101111100110001001010001
11101001001000011100111100111000
11101101101111000111111101101010
00001111011110110010101100110100
00001100011011100010010111011110
11110001000110010011101100010101
00100010011111001101001000011000
00001100111111101111111001111100
00000011100111101000000000001111
11111010010001111100011001000111
00010111110010001110100100110010
11101010110111111110111010100001
00000000100001000110011110001011
11101101101100011010100111011101
11001000001000011001011111000011
11110001011110100011010110010010
11111001110010010100101101000110
00010000111110111100101000000101
00001011011011110010010011111001
11110101101110000000001100101100
00000100001100100100110110000110
00011100101011110001100100010101
00001000011001001001111100010010
11101101011100001110011111000111
