11101100010101111100010101001111
11101100101100011101000001101001
00010101101010000100011001001010
00001000101011101101001011110100
00011000010011001100001101010001
00001010101000100010001000000010
00000110100001100010111101100001
11011011101110010000111011101000
11110010010001111011101110111101
11101101111101001010010000001111
11110000010001110110001110001110
00100000010100010100000100010100
11111111111110010100101100010101
11101001110000111010111001111111
11010011111001101011100111010111
11100001100000011000101011011101
00001111010011100011110011100000
00000100010111001011010000001011
11110100010101001111001011000101
11111101111110100100001111110011
00001000101111111011001000111001
00100100111100001001001000101110
11011010110010000101110011110010
00000111100101101110010001100001
11111100101111000011111000010000
11110100010110100011011001100000
11110000011000001110101011001010
00010000001011001010100000010000
00000101011000100111101011000100
11111010011001101010000010101100
11010111101101001101000100001101
00011000111011110111100101011101
00010111010101000001011110101001
00010001110000110100110000011101
00010111001110000001011111101101
00000101111010111100101110110010
00010010101100100000011111010110
00001010000100001110000101111111
00000001110001111000101111101100
11110100001000011100011010111101
