11110010101000001101110011100001
00001001000110101000111011100110
11100111010111000110111001000000
11010100011111000111010001011011
00001000000110010010100111100101
11110110001101011011100111000010
00001011010011100011110000100110
00001101101010010010100001010001
00000111100101100000001000101101
11010101100111100101110110010010
00001110010100110101010101001010
11110100001101011110010001111101
11101010011011110110000010010101
11110000110110011100111100000000
11111011010001010001111000010011
00000011001101110000010001101000
00001111011010011101110110010011
11111100101000110000110011001010
11111000011101110001001000100001
00000101001110011011101010100110
00000100001001101011011111011011
11111111100111101101010000000101
11101000110011010100111011101010
00010110000001101001101110100101
11101110100010011100100110101011
00001000111101000001100010101101
11111000000111010010100000100100
00001101110101001000110000101111
11011100001001010001010001011011
00000101011111010011001101110101
11111100101000110001010001000010
00001011111001110010101101111100
11111001011111110101011001001110
00001101101010110110101110110010
00110100010001010000111011010011
11110101101101011010100111000011
00100111011000100011011011001111
11100111011110011000000101000110
11111001011010010110101100001011
00000111101111000101101101010011
