11101011000100000111101101001100
11111011000101001101101100111101
11111010110011110011000011110011
11011110100001011110001010010001
11110011111100010101011100101110
00000010010111001100110000101000
11111101000001111100101100101101
00010101111101111000000000010100
00000011101110101010010100010010
11110011101111010100000100111000
11111111000010011010100000010000
00001001100110001100110011100010
11110101111000010111100100010000
00000011000100111111001110100010
11111011001111111010001010111111
00100001001010100010000110010100
11011111010110010111001001001001
00001000011011111101000011000101
00001000110100100110110001001101
00001100111001011010000110101110
00001111111110100110110111101001
11111010111111001100101011101110
00000001100111001100011101001010
00000101010101101011000000000101
11101101111010101110100011000111
11110111101111101110101110111101
00000111000011011000101101111000
11111110011011111010001111100100
00000000000001011111110101011100
11011011100011011010000101110110
00000111001011110001011111111011
11110101111001000110011111000100
00010100000111010100111001000100
00000010101011000110100001111101
00010010001111110111010100111110
00000001111110110110101110100100
11111101111110010111010001000000
11111101101101010011111001101010
11010010100111001000000111000100
11101001000100011000011010011110
