00000010100110110111010011001000
00011100000110010100110011110011
00000111000010011001111101111001
00010000111001011101101100001001
11111110011100101010110101110101
00001101001001101011110110111000
00011101111110010001100010011000
00000001111011001000100100010001
00011000011100110110111000011000
00001010101010001011100111110011
00010001110100111010101010010101
00010000000010011010000111110110
11110110000010110111100111011100
00100011000011011011110011001110
00011011001100100001001100000001
11100101111101111010000001001100
11101111011011011011101010111110
11111001010000101100111010111101
11100101110011111001111101100001
11110100100000010000010101011010
00010001101111101101110001101100
11111110110100010011100010110111
00011000100111111100010111110010
00100000111100010101101000010100
11110111101110011101001101011001
00010111110011010001000101011011
11111010111100001001000110101010
11110110111000000111001000110010
11101111101011110101001100000110
00000001010111111010000001100000
11111111110001010101110000010011
11110110110011110110111010000110
00001011001111001011110001011000
00001011011101011010000100011100
11110100110010110011101000010101
11101101010001111110101111010011
11111000010111101010000111001010
00001000101010001101101010101101
00001011001101111100000000001101
11010010111100010110100011000010
