11111010000011011011100110101011
00001011000001001110110000010110
11101011101000110000000001110011
00000111101110101111010110010111
11110100111111011101100010001110
11110000101110110101100110101100
11110101101001000010010101101000
00010111000000010001000001010100
00001100101110111010011000110110
00001011101101100110010110100111
11110101011100110010101101011001
00000110101000100001000111000100
00000011100110000101001110001110
00010011011101001011010100010101
11111011101000011110101101011010
11100011011011011000011110000111
11111000101111110100001100110001
00000011011100101100001010110110
11010111011111110000000100110101
00011101001001110011000100111010
11101111100111110101110001010110
00000011111001110111001010110100
00010110110110101000111011110001
00010010001010000000101110000010
00010001111011101010111111110101
11111011111000101001011100110011
00001011110101100111010111001000
00110100011100000111001000101101
00001010101011100110000111101000
00010000010001100110010010001110
