11111010001000001010111111111011
00010111100111011010101111011101
00011100011100110000111001011100
00000101001011001001010010101100
00000000110111110101111010100000
00000001101011100111100111010000
11101110011111001101110110111100
00001011110101001011011101100000
00001100011110010001101111101111
11100100001001011100110110001011
11110110111100110110110101001010
00011010000101011110000101010010
00011111010001110100100010111001
11110100010101001000110000001101
11100011101101100011101110100110
00001011100100010111100100000101
11011111101110111110110110110011
11110111101001111111111000000001
11110100100011100000000101100011
11110111010011001100000111001111
00001001010100001111101100101110
11101111010000100101011110110000
11111101010011011010001011111101
11111100101110100000010100001001
00100101011011011001101111101011
11011011111100111110001110011111
00100010011010101000110110110010
00001100111100101000110111100111
11110100100100111111101110000000
00011011111111100011000100110011
