11001111000010011100111100010011
00001010000110011001010001100001
11011111110111110100100010001011
11111001000001001111011101110111
00010010110100010101011111010110
00000010110000001111111010001100
00100100010111010111010001011010
00011111010011010101111000101101
11110111111101010011101000000101
11111101100000000111111101101110
11111001001101010010110001100101
00001100000111110101111111000111
00010010111101100011100110001001
11111001110100100010011010111011
00010101011010011010010011100000
11011011000100010101110111000101
00000111101100011111001011001101
11111100111100110011011000111100
10111110000001101001101000011010
00100111101000111110011000111101
00001111100111001110111010000011
00100101011010010011111111010101
11101100111011110101000011000110
11111001111110101100010111111111
11111011001011000000000010100011
