00001110101001101110001000011111
11010101000101110100010100100010
00001101101101001010110111101010
11101100010011010001100011110101
00011011111111111111100111100101
11110100101111110010001100101110
00001010100000011000010011101011
00000001000011001111100100001011
00000110010000110010000101101010
00001110010111001001001001100100
11110100011111100001100110011100
00110011010001100010111100100010
11111101110010100011100001010111
01001000100000001111101001011000
00011010111101101100011011000100
00001101100110100011110000000100
00000011110001001011010110011011
11011001111111011110101001010101
00000000010110010001010010011001
11111011001110101111000011001011
11001010000000000111100001010110
00101001110000100101100000110011
11100011111100001110111000000100
11111010011100110001100110100000
11100011011111101010111011110101
