11110010110001000011101101010010
00001010100101101001100010100011
11110111001010111110111010101100
00100110011001111100010001101111
11111111000000100111000000101100
00001110000100011111011111001101
11100001011010010001100011010111
11110111010111111101101100100110
00010011000001101101101000001010
11011111101111010110100111101001
00010010010111000110100110111110
11101011011110011011101110000000
00000110001101100001111100001110
11111010111000111100100110010110
00001111010100111101111011000010
11010000011000010001111001010001
00101011011011001110110011101001
11011011110111011000011000010110
11111100001001101110000110000001
00010100110000100000101010100011
11111111100100100110100101111000
00100001111000100100011011110101
00001100100000000010110000100111
00010110000001001001001100010000
11100110000111111111100010111001
