11011100001100101101100000001100
00100101111100111111110010011100
11110111111001101100110100101110
00001010011111011001101101100000
10110100000000111000111011000010
11111001000010001101010010001000
00000000000100110110000110110111
11001000111111110101001000011011
00010111010010101111000011010110
11111101111110101111110100110001
00001110100000111010110111010010
11100101001111000101110011100011
11101100101010100111100000011001
00011100110101010010100100111110
00001111111100000100000101010111
00001111000101011010101010110010
00001101111110000111000000010011
00110100100011110010011010101100
00010000011001010110110100101110
00101000011001100010000000001100
