11100100001001011010000000001101
00100111011000000101111000010101
11101111011001011110011100100100
11100100100011100001110010101110
11110100001010000101000100111001
11110110001011110001101111011010
00011101100010111111100110110000
11100111011101110001000011110000
00010011101101000101000011010111
01000100001110000111011011010010
00010100100111011001000101010011
11101111000011110011100111111101
11111010110010101111101100100111
00101110010011011010111111100111
11110110111001101100110110101111
00001000001011110011011010011001
00101010011100110100000110110000
00010100100110010101010101110010
00101110111011011001001111001010
00010011101100101000100010110000
