00001000011100100010001011010101
00001011010100100010111010110000
11111111000111110010010011011111
00001000010101100111010101000000
11110001010000001110011001010000
11100101111001110111100101001110
00010100110101101001000111000111
11111111101101001110100101000010
11001101001001111011001111101000
11101010110011100100110101110011
00010100101010001000111111100010
00000100101010000110101011000101
00011100101100011000110001110111
00000100000101101110100101010001
11110010000111100110111000101010
11110100100010100111001111011011
00101100111010100001011101110110
11100001100100000001110010101101
11111010111101101110010111100100
00010101011110011101100001111110
